const unsigned char model[] = {
  0x20, 0x00, 0x00, 0x00, 0x54, 0x46, 0x4c, 0x33, 0x00, 0x00, 0x00, 0x00,
  0x14, 0x00, 0x20, 0x00, 0x1c, 0x00, 0x18, 0x00, 0x14, 0x00, 0x10, 0x00,
  0x0c, 0x00, 0x00, 0x00, 0x08, 0x00, 0x04, 0x00, 0x14, 0x00, 0x00, 0x00,
  0x1c, 0x00, 0x00, 0x00, 0x94, 0x00, 0x00, 0x00, 0xec, 0x00, 0x00, 0x00,
  0x6c, 0x5b, 0x00, 0x00, 0x7c, 0x5b, 0x00, 0x00, 0x94, 0x61, 0x00, 0x00,
  0x03, 0x00, 0x00, 0x00, 0x01, 0x00, 0x00, 0x00, 0x10, 0x00, 0x00, 0x00,
  0x00, 0x00, 0x0a, 0x00, 0x10, 0x00, 0x0c, 0x00, 0x08, 0x00, 0x04, 0x00,
  0x0a, 0x00, 0x00, 0x00, 0x0c, 0x00, 0x00, 0x00, 0x1c, 0x00, 0x00, 0x00,
  0x38, 0x00, 0x00, 0x00, 0x0f, 0x00, 0x00, 0x00, 0x73, 0x65, 0x72, 0x76,
  0x69, 0x6e, 0x67, 0x5f, 0x64, 0x65, 0x66, 0x61, 0x75, 0x6c, 0x74, 0x00,
  0x01, 0x00, 0x00, 0x00, 0x04, 0x00, 0x00, 0x00, 0x94, 0xff, 0xff, 0xff,
  0x08, 0x00, 0x00, 0x00, 0x04, 0x00, 0x00, 0x00, 0x07, 0x00, 0x00, 0x00,
  0x64, 0x65, 0x6e, 0x73, 0x65, 0x5f, 0x32, 0x00, 0x01, 0x00, 0x00, 0x00,
  0x04, 0x00, 0x00, 0x00, 0x16, 0xa4, 0xff, 0xff, 0x04, 0x00, 0x00, 0x00,
  0x0d, 0x00, 0x00, 0x00, 0x64, 0x65, 0x6e, 0x73, 0x65, 0x5f, 0x31, 0x5f,
  0x69, 0x6e, 0x70, 0x75, 0x74, 0x00, 0x00, 0x00, 0x02, 0x00, 0x00, 0x00,
  0x34, 0x00, 0x00, 0x00, 0x04, 0x00, 0x00, 0x00, 0xdc, 0xff, 0xff, 0xff,
  0x0b, 0x00, 0x00, 0x00, 0x04, 0x00, 0x00, 0x00, 0x13, 0x00, 0x00, 0x00,
  0x43, 0x4f, 0x4e, 0x56, 0x45, 0x52, 0x53, 0x49, 0x4f, 0x4e, 0x5f, 0x4d,
  0x45, 0x54, 0x41, 0x44, 0x41, 0x54, 0x41, 0x00, 0x08, 0x00, 0x0c, 0x00,
  0x08, 0x00, 0x04, 0x00, 0x08, 0x00, 0x00, 0x00, 0x0a, 0x00, 0x00, 0x00,
  0x04, 0x00, 0x00, 0x00, 0x13, 0x00, 0x00, 0x00, 0x6d, 0x69, 0x6e, 0x5f,
  0x72, 0x75, 0x6e, 0x74, 0x69, 0x6d, 0x65, 0x5f, 0x76, 0x65, 0x72, 0x73,
  0x69, 0x6f, 0x6e, 0x00, 0x0c, 0x00, 0x00, 0x00, 0x7c, 0x5a, 0x00, 0x00,
  0x74, 0x5a, 0x00, 0x00, 0x50, 0x5a, 0x00, 0x00, 0x4c, 0x58, 0x00, 0x00,
  0xac, 0x56, 0x00, 0x00, 0xac, 0x00, 0x00, 0x00, 0xa4, 0x00, 0x00, 0x00,
  0x9c, 0x00, 0x00, 0x00, 0x94, 0x00, 0x00, 0x00, 0x8c, 0x00, 0x00, 0x00,
  0x6c, 0x00, 0x00, 0x00, 0x04, 0x00, 0x00, 0x00, 0xc2, 0xa4, 0xff, 0xff,
  0x04, 0x00, 0x00, 0x00, 0x58, 0x00, 0x00, 0x00, 0x0c, 0x00, 0x00, 0x00,
  0x08, 0x00, 0x0e, 0x00, 0x08, 0x00, 0x04, 0x00, 0x08, 0x00, 0x00, 0x00,
  0x10, 0x00, 0x00, 0x00, 0x28, 0x00, 0x00, 0x00, 0x00, 0x00, 0x06, 0x00,
  0x08, 0x00, 0x04, 0x00, 0x06, 0x00, 0x00, 0x00, 0x04, 0x00, 0x00, 0x00,
  0x01, 0x00, 0x00, 0x00, 0xeb, 0x03, 0x00, 0x00, 0x00, 0x00, 0x0a, 0x00,
  0x10, 0x00, 0x0c, 0x00, 0x08, 0x00, 0x04, 0x00, 0x0a, 0x00, 0x00, 0x00,
  0x02, 0x00, 0x00, 0x00, 0x02, 0x00, 0x00, 0x00, 0x04, 0x00, 0x00, 0x00,
  0x06, 0x00, 0x00, 0x00, 0x32, 0x2e, 0x31, 0x30, 0x2e, 0x30, 0x00, 0x00,
  0x26, 0xa5, 0xff, 0xff, 0x04, 0x00, 0x00, 0x00, 0x10, 0x00, 0x00, 0x00,
  0x31, 0x2e, 0x31, 0x34, 0x2e, 0x30, 0x00, 0x00, 0x00, 0x00, 0x00, 0x00,
  0x00, 0x00, 0x00, 0x00, 0x00, 0xa5, 0xff, 0xff, 0x04, 0xa5, 0xff, 0xff,
  0x08, 0xa5, 0xff, 0xff, 0x0c, 0xa5, 0xff, 0xff, 0x52, 0xa5, 0xff, 0xff,
  0x04, 0x00, 0x00, 0x00, 0xf0, 0x55, 0x00, 0x00, 0x62, 0xf9, 0x1c, 0x33,
  0x0e, 0xd1, 0x13, 0xf1, 0x39, 0xd8, 0x4e, 0xa5, 0xe9, 0x2a, 0x54, 0xbc,
  0x03, 0xa4, 0x45, 0xcf, 0xaf, 0xb0, 0x2d, 0x08, 0xea, 0xc5, 0xb9, 0xbe,
  0x40, 0xb6, 0xb1, 0xc9, 0x35, 0xe0, 0x39, 0xdb, 0xfd, 0xd2, 0xda, 0x49,
  0x4b, 0xf5, 0x59, 0x3c, 0x53, 0x74, 0xf2, 0x6b, 0x53, 0x64, 0xb4, 0xd2,
  0x24, 0x0c, 0xb5, 0x55, 0xc0, 0xff, 0xcd, 0xf5, 0xff, 0xd6, 0xe2, 0x6c,
  0x3d, 0x65, 0xf6, 0x77, 0x39, 0x2b, 0xb9, 0x6d, 0x30, 0x0e, 0xd9, 0x4c,
  0xcc, 0xf6, 0x3a, 0xce, 0x12, 0x4c, 0x0c, 0xd9, 0xed, 0x3e, 0x46, 0xce,
  0x4d, 0x22, 0x26, 0xb9, 0x51, 0x3f, 0x09, 0xca, 0x43, 0xd5, 0xb8, 0xd3,
  0xf7, 0x0f, 0xcf, 0xd5, 0xd2, 0x01, 0x2c, 0x5c, 0x4f, 0x40, 0xcd, 0x10,
  0x48, 0xdc, 0x08, 0xc5, 0x2c, 0x16, 0xd5, 0x0a, 0x14, 0x51, 0xc3, 0xc9,
  0x52, 0xd1, 0xbb, 0x5e, 0xdf, 0xdd, 0xc8, 0x50, 0xd7, 0x60, 0xc2, 0x58,
  0xcd, 0xf2, 0xc5, 0x60, 0xfe, 0x2c, 0xbc, 0x48, 0x60, 0x2e, 0x39, 0x45,
  0x55, 0xdd, 0x61, 0x22, 0x16, 0xfc, 0xcd, 0x06, 0xf0, 0xeb, 0x1e, 0xd6,
  0x03, 0xea, 0x00, 0x26, 0x10, 0x4f, 0x4b, 0xc6, 0xe7, 0x1a, 0xdc, 0x5d,
  0x23, 0x2f, 0x1b, 0x13, 0x30, 0xb8, 0xd4, 0x3e, 0xcb, 0xd6, 0x1f, 0x16,
  0xfe, 0x04, 0x10, 0x27, 0xb0, 0x4c, 0x01, 0xfe, 0xfd, 0xcc, 0x23, 0x2f,
  0x56, 0x36, 0x13, 0x06, 0xe5, 0x0e, 0x47, 0xc4, 0x2b, 0xba, 0xe3, 0xc5,
  0xc1, 0x25, 0xbd, 0xc3, 0x09, 0xe8, 0xce, 0xe8, 0x3e, 0xb9, 0xdf, 0x21,
  0x0e, 0xbf, 0x13, 0xd0, 0xc3, 0xa3, 0x68, 0xe6, 0xe9, 0xbc, 0x57, 0x9c,
  0xe7, 0xc8, 0x56, 0xdd, 0xf6, 0x43, 0xb9, 0x38, 0x4e, 0x14, 0x49, 0xb5,
  0x38, 0xf3, 0x41, 0x55, 0x31, 0x1f, 0x5a, 0x3c, 0xca, 0xab, 0x21, 0xc4,
  0x59, 0xf1, 0xfc, 0xfc, 0xd9, 0xce, 0xc5, 0xee, 0xc0, 0x11, 0x62, 0xd3,
  0x13, 0xf3, 0x34, 0xb8, 0x5d, 0x17, 0x33, 0xd8, 0x26, 0xdb, 0xd3, 0xd2,
  0xbe, 0xb4, 0x0e, 0x23, 0x45, 0xdd, 0x13, 0xf6, 0xbe, 0x4c, 0xee, 0xb2,
  0xf3, 0xc6, 0xf4, 0x50, 0xe7, 0x50, 0xb0, 0xb0, 0x53, 0xd2, 0xd4, 0xd3,
  0xe4, 0xb8, 0x42, 0xb3, 0xeb, 0x54, 0xf2, 0x1a, 0xff, 0x40, 0x29, 0x37,
  0xd9, 0x36, 0x3f, 0x16, 0xc8, 0xf8, 0xe6, 0xc6, 0x33, 0x59, 0xca, 0xaa,
  0x01, 0xfa, 0x1b, 0xca, 0xae, 0x17, 0x35, 0xd8, 0xc2, 0x21, 0x4d, 0xc6,
  0x50, 0xcd, 0xb2, 0xda, 0x45, 0xea, 0x38, 0xcb, 0x4b, 0xb9, 0xe3, 0xf3,
  0x52, 0x62, 0x58, 0x41, 0x06, 0x33, 0xea, 0x50, 0xc4, 0x5c, 0x04, 0xe3,
  0x08, 0x0a, 0x39, 0x06, 0xb1, 0xe3, 0x0f, 0xd9, 0xc1, 0xca, 0x10, 0xcf,
  0x50, 0x36, 0x5b, 0xb8, 0x55, 0x2a, 0xc3, 0x41, 0xf8, 0x28, 0x0c, 0x01,
  0x3b, 0x44, 0xd5, 0xf7, 0xb0, 0xb7, 0xbb, 0x17, 0xe1, 0x16, 0x03, 0x16,
  0x5e, 0xd8, 0xf1, 0xfa, 0x3e, 0xe8, 0x02, 0xf1, 0x24, 0x1a, 0x4e, 0xe6,
  0x44, 0x0e, 0xc5, 0xac, 0xd4, 0x3a, 0xc5, 0x0f, 0x12, 0x17, 0xda, 0x38,
  0x3b, 0x1c, 0xaf, 0xd3, 0x47, 0x16, 0x1e, 0x1b, 0x45, 0x5c, 0x06, 0x0b,
  0xfd, 0x40, 0x3d, 0xd0, 0x23, 0x16, 0xfd, 0x57, 0x3b, 0xf4, 0xf0, 0x0f,
  0xbb, 0xe8, 0xbf, 0xc8, 0x22, 0x3e, 0xe1, 0xf6, 0x46, 0xb0, 0xfb, 0xd9,
  0x36, 0xc9, 0xdb, 0xa6, 0x07, 0xb1, 0xc4, 0xe9, 0xc1, 0xe4, 0xce, 0x4d,
  0xdb, 0xef, 0x0f, 0x2c, 0x35, 0x2e, 0x28, 0x4b, 0xcb, 0xeb, 0xfa, 0xcd,
  0xf8, 0xd0, 0x46, 0xa9, 0x10, 0x9e, 0x20, 0x21, 0xd7, 0xbf, 0x04, 0xcd,
  0xe5, 0x0d, 0xd3, 0xf8, 0xbb, 0xa4, 0xec, 0xc8, 0x05, 0xbd, 0x3e, 0xb9,
  0xa0, 0xab, 0xd7, 0xba, 0xd4, 0x37, 0x00, 0x26, 0x27, 0x3f, 0xd1, 0x38,
  0x0e, 0xf4, 0xdb, 0xb8, 0xe7, 0xc3, 0x40, 0x32, 0x0d, 0xc5, 0xf9, 0xdb,
  0x3c, 0xa8, 0x53, 0x07, 0xe8, 0x09, 0xdf, 0xa1, 0x48, 0x11, 0x02, 0x9f,
  0xeb, 0x4f, 0x45, 0xf3, 0xcd, 0xc1, 0x1f, 0x3f, 0x4c, 0x1b, 0x3d, 0xcd,
  0xbe, 0xc6, 0xe5, 0x4d, 0x0c, 0x30, 0xb9, 0xf2, 0xfc, 0xb8, 0xc8, 0x02,
  0xe8, 0xd8, 0xdc, 0x45, 0xfd, 0x09, 0x5e, 0x14, 0xff, 0xf2, 0x1d, 0x3e,
  0x15, 0xf0, 0x0d, 0xc2, 0xb8, 0x43, 0xcb, 0xc5, 0xbb, 0x20, 0x19, 0x0d,
  0xe6, 0xef, 0x4d, 0xbf, 0x1d, 0x05, 0xe3, 0xa8, 0x50, 0xd4, 0x3d, 0x3f,
  0x03, 0xbe, 0x40, 0xdb, 0x3c, 0x3f, 0x00, 0xfb, 0xb1, 0xf5, 0xe3, 0xc8,
  0xf5, 0x23, 0x3e, 0xc2, 0x09, 0xfd, 0xd9, 0x37, 0xa7, 0x4e, 0xd5, 0x51,
  0x2f, 0x4b, 0xce, 0xd0, 0xf8, 0xb3, 0xf0, 0x0d, 0xeb, 0x0f, 0xc7, 0xb5,
  0xcd, 0x38, 0xf8, 0xe8, 0xad, 0x3a, 0xf2, 0xcb, 0x0c, 0xca, 0x2d, 0xa6,
  0xf9, 0x3c, 0x53, 0x4a, 0x0d, 0x12, 0xc3, 0xe9, 0x46, 0x16, 0x27, 0x36,
  0xce, 0x1d, 0xc9, 0x40, 0x34, 0xdc, 0xe4, 0xfa, 0x37, 0xc5, 0xfd, 0x0e,
  0x65, 0x53, 0xf9, 0x57, 0x06, 0x4e, 0x60, 0xfa, 0x42, 0x1f, 0x20, 0x49,
  0xf2, 0x4c, 0x06, 0xb3, 0x4c, 0x28, 0x71, 0x1d, 0x3d, 0xba, 0xdc, 0xb0,
  0x13, 0x05, 0x64, 0xa5, 0x2c, 0xf6, 0xf5, 0x49, 0x6f, 0x4e, 0x14, 0x23,
  0x46, 0x18, 0xe7, 0xfe, 0xc8, 0x48, 0x47, 0xc0, 0x14, 0xad, 0x09, 0x41,
  0x1a, 0xf6, 0xda, 0xc3, 0x12, 0x58, 0x17, 0x2d, 0xc7, 0xcc, 0xb4, 0x3e,
  0xb7, 0xd8, 0x05, 0x60, 0xd7, 0x5d, 0x2d, 0xb6, 0xdf, 0x4a, 0xbc, 0xe3,
  0xec, 0x05, 0x30, 0x27, 0x42, 0xf9, 0x9d, 0xe3, 0xb6, 0x1b, 0xb8, 0x40,
  0x43, 0xe7, 0xbf, 0x2f, 0x47, 0x4a, 0xf1, 0xc4, 0xda, 0xe8, 0x29, 0xb5,
  0x04, 0x0a, 0xb2, 0xf6, 0xc7, 0xf8, 0x06, 0xdc, 0xf6, 0xaa, 0x4b, 0x33,
  0x37, 0xbf, 0x36, 0xb5, 0x12, 0xb0, 0xb6, 0x52, 0xf5, 0xf5, 0xa9, 0x36,
  0x41, 0x4a, 0x45, 0x01, 0x14, 0x45, 0xaa, 0xd9, 0xc4, 0x17, 0x3a, 0x05,
  0xed, 0xd6, 0xaf, 0xbc, 0x11, 0xee, 0xfd, 0x44, 0xee, 0x3a, 0xd2, 0x16,
  0x36, 0x01, 0x37, 0xb7, 0x38, 0xdb, 0xab, 0x1e, 0xcd, 0x19, 0x1c, 0xd3,
  0x0f, 0xff, 0x24, 0xff, 0x04, 0x4f, 0x0b, 0x01, 0xf2, 0x45, 0xaf, 0x47,
  0x2b, 0xd4, 0xb4, 0xfe, 0xd9, 0x2b, 0x2e, 0x07, 0xee, 0xd4, 0xd6, 0x00,
  0xf0, 0x42, 0x0a, 0xbe, 0xe4, 0x46, 0xb1, 0xac, 0x36, 0x10, 0xbe, 0x45,
  0xf5, 0x1e, 0xd2, 0x0f, 0xcf, 0x1a, 0x28, 0xc6, 0x34, 0x3b, 0x58, 0x32,
  0x47, 0x4c, 0x23, 0xd9, 0x5c, 0x39, 0x37, 0xc1, 0x50, 0xd6, 0x56, 0xba,
  0x3e, 0x44, 0x32, 0xe7, 0x15, 0xf0, 0x5c, 0xd7, 0x58, 0x41, 0x30, 0x1e,
  0x42, 0x30, 0x1b, 0x65, 0xed, 0xdf, 0xf1, 0xf3, 0xb7, 0xd0, 0x39, 0x47,
  0xef, 0xd2, 0x08, 0x0f, 0xe3, 0x33, 0x33, 0xcd, 0xc5, 0xd9, 0x39, 0xee,
  0x09, 0x6a, 0x00, 0xc0, 0x3d, 0x28, 0x4f, 0xf3, 0xf1, 0xc6, 0x57, 0x41,
  0xea, 0x3e, 0xfd, 0x20, 0xe1, 0xf7, 0xd8, 0x6c, 0x05, 0xbf, 0xdc, 0x24,
  0xdb, 0x14, 0xe3, 0x54, 0x2e, 0x11, 0xc5, 0x5c, 0x1f, 0x1c, 0x0f, 0x1b,
  0xfd, 0x44, 0x45, 0xf4, 0xb3, 0xec, 0xe2, 0xed, 0x00, 0xb2, 0x03, 0x20,
  0x0f, 0x03, 0xec, 0xf6, 0xd1, 0xf8, 0xb3, 0xbe, 0xc2, 0x26, 0xa9, 0xc8,
  0xc3, 0x38, 0xc5, 0x39, 0x1b, 0xcd, 0xbc, 0xee, 0xdf, 0x49, 0xe7, 0xef,
  0xb8, 0x1c, 0xdd, 0x34, 0x11, 0xc7, 0x00, 0xf4, 0x1a, 0xe1, 0x11, 0x2b,
  0x4d, 0x25, 0x39, 0x09, 0x37, 0x05, 0x42, 0x09, 0xd8, 0xc1, 0x56, 0xc2,
  0x12, 0x3c, 0xba, 0xe9, 0x47, 0xde, 0xbb, 0x06, 0xe4, 0x36, 0x18, 0xf6,
  0xe4, 0x59, 0x33, 0xf2, 0x24, 0x44, 0xde, 0x42, 0xe2, 0xb5, 0x08, 0xd4,
  0xaf, 0x5e, 0xe6, 0x3e, 0xbf, 0x2d, 0xc2, 0x0c, 0x51, 0xc2, 0x20, 0x1a,
  0xec, 0xc3, 0x15, 0xce, 0x20, 0x00, 0x06, 0xe8, 0x06, 0xe9, 0xd5, 0x10,
  0x1a, 0xc4, 0x0a, 0x3a, 0xc9, 0x30, 0xca, 0xd7, 0xe6, 0x0d, 0xae, 0xe0,
  0xcf, 0x07, 0x07, 0x49, 0x1a, 0x3a, 0x46, 0x03, 0xd8, 0x3a, 0xb9, 0x41,
  0x3f, 0xc9, 0xa8, 0x25, 0xc7, 0xce, 0xe1, 0xf1, 0xcb, 0x11, 0x21, 0xc9,
  0x57, 0xbc, 0x0f, 0x19, 0xfe, 0xb3, 0xe4, 0xdd, 0xdb, 0x05, 0x11, 0xbd,
  0x2f, 0x18, 0x32, 0x0d, 0xaf, 0xe3, 0x32, 0x09, 0x28, 0x5e, 0x4a, 0x56,
  0x46, 0x06, 0x40, 0xf5, 0xeb, 0x29, 0x04, 0xf0, 0xad, 0xe8, 0xa2, 0xdb,
  0xb5, 0x48, 0xf3, 0xe8, 0x42, 0x5c, 0x24, 0x66, 0x13, 0xef, 0xce, 0x04,
  0xe8, 0xcc, 0xf3, 0x24, 0xdc, 0x1f, 0xfb, 0xce, 0xd9, 0x11, 0x00, 0xfa,
  0xd0, 0xd5, 0xe3, 0x2d, 0x04, 0xfd, 0xf8, 0xe2, 0xed, 0x0f, 0xe2, 0x0e,
  0xce, 0xb6, 0xd7, 0xf6, 0x3c, 0x19, 0xca, 0xbd, 0xfa, 0x0d, 0x43, 0x01,
  0x35, 0xde, 0x1e, 0xff, 0xba, 0xb5, 0xb8, 0xdf, 0xb8, 0xff, 0x5c, 0xa7,
  0x1e, 0xfa, 0x27, 0xc0, 0xd1, 0x39, 0xea, 0x01, 0x5f, 0xeb, 0xf9, 0x20,
  0x2b, 0x18, 0x4b, 0xe6, 0x57, 0xa7, 0x33, 0x34, 0x4f, 0xc8, 0xca, 0x22,
  0x54, 0xd6, 0xd4, 0xd6, 0xe8, 0x35, 0x0e, 0x25, 0x11, 0x41, 0x37, 0x28,
  0xb7, 0xa8, 0x42, 0x3c, 0x2b, 0xdd, 0x04, 0xb5, 0x56, 0x4e, 0x00, 0xc2,
  0xd6, 0x3a, 0x15, 0x43, 0x32, 0x36, 0x40, 0xe4, 0xf7, 0xaf, 0x1f, 0xd1,
  0x3d, 0xc3, 0xdc, 0xc2, 0xf1, 0xc4, 0xbb, 0x20, 0x2d, 0xe1, 0x37, 0xc7,
  0x3e, 0x55, 0x14, 0xc0, 0x9d, 0x1b, 0x05, 0x0e, 0xc6, 0xc4, 0xb7, 0x33,
  0x4d, 0xc2, 0x0a, 0x41, 0x9f, 0x02, 0xb2, 0xe6, 0x2d, 0x2f, 0xf9, 0xbb,
  0xff, 0xf3, 0x06, 0x53, 0x12, 0x06, 0x1f, 0xf8, 0xf1, 0x4c, 0x25, 0xf3,
  0x1b, 0xe9, 0xe9, 0xff, 0x45, 0xeb, 0x41, 0x4e, 0x1b, 0xb0, 0xcb, 0xf2,
  0x41, 0x18, 0x2f, 0xf1, 0xce, 0xf6, 0x9e, 0xd0, 0xec, 0x46, 0xc8, 0xf4,
  0x2e, 0x57, 0x42, 0x3b, 0xc6, 0xdc, 0xeb, 0x4d, 0x14, 0xd6, 0x9e, 0xb7,
  0xe6, 0x0c, 0xc7, 0xc7, 0xbc, 0x3a, 0xa0, 0x50, 0x40, 0x62, 0xb5, 0xfd,
  0x9b, 0x26, 0xe5, 0x61, 0xc3, 0x71, 0x33, 0xc9, 0x0d, 0xca, 0x0b, 0xf4,
  0x11, 0x3c, 0xdb, 0x0c, 0xfd, 0x23, 0x2e, 0x1e, 0x35, 0x0d, 0xd4, 0xee,
  0xb1, 0x1e, 0x21, 0x16, 0x46, 0xdb, 0xff, 0xcd, 0xd0, 0x42, 0xea, 0x64,
  0xd9, 0x25, 0xbb, 0x70, 0xfe, 0x37, 0x50, 0x02, 0x17, 0x11, 0x4a, 0x4e,
  0xc7, 0xc5, 0x18, 0x24, 0xec, 0x02, 0x14, 0x15, 0x1b, 0x5a, 0x41, 0x3c,
  0x5e, 0xef, 0xde, 0x24, 0x6f, 0x48, 0xea, 0x1f, 0x66, 0x59, 0x67, 0xe4,
  0x20, 0x50, 0xe3, 0xd8, 0x55, 0x25, 0x44, 0xcb, 0x38, 0x66, 0x32, 0x02,
  0x09, 0xc6, 0xd7, 0x20, 0xf1, 0x5d, 0xcc, 0xed, 0xf4, 0xf3, 0x28, 0x53,
  0x37, 0x4b, 0x04, 0x55, 0xe6, 0xb3, 0x1c, 0xd0, 0xcc, 0xb9, 0x02, 0xcf,
  0x3b, 0x09, 0x54, 0xd7, 0xd9, 0x2c, 0x39, 0xe0, 0xf8, 0xd4, 0xe4, 0xe0,
  0x5d, 0x3b, 0xcc, 0xa5, 0x1c, 0x0d, 0xbc, 0xd3, 0xcf, 0xf0, 0x3e, 0x08,
  0x33, 0xf7, 0x24, 0xc7, 0xf6, 0xd3, 0x3a, 0x43, 0xc6, 0xde, 0xc7, 0x1c,
  0xce, 0xe2, 0x11, 0x08, 0x13, 0xab, 0x37, 0xe7, 0x1c, 0x4a, 0x2a, 0xe3,
  0xfa, 0x55, 0xed, 0x13, 0x53, 0xe5, 0x14, 0xe5, 0xd3, 0x3b, 0xd0, 0x35,
  0xb8, 0x1b, 0x0a, 0xd3, 0xd8, 0xc4, 0x42, 0xff, 0x1a, 0x2e, 0x3e, 0x3d,
  0x1d, 0xbb, 0xd3, 0xe3, 0x59, 0xe6, 0x45, 0x2a, 0xee, 0x28, 0x10, 0x34,
  0xdc, 0xc3, 0x33, 0xdf, 0x31, 0x18, 0xec, 0xb6, 0xf4, 0x16, 0x1c, 0x0c,
  0x47, 0x43, 0x39, 0xeb, 0x07, 0x39, 0xe6, 0xf0, 0x12, 0x28, 0xe2, 0x57,
  0x56, 0x1a, 0x1b, 0xcf, 0xfd, 0xee, 0x21, 0xcc, 0xb9, 0x42, 0xcd, 0x25,
  0xeb, 0xf6, 0xf4, 0xf8, 0x2f, 0x6d, 0x0b, 0xe3, 0xb7, 0x2b, 0xae, 0x38,
  0x0b, 0x72, 0xb5, 0x69, 0xad, 0x2d, 0x1c, 0x62, 0xae, 0x35, 0xbb, 0x54,
  0xc6, 0x27, 0x13, 0xe3, 0xbc, 0xe3, 0x34, 0xcf, 0x1b, 0x08, 0x52, 0x01,
  0x30, 0xf4, 0xf4, 0x53, 0xd8, 0x1d, 0xda, 0x3e, 0xdb, 0xf4, 0x22, 0x1d,
  0xc3, 0xa6, 0xaa, 0x4b, 0xaf, 0x0f, 0x35, 0x25, 0xc6, 0x4e, 0xf6, 0x4d,
  0x14, 0xd9, 0x2b, 0xf7, 0xcd, 0xcc, 0xea, 0xc3, 0x01, 0x2f, 0xb6, 0xcc,
  0x4c, 0xd1, 0xa5, 0x17, 0x3a, 0xdf, 0x25, 0xcd, 0xb8, 0xcb, 0x44, 0xba,
  0x34, 0x09, 0xd5, 0xff, 0x23, 0x47, 0x12, 0x02, 0x0f, 0xc4, 0xe2, 0xee,
  0x53, 0x04, 0x42, 0xe0, 0xce, 0xd0, 0xfc, 0x40, 0x12, 0xe7, 0x18, 0xdf,
  0x50, 0x3e, 0x20, 0x5c, 0x43, 0x54, 0xe2, 0x19, 0x15, 0xb9, 0x51, 0x0d,
  0x49, 0xe3, 0xe7, 0xc2, 0x40, 0x17, 0x35, 0x5e, 0xda, 0xf0, 0x3d, 0xf3,
  0x43, 0xc0, 0xb2, 0x5f, 0xd1, 0x3d, 0xb8, 0x10, 0xc2, 0x48, 0xfb, 0xc1,
  0xfc, 0xbd, 0xd0, 0xf6, 0xc4, 0xbc, 0xb4, 0xb7, 0xe2, 0x4c, 0x52, 0x2a,
  0x4a, 0xda, 0xfc, 0x54, 0x2c, 0x09, 0xfb, 0xdc, 0xa7, 0xf7, 0xe5, 0xfd,
  0x4b, 0xc8, 0x15, 0xbb, 0xbd, 0xec, 0x0b, 0xfe, 0xf5, 0xf2, 0xfe, 0xd6,
  0xe4, 0xe1, 0x38, 0x18, 0x05, 0xa9, 0x55, 0x4a, 0xf2, 0xb1, 0x4f, 0xe8,
  0xba, 0x00, 0xc5, 0xfe, 0x29, 0x26, 0x50, 0xb1, 0xbc, 0xfc, 0x4b, 0x4e,
  0xfd, 0x3f, 0xf4, 0x10, 0xda, 0x55, 0xa4, 0x26, 0xe5, 0xd6, 0xa5, 0x0d,
  0xbf, 0x17, 0x12, 0xd8, 0x4f, 0xeb, 0x50, 0x0a, 0xf8, 0x13, 0xb5, 0x53,
  0xf6, 0x25, 0x4a, 0x31, 0x21, 0x5c, 0x20, 0x1b, 0x24, 0x69, 0xfe, 0x41,
  0xb8, 0xd2, 0x09, 0x08, 0xef, 0x09, 0x07, 0xdc, 0x06, 0x11, 0x1d, 0x30,
  0x3f, 0x1f, 0x17, 0x1a, 0x41, 0x40, 0x4e, 0x0f, 0x4b, 0x06, 0x4f, 0x00,
  0xd6, 0x0c, 0x04, 0x24, 0x4f, 0xbe, 0x52, 0x1d, 0x04, 0xb8, 0xb5, 0x2c,
  0xd6, 0xcc, 0x32, 0xa9, 0xc9, 0x16, 0xbb, 0xcf, 0xc4, 0xae, 0x06, 0xb5,
  0xf8, 0xe2, 0xdb, 0x45, 0x26, 0xe1, 0xdf, 0x29, 0x2d, 0x18, 0x47, 0x03,
  0xd6, 0xbb, 0xe1, 0x22, 0x01, 0x16, 0xd1, 0x38, 0x19, 0x14, 0x53, 0x19,
  0x62, 0x3c, 0x00, 0x5c, 0x53, 0x18, 0xb4, 0x41, 0xbd, 0x21, 0x0c, 0x4d,
  0xf2, 0x26, 0x42, 0xfa, 0xbf, 0xaf, 0xf5, 0x59, 0xec, 0x1c, 0xd8, 0x4f,
  0x43, 0x1b, 0x11, 0xf3, 0xff, 0xce, 0x3c, 0xce, 0xe1, 0x24, 0x0e, 0x10,
  0xab, 0xf1, 0xb2, 0x4b, 0x53, 0xd0, 0x17, 0xda, 0x1b, 0x19, 0xa7, 0x54,
  0x33, 0xa5, 0x47, 0x4a, 0xd7, 0x2c, 0xd1, 0x28, 0xe7, 0xce, 0x17, 0xdb,
  0x13, 0xb6, 0x07, 0xec, 0xc0, 0x23, 0xf4, 0xf7, 0x0c, 0x30, 0xa1, 0xf2,
  0xad, 0x22, 0x37, 0xae, 0xc7, 0xbd, 0xe5, 0xb9, 0xda, 0xd3, 0xee, 0x10,
  0xf7, 0x47, 0x0f, 0x05, 0xbb, 0xc7, 0x1c, 0x0d, 0x3a, 0x0f, 0xee, 0xce,
  0xf4, 0x67, 0x61, 0xf8, 0xe2, 0xfd, 0x24, 0xdc, 0xf5, 0x0d, 0x5e, 0xf8,
  0xc5, 0xdb, 0x48, 0x4c, 0xf7, 0xbd, 0xe5, 0x24, 0x1e, 0xa2, 0x41, 0xcb,
  0x2a, 0x1c, 0x47, 0xc7, 0x18, 0x13, 0xf0, 0xf7, 0x4c, 0xbb, 0xca, 0x31,
  0xc5, 0x29, 0x2f, 0x34, 0x1e, 0x15, 0xb4, 0xac, 0x53, 0xa2, 0xc2, 0x05,
  0x12, 0xb1, 0xfc, 0xea, 0x4f, 0xc0, 0xb7, 0x2c, 0xf7, 0x31, 0xec, 0xe1,
  0xc1, 0x4e, 0x30, 0xa8, 0x19, 0x11, 0xeb, 0xc1, 0xee, 0x0c, 0xc1, 0xbf,
  0x01, 0x23, 0xa5, 0x4e, 0xd1, 0xf0, 0x49, 0x5f, 0x2a, 0x54, 0xb8, 0x00,
  0x14, 0x47, 0x55, 0xf4, 0xd3, 0x03, 0x2c, 0xcb, 0xf7, 0x16, 0x3e, 0x5f,
  0xc0, 0x2a, 0x4c, 0xd0, 0xfa, 0x3e, 0x10, 0x65, 0x48, 0x4e, 0xda, 0xfb,
  0xf4, 0x4d, 0xbb, 0xe2, 0x01, 0x4e, 0xb8, 0x01, 0xb7, 0xb5, 0xc4, 0x3e,
  0xae, 0x4f, 0xbf, 0xe2, 0xbe, 0xf1, 0xff, 0x49, 0x56, 0x56, 0xd9, 0x44,
  0x53, 0x3f, 0x07, 0xf0, 0xbd, 0x22, 0x15, 0xb8, 0xee, 0x2d, 0x0a, 0xfb,
  0x4d, 0x0f, 0x3d, 0x17, 0x2b, 0xf7, 0xbb, 0xb9, 0xd6, 0x45, 0xec, 0xd2,
  0xcf, 0x0a, 0xe2, 0xc9, 0xbd, 0x29, 0x5f, 0x00, 0x57, 0xbc, 0x23, 0xff,
  0x35, 0xf1, 0xfc, 0xd1, 0x57, 0xb6, 0xc3, 0x3e, 0x33, 0xdb, 0x1a, 0x23,
  0xe6, 0xa9, 0x5c, 0x3b, 0x61, 0x12, 0x5f, 0xec, 0x4a, 0xdd, 0x31, 0x40,
  0xd9, 0x2a, 0x35, 0xd6, 0x03, 0xd1, 0xca, 0x25, 0x4f, 0x34, 0x09, 0xec,
  0xcb, 0xc7, 0xb8, 0xce, 0xc9, 0xee, 0xd0, 0x13, 0x53, 0x3f, 0x1a, 0x27,
  0xd0, 0x10, 0x3d, 0x44, 0xdd, 0xec, 0xfa, 0xf4, 0x42, 0xc6, 0x20, 0xea,
  0xcb, 0xda, 0xd4, 0xb8, 0xf9, 0xec, 0xb4, 0x4e, 0xbe, 0xd7, 0xef, 0xaa,
  0xe2, 0xbd, 0x24, 0xab, 0xbe, 0xe3, 0x23, 0x2c, 0x38, 0xae, 0xb3, 0xee,
  0xb6, 0x31, 0x1a, 0xf7, 0xb1, 0xab, 0x05, 0xaa, 0x32, 0x49, 0x04, 0x24,
  0xfd, 0xb3, 0xf5, 0xbb, 0xf6, 0xd6, 0xf0, 0x32, 0x28, 0x20, 0xaa, 0x05,
  0xb4, 0x42, 0xba, 0x34, 0xad, 0x3e, 0xce, 0x31, 0x51, 0xb1, 0x15, 0x14,
  0x22, 0x04, 0xe6, 0x31, 0xba, 0xb0, 0x35, 0x11, 0x10, 0x18, 0x40, 0x16,
  0x1b, 0x22, 0xc5, 0xaf, 0xda, 0x1b, 0xe1, 0xb5, 0x46, 0xd2, 0xea, 0xc4,
  0x31, 0x3a, 0x0e, 0x51, 0xce, 0xb2, 0xe0, 0xde, 0xb7, 0xe4, 0xd5, 0xe2,
  0xac, 0xbe, 0xd0, 0xf1, 0x21, 0xdc, 0xe1, 0x37, 0xd2, 0xb4, 0xca, 0xb9,
  0x53, 0x1e, 0xe1, 0x47, 0x3d, 0x41, 0x3f, 0xc1, 0xff, 0xe0, 0xd1, 0xd9,
  0xb8, 0x05, 0x0f, 0xf9, 0x32, 0xcf, 0xce, 0x10, 0xdd, 0xbb, 0xe1, 0xdb,
  0xcd, 0x27, 0x02, 0x06, 0x04, 0x41, 0x14, 0x0a, 0x35, 0x53, 0xcb, 0x02,
  0xf8, 0xb4, 0xd6, 0x25, 0x49, 0x00, 0xc7, 0x49, 0x43, 0xe1, 0xe8, 0x1b,
  0xd1, 0x40, 0x0a, 0x4c, 0xc0, 0x15, 0x0f, 0x2a, 0xb8, 0x52, 0x2c, 0x15,
  0xd5, 0xd8, 0x31, 0x16, 0x56, 0xb5, 0xc9, 0xfe, 0x0f, 0x06, 0xb3, 0xc5,
  0xcc, 0x4a, 0xbb, 0x0d, 0xb3, 0xf6, 0xda, 0x1e, 0x4a, 0xd6, 0xb4, 0x5f,
  0x61, 0xeb, 0x17, 0xbb, 0xf9, 0xeb, 0xcd, 0x5f, 0xab, 0xf4, 0x29, 0x15,
  0xbb, 0x26, 0xba, 0xfc, 0x38, 0x51, 0xb7, 0x27, 0x9d, 0x16, 0xed, 0x23,
  0xae, 0x26, 0x15, 0x31, 0x13, 0xd6, 0x35, 0xc3, 0xf0, 0x14, 0x34, 0x28,
  0xb4, 0x3f, 0xf3, 0xea, 0xd0, 0xba, 0x33, 0x47, 0x45, 0xf0, 0x41, 0x2b,
  0xe5, 0xd1, 0xb3, 0xbd, 0x29, 0x48, 0xf2, 0x0f, 0xf1, 0x19, 0xd5, 0x22,
  0x31, 0xf2, 0xe4, 0x0d, 0x2d, 0xe7, 0xfe, 0x3d, 0x03, 0x47, 0xe6, 0xbc,
  0x44, 0x28, 0x44, 0xb4, 0x2a, 0x0a, 0x45, 0x4d, 0x0b, 0x19, 0x3c, 0xb3,
  0xf3, 0xd5, 0x4a, 0xed, 0x51, 0x3d, 0x21, 0x3d, 0x54, 0xeb, 0xca, 0xcf,
  0x3d, 0x29, 0xc3, 0xfa, 0x0a, 0xed, 0xcf, 0xbc, 0x4e, 0x47, 0xdd, 0x14,
  0xbf, 0xed, 0x4e, 0x53, 0xdd, 0xd9, 0xdf, 0x02, 0x50, 0x3a, 0x4e, 0xb1,
  0x32, 0x1d, 0xd3, 0xe5, 0x46, 0xca, 0xed, 0x48, 0xfc, 0x48, 0x16, 0x16,
  0xbd, 0xaf, 0xbb, 0x2a, 0xb0, 0xd7, 0x21, 0x4f, 0x18, 0x1d, 0xf7, 0xb9,
  0x56, 0xce, 0x3c, 0x1b, 0xfb, 0x4d, 0xb6, 0xa5, 0x2a, 0xec, 0xce, 0xfd,
  0x28, 0x0c, 0xe4, 0xb8, 0x59, 0xba, 0x3f, 0x1b, 0xe5, 0x2d, 0xce, 0x1a,
  0xca, 0xa4, 0x53, 0xbb, 0xfd, 0x0c, 0x14, 0xdf, 0x30, 0xae, 0x1e, 0x26,
  0x2f, 0xfc, 0x4e, 0xf0, 0xf7, 0xc2, 0x24, 0x0f, 0xeb, 0x04, 0x04, 0xbf,
  0x2d, 0xb9, 0xbf, 0x4c, 0x06, 0x1c, 0xab, 0x52, 0xeb, 0x41, 0xf5, 0xb6,
  0xc9, 0xb1, 0x3b, 0xe8, 0x23, 0xc9, 0xd9, 0xe7, 0x46, 0x5b, 0xf3, 0xb5,
  0x32, 0xc7, 0xf9, 0x14, 0xe9, 0x20, 0xdc, 0x18, 0x19, 0xe2, 0x1e, 0xdd,
  0xbb, 0xa4, 0xf5, 0xc8, 0x57, 0x28, 0xb7, 0x2d, 0xd6, 0xa7, 0xc9, 0xfc,
  0x0a, 0xc1, 0xd6, 0x24, 0xa2, 0xcb, 0xb8, 0x1f, 0xf3, 0x3e, 0x0c, 0xd2,
  0xd8, 0xb8, 0xdd, 0x15, 0x1e, 0xf7, 0x53, 0xbd, 0x31, 0xf8, 0xd7, 0x1e,
  0xf5, 0x0f, 0xda, 0x60, 0x3c, 0xda, 0xc7, 0x0f, 0xbe, 0xe5, 0x10, 0xd6,
  0xb2, 0xfe, 0xf1, 0xe6, 0x1b, 0xde, 0xe7, 0x45, 0xf3, 0x0a, 0x27, 0x07,
  0xf5, 0xfd, 0xd3, 0xc2, 0xce, 0x20, 0x2b, 0xc4, 0x43, 0x64, 0x62, 0xf4,
  0x42, 0xea, 0xd8, 0xc6, 0xce, 0xcb, 0xdf, 0xa7, 0xde, 0x06, 0xc8, 0xb7,
  0x0c, 0xb7, 0xbd, 0xfd, 0x39, 0xde, 0x59, 0xad, 0xb6, 0x12, 0xbb, 0xee,
  0x51, 0x00, 0x0c, 0x0e, 0xd1, 0xcd, 0x39, 0x05, 0x03, 0x35, 0x17, 0xf3,
  0xb4, 0xb5, 0x35, 0x04, 0xf5, 0xda, 0x1d, 0xb6, 0x47, 0x41, 0x2e, 0x0b,
  0x1d, 0x33, 0xbb, 0x28, 0xb0, 0xfe, 0xe7, 0xb4, 0xcf, 0xa9, 0xf3, 0x46,
  0xe6, 0xeb, 0x20, 0xf6, 0x01, 0x51, 0xfc, 0x19, 0x31, 0x35, 0x2c, 0x50,
  0xe4, 0x2f, 0xb5, 0x01, 0xdf, 0xc4, 0xc9, 0xd7, 0xd7, 0x2e, 0xb3, 0x3e,
  0x33, 0x0b, 0xd1, 0x2e, 0xde, 0xfe, 0xe5, 0x23, 0x21, 0x2a, 0xc2, 0xc2,
  0x20, 0x34, 0x03, 0xbc, 0x06, 0x3d, 0xf2, 0xd7, 0xf2, 0xbb, 0xfa, 0x21,
  0x24, 0xdf, 0x0c, 0xb6, 0xca, 0xb8, 0xae, 0x43, 0x35, 0xd6, 0xa8, 0x08,
  0x17, 0xb3, 0x07, 0x46, 0x1d, 0xc4, 0x10, 0xcd, 0xb3, 0xdd, 0x35, 0xc9,
  0x10, 0xf7, 0x36, 0xd6, 0xce, 0x05, 0x47, 0xd7, 0x2c, 0x42, 0xe2, 0x01,
  0x1c, 0x74, 0x48, 0x39, 0xd0, 0x09, 0x36, 0x07, 0x16, 0xcf, 0x42, 0x63,
  0xb4, 0x70, 0xe1, 0xf6, 0xfb, 0x29, 0x55, 0x6a, 0xdd, 0xea, 0x45, 0xf2,
  0x21, 0x32, 0xeb, 0xc8, 0xc8, 0x49, 0x46, 0x28, 0xcf, 0xd4, 0xf5, 0x1d,
  0x16, 0xb7, 0x18, 0xd3, 0xf6, 0xa6, 0x20, 0xc4, 0x2c, 0xdf, 0x3c, 0xd5,
  0xfc, 0x8e, 0x44, 0xa2, 0x4d, 0xe3, 0x1d, 0x0d, 0x02, 0x02, 0x4e, 0x99,
  0x5d, 0x2e, 0x1a, 0xca, 0x16, 0x9c, 0xed, 0xbb, 0xed, 0x16, 0x3a, 0xab,
  0xfd, 0x2c, 0xb5, 0xb4, 0xb6, 0xa1, 0x33, 0x3e, 0x24, 0xa7, 0x48, 0xa0,
  0xc4, 0xe6, 0xec, 0xeb, 0xde, 0xb8, 0x55, 0xdf, 0xdd, 0xc0, 0x21, 0x56,
  0xdd, 0x35, 0xbe, 0x48, 0x2e, 0xd6, 0x56, 0x0d, 0xef, 0xce, 0x38, 0x39,
  0x0f, 0x59, 0xbe, 0x60, 0xd3, 0xb1, 0xef, 0x1a, 0x2a, 0xf8, 0xca, 0xf6,
  0xf6, 0xb5, 0xcd, 0x28, 0x45, 0xcd, 0xd4, 0xbf, 0x27, 0xfe, 0x3a, 0x06,
  0xf8, 0x51, 0x0a, 0x26, 0x63, 0xec, 0x18, 0x29, 0xf7, 0x51, 0x37, 0xd1,
  0xc6, 0xfa, 0x06, 0xc3, 0xc6, 0x35, 0x63, 0xf5, 0xc1, 0x39, 0x05, 0x40,
  0xb9, 0xbd, 0x63, 0x50, 0xd4, 0x49, 0xc0, 0xee, 0xf1, 0x36, 0x0c, 0xf0,
  0xeb, 0x58, 0x2f, 0xe5, 0xf7, 0x0e, 0xea, 0x1c, 0x24, 0xe7, 0x1f, 0xde,
  0x55, 0xe2, 0xf2, 0x3a, 0xfc, 0xeb, 0xee, 0x03, 0x48, 0x33, 0xf2, 0x57,
  0xc0, 0x03, 0x31, 0x51, 0x43, 0xcf, 0xc5, 0xcb, 0xce, 0x46, 0xfa, 0x01,
  0xc5, 0x44, 0xfd, 0x14, 0x1b, 0xc3, 0x46, 0xd6, 0xe8, 0x0d, 0x29, 0x35,
  0xef, 0x46, 0x68, 0xe4, 0x03, 0x81, 0xcb, 0xcb, 0xd9, 0x8a, 0xf7, 0xf8,
  0x3a, 0xdb, 0x3f, 0x20, 0xf7, 0xbf, 0xec, 0x0d, 0x0e, 0x15, 0x31, 0xf9,
  0xb6, 0xcd, 0xc8, 0x44, 0xcd, 0xf7, 0x0d, 0xd8, 0x47, 0xb4, 0x40, 0xcb,
  0x0f, 0xdc, 0x1f, 0xeb, 0xdb, 0x45, 0x2c, 0x06, 0xd2, 0xc1, 0x22, 0x2e,
  0xb1, 0xe5, 0xe4, 0xde, 0x3b, 0xeb, 0x20, 0xc1, 0x38, 0x06, 0x06, 0xe8,
  0x0a, 0xc9, 0xc1, 0x05, 0xe2, 0x23, 0x32, 0x18, 0xfb, 0xd8, 0xfc, 0x61,
  0xc5, 0x36, 0x3b, 0x12, 0xdb, 0x3c, 0xc9, 0xf7, 0x00, 0x31, 0x4d, 0xe1,
  0x2b, 0x4d, 0xfe, 0x1a, 0xe5, 0x4a, 0xe7, 0x34, 0x17, 0xd7, 0x56, 0xb1,
  0x19, 0xb0, 0x57, 0xf8, 0x0d, 0x11, 0x67, 0x3c, 0xb6, 0x2d, 0x28, 0xe6,
  0x3a, 0x47, 0xf6, 0x26, 0xd2, 0xbe, 0x40, 0x0d, 0x1e, 0x21, 0x4f, 0xd5,
  0x1e, 0x03, 0x4a, 0xf4, 0x48, 0xd3, 0xde, 0xdb, 0x23, 0xbe, 0xc6, 0xd3,
  0xd2, 0xe1, 0x4d, 0x29, 0x29, 0x10, 0x08, 0x34, 0x15, 0xc0, 0xfc, 0x48,
  0xc6, 0x45, 0x39, 0xf6, 0x4a, 0xdc, 0x22, 0x53, 0x46, 0xf4, 0x5e, 0x4e,
  0xd4, 0xce, 0x61, 0x5e, 0x12, 0xb6, 0x0a, 0xb9, 0x03, 0x2e, 0x29, 0xb4,
  0xe7, 0xc6, 0xe0, 0x16, 0xf9, 0xb4, 0xbe, 0x11, 0xcb, 0x00, 0xf2, 0x2a,
  0xd9, 0x0d, 0x58, 0xb0, 0xf3, 0xe4, 0xfd, 0x3f, 0x53, 0x4b, 0xf0, 0xcf,
  0x33, 0x09, 0xf9, 0x51, 0xcc, 0xfa, 0xd7, 0xaf, 0xd1, 0xae, 0x02, 0x5c,
  0xf5, 0x4e, 0xcd, 0x5b, 0x07, 0x1c, 0x40, 0x38, 0xc5, 0x41, 0x9e, 0xd8,
  0xd5, 0xc0, 0xf2, 0xea, 0xf4, 0x52, 0xcc, 0x45, 0xa4, 0x2b, 0xa0, 0x4d,
  0x48, 0x18, 0x4c, 0x2a, 0x29, 0xdf, 0xe0, 0x42, 0xf3, 0x2e, 0xa7, 0x28,
  0xf3, 0xe8, 0x1a, 0x0d, 0x0a, 0x08, 0x48, 0xb2, 0xb9, 0xe4, 0x39, 0x2f,
  0x40, 0xeb, 0x26, 0x2d, 0x45, 0xc7, 0xb7, 0x11, 0xda, 0xe9, 0xb2, 0x24,
  0x43, 0x0c, 0xf5, 0xa1, 0x26, 0x08, 0x1f, 0xcd, 0x0d, 0xc4, 0xb0, 0x0b,
  0x09, 0xac, 0xdb, 0x27, 0x3f, 0x17, 0x9e, 0x9f, 0xfe, 0x10, 0xa6, 0xaf,
  0xda, 0x13, 0xf2, 0x2d, 0x39, 0xa8, 0x41, 0x47, 0xfa, 0x09, 0xed, 0x2b,
  0x0e, 0xd1, 0xe7, 0xf1, 0x35, 0x15, 0x17, 0xd4, 0x06, 0xb9, 0xb3, 0x0a,
  0x42, 0xbb, 0x44, 0xc5, 0x0e, 0x12, 0xe7, 0x41, 0xcc, 0x12, 0xd3, 0x12,
  0xb8, 0x2e, 0x03, 0xde, 0xdc, 0x3a, 0xbc, 0xe3, 0xcb, 0x32, 0x24, 0xdc,
  0xde, 0x2d, 0x09, 0xa7, 0xcd, 0x21, 0x34, 0xe2, 0xb5, 0x42, 0x34, 0xa2,
  0x35, 0x07, 0x1a, 0xce, 0xb3, 0x32, 0x1e, 0xa5, 0x5a, 0xad, 0xf2, 0xd5,
  0xeb, 0x43, 0xdb, 0xf5, 0xe9, 0x48, 0xe4, 0xfa, 0xcf, 0x2a, 0xaf, 0xad,
  0xd1, 0xf2, 0x33, 0xad, 0xcd, 0xb8, 0x2b, 0xe3, 0xb4, 0xdd, 0xed, 0x0b,
  0x21, 0xee, 0x33, 0xc7, 0xe5, 0x39, 0xbe, 0xf0, 0x11, 0x34, 0xa7, 0x1a,
  0xdf, 0xd9, 0xcc, 0x09, 0x4c, 0x35, 0x4a, 0xfc, 0x47, 0xab, 0xd3, 0xc7,
  0xe1, 0x06, 0xe9, 0x24, 0x4d, 0x18, 0x03, 0xed, 0x46, 0x01, 0xd4, 0xcb,
  0xa5, 0x1b, 0xb6, 0x43, 0x48, 0x32, 0xb3, 0x1d, 0xf5, 0x47, 0xde, 0xee,
  0xaf, 0xd7, 0xcb, 0xf8, 0x01, 0xca, 0x1f, 0x0e, 0x21, 0xb4, 0xcd, 0xc1,
  0x36, 0xb4, 0xbc, 0xb0, 0x01, 0x3c, 0xdc, 0xbb, 0xb2, 0x2b, 0x3a, 0xa8,
  0xc0, 0x96, 0xe3, 0x98, 0xc3, 0x27, 0x1e, 0x27, 0xab, 0x43, 0x54, 0xf2,
  0x11, 0xfb, 0xcf, 0x36, 0xf5, 0xf5, 0xff, 0xd2, 0x1e, 0xe7, 0xe5, 0xed,
  0xc2, 0x0f, 0xb6, 0xc1, 0xce, 0xe8, 0xb8, 0x2d, 0xd8, 0x40, 0x27, 0x6d,
  0xd5, 0xce, 0xca, 0xfd, 0xb9, 0x1d, 0xc0, 0x03, 0xc9, 0x24, 0xbc, 0xd9,
  0x1d, 0xe9, 0x01, 0xf6, 0xe8, 0xc9, 0x11, 0x42, 0x08, 0xcc, 0x34, 0x13,
  0xba, 0xe9, 0xa7, 0x28, 0xfa, 0xd1, 0x11, 0x49, 0xf3, 0xed, 0x43, 0x11,
  0x11, 0xea, 0x26, 0x44, 0xda, 0x27, 0xe2, 0xf2, 0x0b, 0xd6, 0xfe, 0xd7,
  0x3c, 0x3c, 0xc3, 0x34, 0x0a, 0x13, 0xf8, 0xf6, 0x01, 0x12, 0x27, 0x1f,
  0xfc, 0x40, 0x33, 0x56, 0xbe, 0x30, 0x59, 0xc6, 0xb7, 0x21, 0xbd, 0x1e,
  0x1e, 0x11, 0xe5, 0x09, 0xf0, 0x20, 0x1c, 0xa9, 0x1c, 0x51, 0x2b, 0x12,
  0x2a, 0x14, 0x0d, 0x11, 0x30, 0xc3, 0x1d, 0x02, 0x2f, 0xf2, 0x41, 0xd1,
  0xde, 0x3f, 0xd7, 0xd0, 0xf4, 0x15, 0xef, 0xfc, 0xc7, 0xfd, 0x12, 0xc9,
  0x20, 0xc6, 0x3c, 0xf9, 0x07, 0x1e, 0xcb, 0xbc, 0xbf, 0x55, 0xaf, 0x49,
  0x2b, 0xd8, 0x12, 0xed, 0x3c, 0xbf, 0xb8, 0xd0, 0xae, 0x3b, 0xf7, 0x4c,
  0x22, 0x2e, 0x53, 0x36, 0x15, 0x05, 0x1a, 0x1e, 0x44, 0xcf, 0x19, 0x21,
  0xb9, 0xc2, 0xb3, 0xd6, 0xed, 0xdb, 0x9f, 0xfc, 0x2b, 0xce, 0xe6, 0x2e,
  0xb0, 0xc8, 0x3d, 0xd7, 0x40, 0xc7, 0x02, 0xe8, 0xfc, 0x48, 0x11, 0x4c,
  0x99, 0x47, 0xc4, 0xd7, 0x2f, 0x05, 0xbc, 0xd7, 0xac, 0x28, 0xe2, 0xbf,
  0x19, 0x19, 0x02, 0xa7, 0xc4, 0x9a, 0x3b, 0x2c, 0xef, 0x0b, 0xf8, 0x12,
  0x09, 0xff, 0xc2, 0xf5, 0x37, 0x48, 0x95, 0x12, 0xa0, 0xe7, 0xe8, 0x34,
  0xb7, 0xf4, 0x40, 0x37, 0x26, 0x27, 0xde, 0x3c, 0xc4, 0x54, 0x1f, 0x09,
  0xbf, 0x01, 0xa6, 0xd2, 0x26, 0x48, 0xd8, 0x5d, 0xfb, 0xf2, 0xb9, 0x59,
  0x3c, 0x0f, 0xfa, 0x58, 0x30, 0xc1, 0xf6, 0x5e, 0x2b, 0x6e, 0xcb, 0x12,
  0x3e, 0x12, 0x0b, 0xc8, 0xc1, 0xc6, 0xb7, 0x63, 0x45, 0xe5, 0x61, 0x35,
  0x1e, 0x6e, 0x36, 0x23, 0xbf, 0xe7, 0x0d, 0xf6, 0x5c, 0x28, 0xd0, 0xbc,
  0x53, 0x18, 0xf5, 0xd1, 0xd2, 0x57, 0xeb, 0x23, 0x05, 0xf5, 0x39, 0x02,
  0xe0, 0x43, 0xe9, 0xec, 0x2c, 0xe7, 0xc6, 0xf7, 0x12, 0x49, 0x2d, 0x3c,
  0x11, 0xf0, 0x30, 0x51, 0xd7, 0x32, 0x20, 0x11, 0xb9, 0x0b, 0x27, 0x04,
  0xdb, 0x4f, 0x58, 0x2c, 0x52, 0xf3, 0x5f, 0x4d, 0xf6, 0xe5, 0x5b, 0xdd,
  0x2b, 0x03, 0x38, 0xbf, 0x57, 0xc2, 0x16, 0xae, 0x00, 0x50, 0x42, 0x4f,
  0xbb, 0x0b, 0x52, 0x23, 0xbf, 0xa9, 0x66, 0x46, 0xe9, 0x16, 0xec, 0xfc,
  0x23, 0x17, 0xdb, 0x4a, 0x4e, 0xd8, 0xba, 0xbd, 0x1c, 0x1f, 0xfc, 0x4d,
  0xc2, 0xc3, 0x3c, 0x34, 0xf8, 0x3c, 0x01, 0x33, 0xfd, 0x36, 0xb9, 0x50,
  0xab, 0xb7, 0x29, 0xd6, 0x29, 0xb8, 0xfe, 0x54, 0x9e, 0xc7, 0xa3, 0xe1,
  0x2e, 0x55, 0xd8, 0x46, 0xfa, 0x40, 0xa8, 0x4b, 0x12, 0xfe, 0xd8, 0xcf,
  0x24, 0x52, 0xcd, 0xc6, 0xfb, 0xf5, 0x10, 0x21, 0xd4, 0x12, 0x1f, 0x47,
  0xde, 0xf1, 0x28, 0x5f, 0x36, 0x4b, 0x3a, 0xea, 0x39, 0x51, 0xe5, 0x31,
  0x10, 0xd2, 0x03, 0x09, 0x6c, 0xbe, 0x04, 0x25, 0x39, 0x19, 0xdb, 0xf2,
  0x34, 0x1f, 0x37, 0x3b, 0x43, 0x08, 0x0a, 0x2e, 0x3e, 0x2b, 0x53, 0x4d,
  0x6a, 0xc2, 0x36, 0x42, 0x6e, 0xa8, 0xee, 0xd9, 0xcb, 0xfd, 0x46, 0x2d,
  0x10, 0xb4, 0x0b, 0xc0, 0xba, 0x50, 0x51, 0x45, 0x09, 0xf8, 0x12, 0xbb,
  0xfd, 0x23, 0x29, 0x0b, 0xe1, 0x2a, 0xea, 0x66, 0xa2, 0x48, 0xe8, 0x14,
  0x49, 0x07, 0x22, 0xe0, 0x01, 0x5e, 0x38, 0xea, 0xa2, 0x17, 0xca, 0x69,
  0x40, 0x67, 0x17, 0x2c, 0x40, 0xe1, 0x97, 0xc1, 0x0a, 0x0b, 0x95, 0xc0,
  0xad, 0x61, 0xcc, 0x18, 0x3e, 0x23, 0xd0, 0xeb, 0x44, 0xcf, 0xaf, 0xef,
  0x1d, 0xc7, 0x06, 0xd6, 0x0e, 0x26, 0x39, 0xc8, 0xa5, 0xd1, 0x1b, 0x21,
  0x42, 0xd4, 0x22, 0xe2, 0xf5, 0x25, 0x42, 0xbc, 0xe9, 0x3c, 0x9c, 0xb7,
  0xc5, 0x2b, 0x2c, 0xa3, 0x12, 0xf6, 0x3c, 0xf0, 0xef, 0xaf, 0x48, 0x34,
  0xba, 0x1d, 0xae, 0xfd, 0x29, 0xec, 0xed, 0xba, 0x37, 0xd6, 0xb1, 0xa7,
  0x13, 0xdc, 0x39, 0x27, 0x47, 0x0f, 0x47, 0xf6, 0x19, 0xc0, 0xc4, 0x45,
  0xb4, 0xaf, 0xe6, 0xd7, 0xd2, 0xf4, 0x43, 0x0c, 0x09, 0x13, 0xdd, 0xe7,
  0x25, 0x12, 0xfc, 0xf1, 0x3d, 0xad, 0x27, 0x18, 0x1c, 0xd4, 0x1f, 0x1d,
  0xf2, 0x28, 0x3f, 0xf4, 0x25, 0xea, 0xc6, 0x1f, 0xcc, 0x0f, 0xea, 0x1a,
  0xbf, 0x43, 0x1d, 0x40, 0xb9, 0xfe, 0x48, 0x9f, 0xe6, 0xdb, 0xb0, 0x23,
  0x01, 0xe8, 0xa1, 0x04, 0x09, 0xca, 0x3c, 0xc3, 0xff, 0x28, 0x06, 0x1c,
  0xcb, 0xbb, 0xf3, 0x44, 0x47, 0xdc, 0x2d, 0xdd, 0x29, 0x38, 0xad, 0xe0,
  0x33, 0xcc, 0xe0, 0x20, 0xa6, 0x3e, 0xe2, 0xfa, 0x44, 0xb4, 0xf5, 0xdd,
  0xc0, 0x42, 0xcb, 0x23, 0x1d, 0x2a, 0xac, 0xe6, 0x4e, 0xf6, 0xad, 0xf4,
  0xb1, 0xa5, 0xb5, 0xcf, 0x01, 0xf1, 0x59, 0xfc, 0xc5, 0xc5, 0xf2, 0x21,
  0xbe, 0xde, 0x25, 0x9e, 0xd9, 0xb3, 0xf9, 0xa5, 0x28, 0xcb, 0xb0, 0x1d,
  0x1b, 0xdc, 0x40, 0x92, 0xde, 0xda, 0xfc, 0x20, 0xc9, 0xd3, 0xe4, 0xd4,
  0xe5, 0x11, 0xb2, 0xe2, 0x30, 0x17, 0x49, 0x01, 0x1e, 0xda, 0x34, 0xf1,
  0x42, 0x18, 0xd6, 0xf4, 0xf9, 0xb4, 0xd5, 0xbd, 0x0d, 0xc9, 0x16, 0x36,
  0xd7, 0x3c, 0xac, 0xd3, 0x56, 0x05, 0xd3, 0x35, 0x0c, 0xfb, 0x05, 0xcb,
  0x52, 0xab, 0xa6, 0xfc, 0xbf, 0xae, 0x4b, 0xc8, 0x40, 0x59, 0x0c, 0xd1,
  0xcf, 0xc0, 0x19, 0xaf, 0x00, 0x1b, 0x13, 0x3b, 0xb6, 0x44, 0x19, 0xe5,
  0x2e, 0x25, 0x18, 0x11, 0x2e, 0xc4, 0xfb, 0x4d, 0xe9, 0xf0, 0x0e, 0xf9,
  0xf7, 0xd5, 0x11, 0x36, 0xfb, 0xdb, 0xd3, 0xde, 0x18, 0x1a, 0xec, 0xdd,
  0xb7, 0xb4, 0x35, 0xf1, 0x45, 0x0d, 0xdb, 0xd4, 0xfc, 0x05, 0xc7, 0x3e,
  0x29, 0xb7, 0x17, 0xdb, 0xf0, 0x14, 0x2e, 0xc9, 0x25, 0xbd, 0xca, 0x2c,
  0xf0, 0xeb, 0x51, 0xed, 0xfa, 0xca, 0x56, 0xd4, 0xd7, 0xee, 0x5e, 0x03,
  0xee, 0x23, 0xdd, 0xb5, 0x4d, 0xe2, 0xfe, 0xf7, 0x42, 0x58, 0x0c, 0x42,
  0x1f, 0xc7, 0x47, 0x5a, 0x24, 0x1d, 0x16, 0xde, 0x45, 0x40, 0x35, 0xd9,
  0x9c, 0xc8, 0xda, 0xa8, 0xe3, 0x0d, 0x38, 0x1b, 0x08, 0xca, 0x36, 0x51,
  0xa7, 0x05, 0x2b, 0xda, 0xe2, 0xab, 0x30, 0x36, 0xe7, 0xa7, 0xce, 0x50,
  0xae, 0x2b, 0xd0, 0xe6, 0xc1, 0x05, 0xc2, 0xb9, 0x20, 0x4a, 0x14, 0xe6,
  0xfa, 0xbb, 0xb4, 0xa1, 0xc9, 0xa4, 0x0f, 0xe5, 0xd1, 0xdd, 0x4d, 0x07,
  0xee, 0x48, 0x07, 0x2f, 0xdc, 0x0f, 0x06, 0xb2, 0xb3, 0x23, 0x4b, 0x52,
  0x12, 0x11, 0x20, 0xcd, 0x3e, 0xbb, 0x57, 0x4f, 0xf6, 0x55, 0xd5, 0x08,
  0x53, 0xc8, 0x58, 0xe1, 0x62, 0x19, 0x4c, 0xd4, 0x34, 0x35, 0x31, 0xe8,
  0xf0, 0x5e, 0xbf, 0xe4, 0x34, 0x25, 0xeb, 0x3a, 0x39, 0xd2, 0x1e, 0xee,
  0x17, 0xea, 0x69, 0x43, 0x2c, 0x04, 0x0f, 0x23, 0x21, 0x68, 0x4f, 0x6a,
  0xf8, 0x5d, 0x43, 0x20, 0xbf, 0xf9, 0x3a, 0xc6, 0x28, 0xeb, 0x32, 0x4b,
  0x25, 0x44, 0x59, 0x43, 0xed, 0x30, 0xf2, 0x18, 0xff, 0x01, 0xea, 0x38,
  0xfa, 0x0c, 0x2a, 0x47, 0x2d, 0x19, 0x02, 0xf1, 0xff, 0xef, 0xe5, 0x10,
  0x5e, 0x48, 0xd6, 0xc0, 0x46, 0xc5, 0x03, 0x04, 0xd8, 0x4c, 0xe1, 0x18,
  0x4f, 0x13, 0xfc, 0xc1, 0x37, 0xc7, 0x25, 0x23, 0x06, 0xe5, 0x00, 0x37,
  0xb2, 0x2f, 0x0e, 0xda, 0xc2, 0x33, 0x15, 0xeb, 0x41, 0xcb, 0x44, 0xc9,
  0xfb, 0x0e, 0x4f, 0xc9, 0xc8, 0xfb, 0x20, 0x02, 0xb6, 0x4b, 0x42, 0xdd,
  0xee, 0x4f, 0xc5, 0xbf, 0xce, 0x0a, 0x06, 0xd8, 0xd0, 0xd0, 0x22, 0x4d,
  0xbf, 0x28, 0x2e, 0xf1, 0x08, 0x3c, 0xf6, 0xeb, 0x4e, 0xd4, 0xe9, 0xde,
  0x09, 0xe9, 0xc4, 0x53, 0x09, 0x12, 0xb9, 0x31, 0x15, 0x34, 0x23, 0x46,
  0xf3, 0x13, 0xda, 0x03, 0xc8, 0xc3, 0xcc, 0x43, 0x4d, 0x4a, 0xb5, 0xea,
  0x24, 0xbf, 0xd4, 0x30, 0xeb, 0xb1, 0xfd, 0xd3, 0xce, 0x3b, 0xe4, 0x2c,
  0xc8, 0x0b, 0x1d, 0x9f, 0x2e, 0x36, 0x5a, 0xae, 0x45, 0xb1, 0xd8, 0xe3,
  0x5f, 0xce, 0x2e, 0x42, 0xe9, 0xe6, 0x0f, 0xa9, 0xc4, 0xcd, 0x3b, 0xc2,
  0x4a, 0xbd, 0xf3, 0xae, 0xca, 0xd6, 0x52, 0xc1, 0x2c, 0x9d, 0x37, 0xe2,
  0x66, 0xf2, 0x29, 0x3a, 0x28, 0xf1, 0x31, 0xe6, 0xdd, 0xb1, 0x39, 0xda,
  0xbd, 0xbe, 0x61, 0x07, 0xed, 0xeb, 0x1f, 0x59, 0xed, 0x29, 0x20, 0xde,
  0x3d, 0x17, 0xd6, 0xd1, 0x1d, 0xfc, 0x14, 0x33, 0xc4, 0xe7, 0x5b, 0x4b,
  0xcb, 0x45, 0xfb, 0xd3, 0xdd, 0xf3, 0xe7, 0xf5, 0xdf, 0x1f, 0xec, 0x1c,
  0x1f, 0x51, 0x14, 0x28, 0x10, 0x0e, 0x56, 0xef, 0xb5, 0xe7, 0x42, 0x05,
  0xaf, 0x59, 0xf9, 0xe0, 0xad, 0x41, 0x29, 0x13, 0xfd, 0xcc, 0xc7, 0x3e,
  0xdb, 0x5c, 0xde, 0x3c, 0x45, 0xeb, 0xc9, 0x49, 0xb8, 0x37, 0x02, 0x0d,
  0x24, 0xea, 0xc6, 0x2e, 0xf8, 0xd0, 0xd4, 0xc0, 0xd1, 0xd9, 0x37, 0x58,
  0xff, 0xf7, 0x00, 0x07, 0x38, 0xfc, 0xdd, 0x54, 0x35, 0xc7, 0xd7, 0x2c,
  0xc4, 0xf4, 0x61, 0x47, 0x21, 0x0d, 0x35, 0x19, 0x5b, 0xe5, 0x22, 0x2e,
  0x50, 0x18, 0x29, 0x1c, 0xc3, 0x22, 0xd1, 0x23, 0x34, 0xae, 0x29, 0x3b,
  0x14, 0x27, 0xbf, 0xd1, 0x2f, 0x2d, 0xbe, 0x45, 0x23, 0xd2, 0xfd, 0x01,
  0x23, 0xf7, 0x21, 0xea, 0x65, 0xb4, 0xde, 0x4e, 0xde, 0xdd, 0xcd, 0xdf,
  0x18, 0xf1, 0x18, 0xd8, 0xc9, 0xed, 0x43, 0x06, 0x0b, 0xc2, 0x4c, 0xbd,
  0x0b, 0x02, 0x15, 0x46, 0xc7, 0x1e, 0x63, 0x13, 0x28, 0x64, 0x0e, 0x0f,
  0x33, 0x4d, 0x67, 0xd2, 0x1a, 0x6d, 0x04, 0xd7, 0x31, 0x6e, 0x69, 0x5f,
  0xe5, 0x1f, 0xe1, 0x31, 0xca, 0x37, 0xc8, 0xc7, 0xf3, 0xe1, 0x3e, 0x25,
  0xfc, 0x73, 0xdd, 0xf1, 0x5b, 0xe2, 0x31, 0xe8, 0xbd, 0xc2, 0x45, 0x5b,
  0xb8, 0xdf, 0xcf, 0xf6, 0x08, 0x3b, 0xa5, 0xe8, 0x30, 0x08, 0x4f, 0x24,
  0x19, 0xea, 0x9e, 0x2a, 0x41, 0xd4, 0xa2, 0x4f, 0x3c, 0x5c, 0xdb, 0x00,
  0xcc, 0xe9, 0x2b, 0x56, 0xa6, 0x22, 0xa6, 0x14, 0x17, 0xc2, 0xd7, 0x26,
  0xb7, 0xb1, 0xba, 0xe4, 0xcb, 0xc9, 0xcf, 0xbe, 0x28, 0xda, 0xc7, 0xb9,
  0x06, 0xb3, 0xf2, 0x01, 0x26, 0xe7, 0x9f, 0x24, 0xd6, 0x0a, 0x27, 0xd4,
  0xa3, 0xe2, 0xc1, 0xef, 0xa4, 0xed, 0x52, 0xc9, 0xda, 0x17, 0xf7, 0xcd,
  0x03, 0xba, 0x06, 0xd0, 0x4a, 0xf4, 0xde, 0xe8, 0x1e, 0xc3, 0x14, 0x43,
  0x14, 0x4d, 0xf7, 0xd6, 0xcc, 0x27, 0x2a, 0x01, 0x4b, 0x53, 0xcd, 0x15,
  0xda, 0x2f, 0x33, 0x4b, 0x30, 0x6b, 0x03, 0xd0, 0xf7, 0x1e, 0xde, 0xc4,
  0xea, 0x59, 0xf9, 0xee, 0x3b, 0xd2, 0x29, 0x23, 0xb3, 0x5d, 0xd5, 0x37,
  0x0d, 0x52, 0xd3, 0x20, 0x25, 0x07, 0xe2, 0x43, 0xf0, 0x33, 0x0a, 0x22,
  0x1d, 0x55, 0xd3, 0xff, 0x09, 0x5e, 0x28, 0x15, 0xf1, 0x10, 0x58, 0xbb,
  0xe7, 0x39, 0xab, 0x36, 0x5d, 0xb9, 0x27, 0x9d, 0xea, 0xcd, 0x4d, 0xb8,
  0x54, 0x3b, 0x55, 0x18, 0xc3, 0xf6, 0xf2, 0xc5, 0xcd, 0x21, 0xb5, 0x46,
  0x20, 0x2b, 0x41, 0x07, 0xe7, 0x45, 0x11, 0x46, 0x5d, 0x3a, 0xe8, 0x13,
  0x65, 0xbb, 0x46, 0x0f, 0x07, 0x14, 0x2c, 0x48, 0x39, 0x16, 0x43, 0x14,
  0x2c, 0x0b, 0x60, 0x21, 0x56, 0x33, 0x47, 0x1f, 0x49, 0x6e, 0x17, 0x63,
  0xc9, 0x4e, 0x2d, 0xea, 0x25, 0x26, 0x2b, 0x3f, 0xc9, 0x6c, 0xf8, 0xfe,
  0x45, 0x44, 0x57, 0xcd, 0x42, 0xc6, 0xfb, 0x54, 0xc0, 0xd1, 0x32, 0x1b,
  0x58, 0xb3, 0xf0, 0xd1, 0x43, 0x38, 0x4c, 0xff, 0xac, 0x0f, 0xe5, 0x47,
  0x21, 0x02, 0x2c, 0xa6, 0x2b, 0xe6, 0xd5, 0x18, 0xf8, 0x0f, 0xbb, 0xd0,
  0x30, 0xf8, 0x12, 0xa7, 0xac, 0xfb, 0xda, 0xd6, 0xcb, 0x4e, 0xa4, 0x29,
  0xa9, 0x12, 0xe6, 0xc1, 0xf3, 0xf4, 0x15, 0xdd, 0xa4, 0xfc, 0x2e, 0xed,
  0x0f, 0x28, 0xa9, 0xde, 0xd0, 0x0f, 0x2b, 0xbb, 0xfd, 0xce, 0x0b, 0x1d,
  0x1f, 0xb1, 0xec, 0x10, 0x24, 0xcc, 0x17, 0xed, 0xe2, 0x1d, 0xbc, 0x06,
  0x06, 0x59, 0x0f, 0x2e, 0xf9, 0x1a, 0x2b, 0xf0, 0x3b, 0x48, 0x14, 0x13,
  0xac, 0xf4, 0x31, 0x20, 0xbd, 0xbc, 0xbd, 0xe7, 0x16, 0x2d, 0xc7, 0x19,
  0xad, 0x26, 0xe9, 0x54, 0x33, 0x24, 0xf6, 0xb7, 0xc4, 0x14, 0x10, 0x2e,
  0x48, 0x29, 0x12, 0x20, 0xc8, 0x31, 0xd4, 0x43, 0xeb, 0x24, 0xe5, 0x5a,
  0x4e, 0xc5, 0x42, 0x46, 0xe8, 0xe4, 0xef, 0x53, 0xf6, 0x10, 0xd7, 0x24,
  0xd6, 0xc7, 0x00, 0xf9, 0xef, 0xf6, 0x4b, 0xaf, 0x12, 0x77, 0xa4, 0x40,
  0x4b, 0x22, 0x9f, 0xe2, 0xee, 0x26, 0xd3, 0x03, 0x38, 0x1f, 0xd0, 0xd1,
  0xd8, 0xff, 0x24, 0x1d, 0x12, 0xfb, 0xbe, 0x29, 0x3e, 0xf9, 0xdd, 0x2a,
  0xfa, 0xf7, 0x27, 0xa0, 0xc2, 0x33, 0xea, 0x3c, 0x20, 0xee, 0xf4, 0x98,
  0xbd, 0xdc, 0xc1, 0xe5, 0xfb, 0xf3, 0xda, 0x17, 0x3f, 0x96, 0x48, 0x41,
  0xa1, 0x2c, 0xa4, 0xc1, 0xaf, 0x26, 0x2b, 0x19, 0xac, 0xbc, 0x06, 0xdc,
  0x1d, 0x26, 0x40, 0x0e, 0xfa, 0xf1, 0x02, 0x24, 0x4c, 0xec, 0xa8, 0xce,
  0x1e, 0x0a, 0x0c, 0xe5, 0x0d, 0xc8, 0x2b, 0x26, 0xfa, 0xc6, 0x23, 0x1e,
  0xf2, 0xda, 0xfe, 0x15, 0xea, 0x0e, 0xb4, 0x2b, 0xf2, 0xb2, 0x22, 0xca,
  0xe3, 0xfd, 0xf5, 0x45, 0x06, 0x0d, 0x01, 0xc2, 0x0d, 0xd6, 0x16, 0x4e,
  0xfe, 0x3b, 0xd8, 0xb4, 0xcb, 0x19, 0x49, 0x15, 0x18, 0x2f, 0xc5, 0x3c,
  0xb1, 0x05, 0xe2, 0xf6, 0xae, 0x3b, 0xf1, 0xdf, 0x52, 0xcc, 0x1e, 0xb9,
  0xd6, 0x3a, 0xf6, 0xe6, 0x05, 0x3e, 0xda, 0xc3, 0xbc, 0x1e, 0x2f, 0xc5,
  0xb6, 0xc0, 0x09, 0x4a, 0x4e, 0x26, 0x42, 0xaa, 0xa9, 0xe1, 0xb6, 0x10,
  0x32, 0x40, 0xc0, 0x2a, 0x26, 0xe1, 0x45, 0x34, 0x41, 0x23, 0x33, 0x0a,
  0x25, 0xb1, 0x4e, 0x16, 0xd4, 0xaf, 0x2c, 0x1a, 0xe5, 0xe2, 0xf7, 0x1a,
  0x3f, 0x08, 0xd7, 0xaa, 0x4a, 0xdb, 0xb4, 0xc1, 0x5e, 0xeb, 0xc4, 0xe9,
  0x36, 0x18, 0x20, 0xdb, 0x2a, 0x49, 0x06, 0x54, 0xc6, 0x0f, 0xfb, 0x4f,
  0xba, 0x1e, 0xd5, 0x54, 0x56, 0x20, 0x1c, 0x4b, 0x56, 0xde, 0x04, 0x2e,
  0x53, 0xa3, 0xdc, 0x30, 0x5e, 0xa6, 0xf8, 0xae, 0xf2, 0x2c, 0x29, 0xef,
  0xbe, 0x4d, 0xfb, 0xbc, 0xd8, 0x2d, 0xf5, 0x2d, 0xc0, 0xe3, 0xd3, 0xbd,
  0xee, 0xb2, 0x4d, 0x51, 0xc4, 0x11, 0x4c, 0x43, 0x37, 0x3c, 0xf4, 0xfd,
  0xcd, 0xeb, 0x3a, 0xb9, 0x12, 0x00, 0x1b, 0xfe, 0xf0, 0xd9, 0x14, 0x46,
  0xf7, 0xf3, 0xf4, 0x44, 0xe5, 0x16, 0x0b, 0xe4, 0xc7, 0x3f, 0x0e, 0x58,
  0x28, 0xfb, 0xf5, 0xd3, 0xc5, 0x01, 0xde, 0xc9, 0xd8, 0xeb, 0xdc, 0xc0,
  0xf3, 0xd8, 0x27, 0xce, 0xc2, 0x02, 0xf6, 0x4a, 0xd6, 0x50, 0xfe, 0xb1,
  0x20, 0xb8, 0xe6, 0x02, 0x18, 0xd8, 0xaf, 0xc3, 0xf9, 0x46, 0x41, 0x33,
  0xca, 0x2c, 0xc7, 0xf7, 0x9b, 0xd2, 0x12, 0x02, 0xf1, 0xb8, 0x14, 0xac,
  0x0d, 0xb2, 0xe9, 0xfd, 0xd7, 0xc7, 0xdf, 0xae, 0xa0, 0xcf, 0xad, 0x36,
  0x0d, 0x13, 0x10, 0xcb, 0xcb, 0xb0, 0x04, 0xa5, 0xea, 0x40, 0x9a, 0xac,
  0x90, 0xfa, 0xbc, 0xf1, 0x13, 0x15, 0xd3, 0x14, 0xd4, 0xce, 0xdf, 0xb5,
  0x39, 0x2c, 0xa6, 0xb0, 0xc1, 0x18, 0x38, 0x63, 0xc9, 0xfa, 0x02, 0x28,
  0x9e, 0x20, 0xcd, 0xcd, 0xd2, 0xd9, 0xdf, 0xfd, 0x06, 0xc4, 0xf4, 0x26,
  0xd3, 0x09, 0xd4, 0xc4, 0x28, 0x2b, 0xcd, 0x3c, 0x0a, 0xde, 0x03, 0x65,
  0xd4, 0xf9, 0xba, 0x3e, 0x48, 0x21, 0x02, 0x4f, 0xea, 0x09, 0x28, 0x03,
  0xac, 0xe0, 0x35, 0xe5, 0xd5, 0xec, 0x4e, 0x29, 0xc1, 0xf3, 0x15, 0xb1,
  0xf3, 0xdd, 0x25, 0xe4, 0x1b, 0x20, 0x24, 0x0d, 0x36, 0x2e, 0x49, 0xcd,
  0x4d, 0x29, 0xb7, 0x00, 0x0c, 0x22, 0xd6, 0xc6, 0xf8, 0x13, 0x60, 0x3c,
  0xd3, 0x32, 0xe2, 0x36, 0x0e, 0x47, 0x51, 0x65, 0xc2, 0x11, 0x16, 0x2c,
  0x3c, 0x43, 0x2e, 0xf9, 0x39, 0x56, 0x1c, 0x43, 0x13, 0x5f, 0x4e, 0x51,
  0xa3, 0xf6, 0xd1, 0x14, 0xe9, 0xd1, 0xa0, 0x12, 0x1b, 0x45, 0xd0, 0x56,
  0xad, 0x0a, 0xfb, 0xf2, 0x34, 0x05, 0xb2, 0x00, 0x9e, 0xe6, 0x37, 0xa9,
  0xf9, 0xa8, 0xed, 0xfd, 0xc0, 0xbd, 0xf3, 0xab, 0x0e, 0xa7, 0x9d, 0xe1,
  0xbc, 0x4b, 0xcf, 0xb3, 0x32, 0x2e, 0x9b, 0xb6, 0x39, 0xb3, 0xf0, 0x12,
  0xae, 0xf8, 0xef, 0xad, 0xa9, 0x40, 0xe5, 0x30, 0x1b, 0xca, 0x31, 0xf0,
  0x47, 0xb0, 0x0c, 0xe7, 0x01, 0x0a, 0xa5, 0xc6, 0x4e, 0x06, 0x1f, 0xaf,
  0x37, 0x0c, 0xbd, 0x33, 0xda, 0x4d, 0x46, 0xc5, 0x52, 0xdd, 0x45, 0x28,
  0x2d, 0x5a, 0xd4, 0xe6, 0x2b, 0xba, 0xde, 0xdb, 0x28, 0x42, 0xf0, 0xe7,
  0xcf, 0x4e, 0xbb, 0xc9, 0x20, 0x0e, 0xcc, 0x1f, 0xd6, 0xf5, 0xd8, 0x1f,
  0xd1, 0xd9, 0x1f, 0xfc, 0x1f, 0xad, 0xfa, 0x24, 0x3b, 0xec, 0x1c, 0x57,
  0x4d, 0x2c, 0xbe, 0xb1, 0x21, 0x52, 0x0f, 0xb7, 0xf4, 0x47, 0xca, 0x19,
  0xb7, 0xfb, 0x33, 0xfb, 0x24, 0xd7, 0xc1, 0xbd, 0xae, 0x14, 0xd8, 0xe9,
  0xdf, 0x13, 0xd6, 0x4c, 0x32, 0x3d, 0xd5, 0xe8, 0xb8, 0xdc, 0x56, 0x24,
  0x25, 0xba, 0x12, 0xff, 0xb8, 0xd0, 0x18, 0x4e, 0xbf, 0x40, 0x4a, 0xfe,
  0xe0, 0xcb, 0xcf, 0x2a, 0x56, 0x12, 0x28, 0x01, 0xd6, 0xc3, 0x3c, 0xed,
  0x46, 0x03, 0x37, 0xf0, 0xee, 0xfb, 0x3e, 0x03, 0xbc, 0x0c, 0xf8, 0xcd,
  0x15, 0xa4, 0x37, 0x0b, 0xed, 0xc7, 0x2e, 0xd9, 0x3e, 0xf1, 0x2b, 0x53,
  0x28, 0x34, 0xf3, 0x4e, 0x9c, 0xd7, 0xa5, 0x20, 0xe8, 0x0f, 0xdb, 0xba,
  0xf0, 0x19, 0xcb, 0x26, 0x41, 0xec, 0xf6, 0x07, 0xb5, 0x50, 0x2e, 0x5c,
  0x99, 0x10, 0x36, 0xd9, 0xc9, 0xd4, 0xc2, 0x34, 0xdc, 0x1b, 0x06, 0xee,
  0x01, 0x40, 0x01, 0xdf, 0xa6, 0xbf, 0xc4, 0xfd, 0xf8, 0xd2, 0x49, 0xef,
  0x58, 0xcc, 0x5b, 0xed, 0xc3, 0xb5, 0x4c, 0xee, 0x35, 0xbf, 0xd7, 0x5c,
  0x12, 0x42, 0x49, 0x52, 0xfb, 0xf6, 0x08, 0x54, 0x19, 0x18, 0x37, 0x2b,
  0x66, 0xf9, 0xf9, 0x3a, 0x29, 0xe3, 0x00, 0x39, 0x67, 0x38, 0x11, 0xbc,
  0x49, 0xdb, 0x6f, 0xb3, 0xde, 0x33, 0x08, 0xeb, 0xce, 0xb3, 0x74, 0x3c,
  0x14, 0x5c, 0x58, 0xdb, 0xf3, 0xd8, 0x78, 0x32, 0xdd, 0xea, 0xeb, 0x1b,
  0x41, 0xff, 0x19, 0xe2, 0x5f, 0x42, 0x6f, 0xb6, 0xf4, 0x53, 0x1e, 0xdc,
  0xd0, 0x1b, 0x01, 0xda, 0x65, 0x43, 0xd1, 0x33, 0x5d, 0x24, 0x30, 0x48,
  0x22, 0x01, 0x4b, 0xe0, 0x15, 0xd3, 0x09, 0x08, 0xd6, 0xc9, 0xc7, 0xb3,
  0x01, 0x04, 0xe3, 0x30, 0x6a, 0xad, 0x0e, 0xfd, 0x0d, 0x03, 0x33, 0x1e,
  0xc3, 0x34, 0xf4, 0xf7, 0xd0, 0x18, 0xf7, 0x48, 0xd7, 0xc9, 0x4c, 0xe6,
  0xe0, 0xe1, 0xec, 0x48, 0x52, 0xbf, 0x08, 0x35, 0xf6, 0x28, 0x0d, 0x48,
  0xbd, 0xef, 0xdb, 0xc3, 0x2a, 0x2c, 0x3a, 0xd5, 0xf6, 0xea, 0x53, 0xbb,
  0xcf, 0xc0, 0xfa, 0x05, 0x3c, 0x50, 0xda, 0x4e, 0x21, 0x2b, 0xf3, 0xdc,
  0x26, 0xbe, 0xd6, 0xf9, 0x13, 0xf4, 0x15, 0xbe, 0xcc, 0xcf, 0x40, 0x39,
  0xf7, 0xb8, 0xfc, 0xe1, 0x2c, 0xe4, 0xed, 0xe1, 0x4b, 0xa8, 0x3c, 0xfc,
  0x14, 0xd9, 0x42, 0xf5, 0xfb, 0xec, 0x38, 0xc1, 0xce, 0x2e, 0xd9, 0x51,
  0xe0, 0xbe, 0x33, 0xeb, 0x61, 0xbd, 0x4e, 0xf3, 0x22, 0x56, 0xc7, 0xc9,
  0xd8, 0x5d, 0x25, 0x18, 0x11, 0x13, 0x50, 0x04, 0x5b, 0x4e, 0xc5, 0x23,
  0x39, 0x4e, 0x64, 0x42, 0x45, 0x31, 0x4e, 0x0b, 0xf1, 0x13, 0x35, 0x31,
  0xf7, 0x1f, 0x28, 0x5d, 0x21, 0x2f, 0x26, 0x21, 0x52, 0x46, 0x43, 0x67,
  0xb3, 0xcb, 0xf8, 0x29, 0xc1, 0xbe, 0x33, 0xd5, 0x06, 0xc5, 0xa4, 0x5a,
  0xf9, 0x5e, 0xc8, 0xbb, 0xeb, 0xfa, 0xd2, 0x5e, 0xf2, 0x27, 0x11, 0xc1,
  0x8d, 0x2a, 0xf4, 0x18, 0xab, 0x3c, 0xf2, 0x05, 0xeb, 0xb5, 0xb6, 0x2e,
  0x95, 0x34, 0xe6, 0xc7, 0x1a, 0x14, 0xcb, 0xe5, 0x8b, 0xe4, 0xf3, 0xca,
  0x14, 0x07, 0xd4, 0xa5, 0xda, 0x00, 0x06, 0x03, 0x2a, 0xf5, 0x19, 0xd8,
  0x0b, 0x27, 0xaa, 0x0e, 0xa3, 0xce, 0xc7, 0xd7, 0xc9, 0xbc, 0xe4, 0x2d,
  0xb2, 0x37, 0xb6, 0xf7, 0xc7, 0x4c, 0xee, 0x58, 0xa9, 0x41, 0xbf, 0xf4,
  0xe8, 0x0d, 0x0b, 0xc4, 0xeb, 0xdd, 0x28, 0x4d, 0x08, 0xe3, 0xbd, 0xc7,
  0xef, 0xf1, 0xb9, 0xba, 0x4c, 0xe5, 0x3a, 0x61, 0xe4, 0xcb, 0xd1, 0xcb,
  0x17, 0x1b, 0x3f, 0x07, 0x50, 0xf4, 0xf2, 0xf4, 0xbe, 0xb9, 0x0e, 0x22,
  0x31, 0xc3, 0x55, 0x5c, 0x27, 0xbc, 0x53, 0x57, 0xd9, 0x07, 0x55, 0xb8,
  0x58, 0x5f, 0x32, 0x00, 0x08, 0xd0, 0x1c, 0x1a, 0x1a, 0x15, 0x10, 0xf1,
  0xc8, 0x01, 0x2e, 0xf0, 0xc7, 0xac, 0xca, 0x1f, 0x5c, 0x04, 0x0d, 0xc5,
  0x18, 0xa6, 0x66, 0x1f, 0x5c, 0xb7, 0x07, 0xc7, 0xc9, 0x18, 0xe4, 0x29,
  0x19, 0xf1, 0x44, 0x1c, 0xe0, 0x15, 0x41, 0x2b, 0xf4, 0xc5, 0xe8, 0x0c,
  0x41, 0x4e, 0xcd, 0xda, 0x16, 0xd2, 0x20, 0xe1, 0x67, 0xf1, 0x2f, 0x09,
  0xe6, 0xb2, 0x39, 0xc7, 0xca, 0x01, 0x0b, 0x1e, 0x10, 0xeb, 0xfd, 0x31,
  0xcf, 0xb8, 0xdc, 0xf9, 0x05, 0x52, 0x11, 0xc6, 0x1f, 0xc9, 0xc5, 0x13,
  0xda, 0xb9, 0x40, 0x24, 0x47, 0xe7, 0x50, 0xe9, 0x45, 0xe0, 0xa7, 0xe8,
  0x02, 0xaf, 0x3f, 0x42, 0x2d, 0xa8, 0x47, 0xb7, 0xd0, 0xcd, 0x01, 0xbb,
  0xcd, 0xa4, 0xe0, 0xb1, 0x09, 0x06, 0xe1, 0xc4, 0x2e, 0xe6, 0x49, 0xd9,
  0x18, 0x9e, 0xe0, 0x3b, 0x23, 0xcc, 0x33, 0xda, 0xec, 0x40, 0x29, 0xf5,
  0x39, 0x1b, 0x05, 0xcc, 0x23, 0x2b, 0x46, 0x35, 0x30, 0xb1, 0x05, 0x4f,
  0xe6, 0x32, 0xfe, 0xba, 0x31, 0xed, 0xb7, 0x05, 0xba, 0xaf, 0xbd, 0xb2,
  0xb0, 0x0b, 0x06, 0x4a, 0xb3, 0xa4, 0xe4, 0xd3, 0x46, 0xaf, 0xdc, 0x16,
  0xd8, 0xad, 0x10, 0x2e, 0xc0, 0xed, 0x0c, 0xe9, 0xa0, 0xf2, 0x06, 0xdd,
  0x05, 0x2f, 0xfa, 0x46, 0xe6, 0xbe, 0xce, 0xf2, 0xe4, 0x47, 0xf6, 0x34,
  0xbc, 0x02, 0x48, 0xa6, 0x2b, 0x15, 0xf9, 0x2d, 0x36, 0x3e, 0x16, 0x19,
  0x18, 0x29, 0xe9, 0x38, 0xaa, 0xec, 0x06, 0x4d, 0x34, 0xe7, 0xae, 0xc9,
  0x42, 0x09, 0x0b, 0xf6, 0xf0, 0xad, 0x20, 0x02, 0xd2, 0xda, 0xe9, 0x3e,
  0x52, 0x9a, 0xc6, 0xd9, 0x35, 0x40, 0x42, 0xff, 0x53, 0xb3, 0x2a, 0xb0,
  0x2e, 0xb2, 0x2c, 0xae, 0x34, 0x9d, 0xd1, 0x9f, 0x13, 0xf2, 0xf2, 0xda,
  0xbe, 0x27, 0xd3, 0xc5, 0xb5, 0x28, 0xca, 0x36, 0x08, 0xdc, 0x2d, 0xd6,
  0x0b, 0x55, 0xc2, 0xe6, 0x19, 0x23, 0x31, 0xf5, 0x31, 0xca, 0x22, 0xd8,
  0xee, 0x0f, 0x0c, 0x4d, 0xdb, 0xc8, 0x37, 0x40, 0xe2, 0x49, 0xa6, 0xbf,
  0xa2, 0xe1, 0x12, 0x42, 0x31, 0x1f, 0x0d, 0x2f, 0x38, 0xdf, 0xb7, 0xea,
  0xac, 0x4c, 0xc4, 0x22, 0x50, 0xb7, 0x18, 0x4f, 0x15, 0xcb, 0xea, 0x47,
  0x1f, 0xb7, 0x2f, 0xdc, 0x22, 0x3e, 0xc2, 0x03, 0x4b, 0xc7, 0xcc, 0xcd,
  0x4a, 0x2d, 0x0f, 0xef, 0x47, 0x38, 0x0f, 0x39, 0x56, 0x28, 0xf3, 0x51,
  0x46, 0x3c, 0x37, 0xaf, 0xc5, 0x3f, 0xee, 0xa9, 0x2b, 0x51, 0x06, 0x44,
  0x1b, 0x07, 0xc0, 0xd1, 0x00, 0x41, 0x06, 0x17, 0xaf, 0x0a, 0x52, 0xce,
  0xe1, 0x05, 0xe2, 0xbb, 0x59, 0xee, 0xdc, 0xb8, 0xeb, 0xe2, 0xfe, 0xd2,
  0x49, 0x46, 0xdc, 0xcf, 0x37, 0xfa, 0x35, 0x1f, 0x0b, 0x0f, 0x41, 0x0c,
  0x1d, 0xec, 0x49, 0x13, 0xbd, 0xd9, 0x1a, 0xea, 0xef, 0xd2, 0x19, 0x35,
  0xe3, 0x1e, 0x59, 0xbb, 0xa8, 0xae, 0xf1, 0xeb, 0x20, 0xcd, 0xf0, 0x57,
  0xb3, 0xbf, 0xeb, 0xe0, 0x18, 0xb3, 0x44, 0xb7, 0xf0, 0x4f, 0xcc, 0x4e,
  0xb4, 0xf9, 0x0e, 0xc0, 0xea, 0xb3, 0x27, 0xad, 0x2f, 0xc3, 0x46, 0x40,
  0x3d, 0x34, 0x22, 0x1e, 0xf6, 0xac, 0x37, 0x40, 0x02, 0xb5, 0xb0, 0xce,
  0x01, 0xfc, 0x0d, 0x3a, 0xf2, 0xf2, 0x1d, 0xae, 0xd9, 0x42, 0xb7, 0x3e,
  0x50, 0x2f, 0xde, 0x32, 0x2d, 0xcb, 0x32, 0xc7, 0xf7, 0xfd, 0xb5, 0xf6,
  0xd3, 0x11, 0x18, 0x3f, 0xd3, 0xde, 0xe1, 0x3c, 0x3f, 0x47, 0xe4, 0x27,
  0xc8, 0xfe, 0x46, 0x45, 0x07, 0xd2, 0xcd, 0xb1, 0xf6, 0xfd, 0x3f, 0xa9,
  0x0e, 0x21, 0x5e, 0xfb, 0xb5, 0xcc, 0x4a, 0x3c, 0x5b, 0xb5, 0xb6, 0xfc,
  0xcf, 0xf1, 0xb9, 0xeb, 0xda, 0x1a, 0xaa, 0xf0, 0x28, 0xee, 0x32, 0x15,
  0xe8, 0xab, 0xd5, 0x23, 0x3a, 0x0c, 0xf5, 0x4a, 0xd7, 0xe1, 0xbf, 0xf4,
  0x3f, 0x33, 0x42, 0xb7, 0xfc, 0x4a, 0xf9, 0xc2, 0xaa, 0x15, 0xd8, 0xb5,
  0xe2, 0x0e, 0x24, 0xf8, 0x17, 0xc0, 0x14, 0xd8, 0x46, 0xd2, 0xbd, 0x29,
  0x11, 0x04, 0x20, 0x17, 0x49, 0x2f, 0xd5, 0xc9, 0xe2, 0x47, 0xee, 0x23,
  0xcd, 0x0c, 0xc8, 0xf9, 0xf4, 0xba, 0x16, 0xff, 0x0d, 0x42, 0xa4, 0xde,
  0xc8, 0x46, 0xca, 0xa9, 0x40, 0x41, 0xab, 0xce, 0x07, 0x29, 0xd7, 0xc5,
  0xa5, 0xad, 0xef, 0xaf, 0x08, 0xe3, 0x2c, 0x41, 0x22, 0xdb, 0x38, 0xfd,
  0xdd, 0x27, 0x0b, 0xad, 0xe5, 0x47, 0x44, 0x9f, 0xd6, 0xb3, 0xfa, 0xef,
  0xb6, 0xe9, 0x03, 0xfd, 0xb6, 0x1c, 0x39, 0xbd, 0xee, 0x2a, 0xe6, 0xa6,
  0xfb, 0x16, 0xd4, 0x28, 0x51, 0x33, 0x46, 0xf0, 0xb1, 0xb2, 0x44, 0xe3,
  0xf2, 0x41, 0xd4, 0x4a, 0x0f, 0xdd, 0x32, 0x1f, 0x2a, 0x39, 0xce, 0x09,
  0xad, 0xf0, 0xc6, 0xe4, 0x48, 0xb7, 0xbe, 0x3c, 0x33, 0xbf, 0x28, 0xdd,
  0x23, 0xc4, 0xcb, 0xec, 0x53, 0x04, 0x39, 0x3c, 0xfe, 0x4c, 0x2f, 0xea,
  0xd2, 0x27, 0x61, 0xf9, 0x21, 0x23, 0x32, 0x22, 0x32, 0x4c, 0x39, 0xc7,
  0x1c, 0x14, 0x47, 0xc7, 0x40, 0xd3, 0x01, 0x1b, 0x39, 0x0d, 0xe9, 0xdc,
  0xbe, 0x15, 0xfc, 0x18, 0x3e, 0x3f, 0x1c, 0xcf, 0x2c, 0x0e, 0xe6, 0xa6,
  0xed, 0x27, 0x45, 0x3f, 0x1d, 0x18, 0x28, 0x2f, 0xd9, 0x17, 0x1a, 0x18,
  0x38, 0xfb, 0x4a, 0x9c, 0xe9, 0x29, 0xf2, 0xe5, 0xf6, 0x29, 0x26, 0x21,
  0xf0, 0xb3, 0x28, 0xd8, 0xbd, 0x33, 0xb8, 0xa1, 0xe0, 0x30, 0x09, 0xa8,
  0x03, 0xc4, 0x3e, 0x04, 0xcf, 0xbe, 0x56, 0x11, 0x15, 0x1b, 0xbb, 0xde,
  0x04, 0x0b, 0xbd, 0xa1, 0xae, 0x42, 0xfd, 0x35, 0xdc, 0xdb, 0xa3, 0x22,
  0xac, 0x28, 0xb7, 0x2a, 0xed, 0xcb, 0xc5, 0xf6, 0xe5, 0xfc, 0xde, 0x31,
  0xaf, 0xe1, 0x14, 0xca, 0xe7, 0x46, 0xf5, 0xed, 0xe5, 0x45, 0x3c, 0xc0,
  0xff, 0xf1, 0x2d, 0x0d, 0x38, 0xe1, 0x2f, 0xce, 0x2e, 0x52, 0xd9, 0x15,
  0xcb, 0xfa, 0x08, 0x2a, 0xe7, 0x32, 0xbd, 0xeb, 0x05, 0xf1, 0xc8, 0xf4,
  0x36, 0xcc, 0xf0, 0x5e, 0x1c, 0x41, 0xb8, 0xf2, 0xbe, 0x0a, 0x04, 0x2f,
  0xb5, 0x20, 0x25, 0xf2, 0x25, 0x0a, 0x38, 0x3a, 0xb0, 0xda, 0x19, 0x63,
  0xf9, 0x2c, 0x0e, 0x31, 0xaa, 0xf0, 0xdf, 0x4a, 0x01, 0xea, 0xd5, 0x19,
  0x20, 0xc1, 0xf8, 0xe0, 0xdb, 0x45, 0xca, 0xb4, 0x48, 0x5b, 0x17, 0x3d,
  0xf8, 0x17, 0x08, 0x0a, 0x65, 0xe9, 0x40, 0xb2, 0x56, 0xd6, 0x4d, 0xcf,
  0x6d, 0x5e, 0x5d, 0xca, 0xd3, 0x47, 0x29, 0x59, 0x20, 0x2d, 0x1b, 0xe2,
  0xb3, 0xde, 0x22, 0xdd, 0xdd, 0x1d, 0xd7, 0x21, 0xd6, 0x40, 0x0a, 0xd0,
  0xba, 0xac, 0x9d, 0x57, 0xc4, 0xd0, 0x26, 0xbb, 0x05, 0xc6, 0x1b, 0xcf,
  0xbb, 0x2a, 0x14, 0x44, 0x3b, 0x51, 0xf1, 0xc5, 0x24, 0x56, 0x1b, 0x56,
  0x02, 0x31, 0x01, 0x12, 0x2b, 0x45, 0x31, 0x60, 0x17, 0x47, 0x2d, 0xdd,
  0x04, 0x43, 0x04, 0x48, 0xba, 0x13, 0xf9, 0x21, 0xd3, 0x32, 0x3a, 0xae,
  0x4f, 0x2e, 0x29, 0xae, 0x12, 0xa5, 0xbf, 0xd2, 0x28, 0xc8, 0x46, 0xd3,
  0x60, 0x08, 0xef, 0x22, 0x5b, 0x06, 0x26, 0xa1, 0x31, 0xb1, 0x06, 0xf1,
  0xe8, 0xf2, 0x36, 0x99, 0xe9, 0xa4, 0xd3, 0x15, 0x32, 0xc8, 0x29, 0xd0,
  0x10, 0xa9, 0x58, 0xf6, 0x29, 0xcb, 0x50, 0xfa, 0x49, 0xa4, 0x2e, 0x1f,
  0x02, 0xe7, 0x34, 0xf3, 0x53, 0x08, 0xdf, 0xe1, 0xd0, 0xf2, 0x17, 0x09,
  0x3e, 0x40, 0xe6, 0x13, 0x62, 0xc8, 0x3f, 0x3c, 0x0d, 0xc9, 0x5c, 0xa9,
  0x22, 0x45, 0x57, 0xc0, 0x06, 0xe7, 0x08, 0x49, 0x25, 0x54, 0xb8, 0x44,
  0x1d, 0x35, 0x4b, 0x01, 0xcf, 0xe5, 0x0e, 0x3e, 0x29, 0xb3, 0xd2, 0x38,
  0x2c, 0xf2, 0x4b, 0xb9, 0x33, 0xdc, 0xce, 0xbc, 0x27, 0xbd, 0xf3, 0xef,
  0xdb, 0x3a, 0x2e, 0xe3, 0x22, 0x0e, 0x42, 0x08, 0xaa, 0x38, 0x33, 0x4a,
  0xce, 0xc5, 0x0a, 0xc9, 0x45, 0x00, 0x56, 0x0e, 0xce, 0x5a, 0x37, 0xda,
  0x17, 0xce, 0x3f, 0xf6, 0x25, 0x01, 0xc4, 0x01, 0xfa, 0xc3, 0xcb, 0x1c,
  0x01, 0x0a, 0x33, 0x45, 0x3d, 0xf1, 0x25, 0xf7, 0xf0, 0x56, 0xfa, 0x60,
  0xbb, 0x01, 0xce, 0x0d, 0xf9, 0xf7, 0xa3, 0xfa, 0x9f, 0x07, 0xd7, 0xfb,
  0xbd, 0xaa, 0xed, 0xb0, 0xed, 0xe2, 0x07, 0x06, 0x09, 0xe4, 0xf1, 0xf1,
  0xda, 0x04, 0xcd, 0x18, 0x35, 0x30, 0x0d, 0x20, 0x3c, 0x52, 0x19, 0xed,
  0x08, 0x48, 0xcb, 0xc9, 0xf1, 0x2f, 0x38, 0xbe, 0xf3, 0xff, 0x00, 0x01,
  0x98, 0xfa, 0x20, 0x38, 0x9b, 0x03, 0x31, 0x29, 0x0e, 0x39, 0xbf, 0x2f,
  0x12, 0xc9, 0x9d, 0x18, 0xc9, 0x01, 0xe4, 0x5e, 0x3d, 0x0d, 0x23, 0xcf,
  0xfc, 0x2a, 0x17, 0x56, 0x1a, 0xd0, 0xb4, 0xb9, 0x33, 0x4c, 0x3a, 0x0d,
  0x0a, 0x36, 0xf6, 0xb9, 0xba, 0xad, 0x0a, 0xfc, 0xb6, 0xb8, 0x38, 0xa5,
  0x1d, 0xc8, 0x43, 0x15, 0x4c, 0xf0, 0x3e, 0x20, 0x55, 0x31, 0x1d, 0xae,
  0xf7, 0x3e, 0xe4, 0xc4, 0xd6, 0xc8, 0x5d, 0xf2, 0xec, 0x20, 0xbe, 0xc7,
  0xdb, 0xdb, 0x13, 0x0b, 0x08, 0x32, 0x0f, 0x27, 0xdc, 0xc5, 0xcd, 0xc4,
  0x3b, 0x3c, 0x28, 0x1e, 0xe6, 0x2f, 0x43, 0x04, 0x17, 0xad, 0xcf, 0x3b,
  0xf5, 0xe3, 0x53, 0xdb, 0x41, 0x34, 0xf7, 0xae, 0xc1, 0x27, 0xba, 0xec,
  0xac, 0xba, 0xef, 0xcc, 0x53, 0xaf, 0xb7, 0x45, 0x3f, 0xe7, 0xa7, 0x4f,
  0x42, 0x01, 0xb8, 0x13, 0x35, 0xc7, 0xfe, 0x25, 0x30, 0xfb, 0xc6, 0xd2,
  0xce, 0xd0, 0x42, 0x00, 0x1d, 0x25, 0xa5, 0x26, 0xf1, 0xf8, 0xf3, 0xce,
  0xe8, 0xc5, 0x2e, 0xc9, 0x36, 0xea, 0xe6, 0x54, 0xc4, 0xdc, 0xc3, 0x01,
  0xf4, 0x29, 0x22, 0x20, 0x38, 0x5b, 0x41, 0x00, 0xfd, 0xec, 0xaa, 0x43,
  0x02, 0xc1, 0xa4, 0xc4, 0xac, 0xe8, 0x22, 0xeb, 0xe8, 0x22, 0xc0, 0xfe,
  0x3d, 0xa3, 0x34, 0x45, 0xff, 0x44, 0xf4, 0x48, 0xac, 0xe9, 0xe1, 0x57,
  0xad, 0xca, 0x93, 0xd0, 0x24, 0xe5, 0xd5, 0x60, 0x8f, 0x41, 0xba, 0x36,
  0xe1, 0x18, 0xfb, 0x71, 0xa0, 0xcf, 0x1b, 0x0a, 0x36, 0xff, 0xa6, 0xc8,
  0x1e, 0x10, 0xdb, 0xcb, 0xbf, 0x21, 0xa6, 0x42, 0xc8, 0x5b, 0xab, 0x25,
  0xa9, 0xea, 0x11, 0x46, 0x9f, 0x1f, 0xf5, 0x34, 0xfc, 0xd6, 0xd3, 0xc5,
  0xdb, 0xbf, 0x45, 0x3c, 0x21, 0x18, 0xb7, 0xe5, 0x1b, 0x09, 0xf4, 0xab,
  0xeb, 0x51, 0x35, 0xa5, 0x6c, 0xe7, 0x07, 0x0c, 0x22, 0xa7, 0xcd, 0x2c,
  0x18, 0xe2, 0x03, 0x4b, 0xdd, 0xdb, 0x0a, 0xe0, 0xf2, 0x00, 0x0e, 0xdf,
  0x12, 0xb7, 0xcc, 0xff, 0x76, 0xf0, 0x0e, 0x10, 0xde, 0x2e, 0x44, 0x0e,
  0x2f, 0xea, 0xcd, 0x45, 0x23, 0xb7, 0xf4, 0xfb, 0x11, 0x27, 0x2e, 0x4d,
  0x03, 0x3a, 0xd1, 0xd9, 0x25, 0xe5, 0x29, 0xdc, 0x4d, 0x0e, 0x39, 0xcd,
  0x2c, 0xff, 0x3a, 0x36, 0x60, 0x16, 0xeb, 0xe9, 0x04, 0x46, 0x24, 0x0b,
  0x44, 0x1c, 0xb7, 0x2c, 0x1b, 0xfa, 0x2f, 0xb4, 0xbf, 0xd1, 0x4b, 0xbe,
  0xb4, 0xcd, 0x33, 0x57, 0x56, 0x18, 0xdd, 0x20, 0x34, 0x2c, 0xc0, 0x35,
  0xad, 0x4b, 0x3d, 0x1f, 0x45, 0xbe, 0x06, 0x1d, 0xe5, 0x4e, 0xdf, 0x4b,
  0xa6, 0xc8, 0xd3, 0xfb, 0x0b, 0x35, 0xcd, 0x07, 0x52, 0x4f, 0x1f, 0xc5,
  0x40, 0x4e, 0xee, 0xf4, 0x23, 0x35, 0x21, 0xda, 0x4f, 0xb2, 0x2c, 0xbe,
  0xdb, 0xef, 0x1a, 0xfc, 0xaa, 0xbc, 0x43, 0x48, 0xa5, 0xbd, 0xe6, 0x02,
  0xec, 0xa2, 0xe9, 0xf5, 0x40, 0x9f, 0x00, 0xe2, 0xf6, 0x29, 0xc0, 0xc9,
  0xde, 0x1d, 0x41, 0xb2, 0x99, 0xa6, 0x9d, 0xb0, 0xc1, 0xbd, 0x3b, 0xb8,
  0x3c, 0x50, 0x30, 0xe2, 0x45, 0x28, 0x45, 0x48, 0x12, 0xe9, 0xb3, 0x0c,
  0xf1, 0x19, 0xe9, 0xac, 0xf7, 0xde, 0xf7, 0x07, 0x31, 0xf0, 0xe3, 0x1d,
  0xe8, 0xca, 0xad, 0xad, 0xc5, 0xd2, 0xc3, 0xc9, 0xf4, 0x28, 0xf4, 0xab,
  0x04, 0x4e, 0x36, 0xf2, 0xc4, 0xb1, 0x32, 0xcf, 0xc5, 0x09, 0x31, 0xc4,
  0x2f, 0xd4, 0x21, 0xb5, 0x3b, 0xf2, 0x3f, 0x0f, 0xd9, 0xd5, 0xc5, 0xe6,
  0x16, 0xef, 0xe4, 0xdc, 0x4f, 0x28, 0xc8, 0xef, 0x4b, 0x34, 0x1c, 0x51,
  0xcf, 0xbc, 0xe9, 0xd4, 0x0f, 0xe6, 0x2c, 0x62, 0x17, 0xd6, 0xd7, 0xec,
  0x10, 0xdb, 0x38, 0xd1, 0x0f, 0x5d, 0x48, 0x13, 0x44, 0x2b, 0x5b, 0xfd,
  0xf6, 0x23, 0x02, 0x3c, 0xc9, 0x0e, 0x4e, 0x39, 0x3c, 0xdb, 0x66, 0x5a,
  0x65, 0xfb, 0x0e, 0x14, 0xfe, 0x0c, 0xde, 0xb2, 0x09, 0x46, 0xe5, 0xaf,
  0x63, 0x51, 0x18, 0x4f, 0xc7, 0xaa, 0xda, 0x40, 0xbc, 0xbd, 0xba, 0xed,
  0xc1, 0xb0, 0xcc, 0x4c, 0xf8, 0xc9, 0x31, 0xeb, 0xba, 0xe6, 0xbc, 0x3b,
  0xd0, 0x1b, 0x3d, 0xf5, 0x27, 0x34, 0x40, 0x00, 0xcd, 0x07, 0x44, 0xe2,
  0xeb, 0xc1, 0x04, 0x45, 0xe2, 0x4c, 0x24, 0xdf, 0xbf, 0xd2, 0xfb, 0x40,
  0xf9, 0x28, 0xf7, 0xbc, 0xc1, 0xca, 0x33, 0x08, 0xca, 0xf7, 0xcd, 0x23,
  0x14, 0xb0, 0x10, 0x37, 0x3c, 0xc1, 0x16, 0xee, 0xf9, 0xcf, 0x2b, 0x1e,
  0xb7, 0xcd, 0x0b, 0x0e, 0x2f, 0xde, 0xfc, 0xf6, 0xb6, 0x58, 0x26, 0xcc,
  0x14, 0x0e, 0x05, 0xdb, 0x4a, 0x4e, 0xeb, 0x26, 0x3b, 0x4f, 0x47, 0x2e,
  0xdf, 0xe6, 0x0c, 0xc7, 0xb3, 0xed, 0x30, 0xc6, 0xe6, 0xbf, 0x04, 0x18,
  0x0f, 0x3b, 0xd5, 0x0f, 0x3b, 0xed, 0xbc, 0x2a, 0x02, 0x9a, 0x14, 0xa9,
  0xe7, 0xcf, 0xab, 0x9f, 0x4d, 0x09, 0x1b, 0xf3, 0xd0, 0xb1, 0xcb, 0x15,
  0x47, 0xfb, 0x4c, 0x23, 0xfe, 0x95, 0x20, 0xcd, 0xb5, 0xb3, 0xee, 0x98,
  0xd6, 0xd1, 0x30, 0x3b, 0xbd, 0x9d, 0x5e, 0x32, 0xe9, 0x9f, 0x03, 0xa1,
  0x17, 0x34, 0xc1, 0x37, 0x63, 0xc8, 0x31, 0x1a, 0x63, 0xfd, 0x60, 0xfe,
  0xc8, 0xb3, 0x6b, 0xaf, 0xbc, 0xdd, 0x03, 0xfe, 0xfa, 0x29, 0xc0, 0x1c,
  0xd1, 0xfa, 0xc0, 0xdc, 0x10, 0xe4, 0xe3, 0x47, 0xc1, 0xd0, 0xf5, 0x40,
  0xfa, 0x2c, 0x19, 0xcf, 0x04, 0xc2, 0xea, 0xc5, 0xe5, 0x29, 0x03, 0xea,
  0xd8, 0xd6, 0xbc, 0xb9, 0x2e, 0x30, 0xed, 0xf7, 0x3c, 0xba, 0xba, 0x19,
  0xfd, 0xd7, 0xeb, 0x2b, 0xb3, 0x38, 0xe6, 0x38, 0xdd, 0x2f, 0x0f, 0x1a,
  0xef, 0xdd, 0xef, 0xd2, 0x19, 0x54, 0x3e, 0xcb, 0x15, 0xc6, 0xff, 0xa3,
  0xbe, 0x50, 0xd6, 0x00, 0xbe, 0xbf, 0x50, 0xba, 0xff, 0x47, 0xc1, 0x0d,
  0xc5, 0xc9, 0x1a, 0x52, 0xc3, 0xea, 0x09, 0xbc, 0x61, 0x4a, 0xc4, 0xef,
  0xf2, 0x06, 0x2e, 0xe0, 0x24, 0xdc, 0xcb, 0xeb, 0x0d, 0xcc, 0x2d, 0xb0,
  0x54, 0xa7, 0xf8, 0x08, 0x1f, 0x41, 0xd3, 0xf9, 0xb7, 0xe8, 0x2c, 0x01,
  0xf4, 0xbd, 0xdf, 0xd6, 0xaf, 0xc2, 0xeb, 0xe5, 0x07, 0x14, 0xb1, 0x45,
  0xa5, 0x0b, 0xdc, 0xb2, 0xc9, 0x11, 0xb2, 0xef, 0x19, 0xd3, 0xdb, 0xe7,
  0x2d, 0xdb, 0xee, 0xd2, 0xf2, 0x31, 0xb9, 0xe7, 0x13, 0xc9, 0x46, 0x19,
  0x4d, 0xf6, 0x41, 0x0c, 0x2f, 0xe5, 0x29, 0x0f, 0xbd, 0x25, 0xbe, 0xd3,
  0xcf, 0x3b, 0xf1, 0xb9, 0x13, 0x3a, 0xd8, 0x3d, 0xed, 0xe9, 0x33, 0x2c,
  0xd2, 0xee, 0xf3, 0xf8, 0xd2, 0x01, 0xe7, 0x5a, 0xa7, 0x22, 0xf6, 0x01,
  0x13, 0x17, 0x13, 0x61, 0x25, 0x41, 0xff, 0xcc, 0xad, 0xe6, 0x0a, 0xf1,
  0xe0, 0x33, 0x10, 0xfc, 0x37, 0x2f, 0xf0, 0xd3, 0xb3, 0x59, 0xf2, 0x1f,
  0x32, 0xfe, 0xf8, 0x4c, 0x40, 0x3b, 0x29, 0xf3, 0xb7, 0xc5, 0xdb, 0xe4,
  0xcf, 0x18, 0x53, 0xcf, 0x50, 0x55, 0xfc, 0x12, 0xf9, 0x07, 0x0d, 0x12,
  0xb6, 0x0a, 0xe6, 0x44, 0xed, 0xc4, 0xe9, 0xfd, 0xe6, 0xfa, 0x27, 0x39,
  0xde, 0x38, 0x4b, 0xe6, 0xe8, 0xca, 0xec, 0x0b, 0x4c, 0xc1, 0x40, 0x19,
  0x57, 0xa7, 0x42, 0xa7, 0xf7, 0xae, 0x46, 0x42, 0xc9, 0xb3, 0xb7, 0x0f,
  0x0c, 0x3c, 0xbf, 0x09, 0xe3, 0x09, 0x06, 0x10, 0xe0, 0xd8, 0xfa, 0xea,
  0x62, 0xeb, 0xe1, 0xc7, 0x5e, 0x00, 0x1d, 0x2b, 0x39, 0xc2, 0x4f, 0xac,
  0xdf, 0xc7, 0x36, 0x0a, 0x50, 0xbb, 0x1b, 0xff, 0x14, 0xfb, 0xef, 0x31,
  0xcf, 0xcc, 0x35, 0x25, 0xcf, 0xca, 0xce, 0xc4, 0x43, 0x21, 0xc5, 0xec,
  0x44, 0x0d, 0xf7, 0x3b, 0x24, 0x3a, 0xca, 0x41, 0x0a, 0x22, 0x50, 0xbf,
  0xb2, 0xcb, 0xdc, 0xb1, 0xaf, 0xdd, 0xbd, 0xa5, 0xcd, 0xf5, 0xa4, 0xef,
  0xc1, 0xb6, 0x1f, 0xf9, 0x23, 0x0a, 0xca, 0xc2, 0xb3, 0x19, 0x0b, 0xbf,
  0xa6, 0xab, 0xdb, 0x52, 0x48, 0x3b, 0x20, 0x3d, 0xdb, 0x3e, 0x44, 0x49,
  0x05, 0x08, 0x4f, 0x3b, 0xec, 0x3b, 0xdf, 0xd3, 0xdc, 0x30, 0xc6, 0xc8,
  0xf2, 0xbc, 0x51, 0xc3, 0xe6, 0x34, 0xf1, 0xd5, 0x2f, 0xe3, 0xc9, 0xb1,
  0x00, 0xe7, 0x4e, 0xfb, 0x2f, 0xd4, 0xcc, 0x1c, 0x03, 0x49, 0x1e, 0xf0,
  0xaf, 0x05, 0x3c, 0xcf, 0xce, 0x19, 0x1d, 0x43, 0x11, 0x62, 0xbe, 0xc1,
  0x09, 0x5a, 0xd2, 0xe4, 0xc1, 0x4d, 0x4b, 0xd0, 0x36, 0x32, 0x20, 0x14,
  0xb6, 0xc3, 0x41, 0xbd, 0xe0, 0x1d, 0xce, 0x61, 0x12, 0xde, 0x3a, 0x2a,
  0xc5, 0x42, 0xc5, 0x4d, 0xc4, 0x15, 0x49, 0x3a, 0xf1, 0x32, 0xc4, 0x02,
  0xc1, 0xfc, 0xcb, 0xb9, 0xee, 0x42, 0xb7, 0xe1, 0xd6, 0xdc, 0x0a, 0x30,
  0xed, 0xb9, 0x1f, 0xbd, 0x11, 0x0b, 0xf5, 0xe3, 0xc3, 0xe3, 0x2a, 0xc7,
  0xf8, 0xb7, 0xad, 0xd7, 0x3c, 0xa3, 0xc3, 0x42, 0x09, 0xe2, 0x4d, 0xef,
  0x22, 0x05, 0x33, 0xc3, 0x48, 0xfe, 0x3c, 0xdb, 0xff, 0x37, 0xf8, 0x18,
  0xcd, 0xef, 0xdc, 0xd4, 0xcb, 0x9d, 0xc0, 0xab, 0x09, 0xfd, 0x30, 0xa2,
  0x07, 0x03, 0x19, 0x30, 0xca, 0xbd, 0xab, 0x47, 0x50, 0xca, 0xcd, 0x25,
  0xfa, 0xfc, 0x2d, 0xf6, 0x57, 0x49, 0xc5, 0x36, 0xdd, 0x4d, 0x5c, 0x52,
  0x26, 0xf5, 0x57, 0xcd, 0x3d, 0x2b, 0xd7, 0xab, 0xf9, 0x1f, 0x13, 0x2b,
  0x12, 0xc8, 0xe4, 0x3f, 0xd9, 0xdd, 0x2d, 0x05, 0x49, 0x3a, 0xcf, 0x36,
  0xd4, 0x0c, 0x34, 0xf8, 0x02, 0x12, 0xc9, 0x05, 0xb8, 0x34, 0xb9, 0xdf,
  0x25, 0xc0, 0x92, 0x57, 0xc8, 0x48, 0xc8, 0xc5, 0xd4, 0x29, 0x25, 0xe3,
  0x8e, 0xf7, 0xef, 0x48, 0x02, 0xb7, 0x20, 0x5e, 0xa9, 0x29, 0xd9, 0x16,
  0x31, 0xd9, 0xfc, 0x2c, 0xc4, 0xd9, 0x15, 0x23, 0x3c, 0xc3, 0xd0, 0xd5,
  0xc4, 0x49, 0xaf, 0x59, 0xc9, 0x10, 0x48, 0x68, 0xcd, 0xfc, 0x25, 0x2e,
  0x01, 0x16, 0xc6, 0x09, 0x21, 0xce, 0xcf, 0x1f, 0x00, 0xf1, 0x43, 0x13,
  0x15, 0x26, 0x3f, 0xad, 0x5a, 0xde, 0x69, 0x3f, 0x07, 0x28, 0x05, 0x3e,
  0xee, 0x00, 0x2d, 0xca, 0x6b, 0xc1, 0x52, 0x0f, 0x17, 0xde, 0x1e, 0xe1,
  0xcd, 0xaf, 0x3e, 0xb3, 0x58, 0xe2, 0xe7, 0x2f, 0x62, 0x47, 0xe7, 0xcd,
  0x27, 0x04, 0x41, 0x35, 0xe4, 0xfc, 0x4e, 0xac, 0xd1, 0xae, 0xd4, 0xe1,
  0xdf, 0xf2, 0x1b, 0xe1, 0xdb, 0x35, 0xc6, 0xc2, 0x04, 0xb1, 0x31, 0xa8,
  0xc9, 0x48, 0xe6, 0x3b, 0xd7, 0xb6, 0xe6, 0x3b, 0x2e, 0x46, 0xd9, 0xe0,
  0xe8, 0x51, 0xf3, 0x07, 0x12, 0x3d, 0xf9, 0xc6, 0x3b, 0x15, 0xfe, 0x52,
  0x28, 0x14, 0x00, 0xf7, 0xe2, 0xee, 0xf9, 0xdb, 0x00, 0x67, 0x16, 0xc1,
  0x26, 0x58, 0xe4, 0xc5, 0x4c, 0x69, 0x16, 0xc9, 0x40, 0xd1, 0x53, 0x66,
  0xef, 0x60, 0xc8, 0x49, 0x54, 0x19, 0xe0, 0xe7, 0xf9, 0x4a, 0xf1, 0xe5,
  0x3f, 0x59, 0x1f, 0xcf, 0x4e, 0xdd, 0xc6, 0xef, 0x27, 0xd6, 0x2c, 0xe6,
  0xd4, 0x5f, 0xcb, 0x39, 0xa9, 0xec, 0x11, 0x27, 0xcc, 0xf8, 0x27, 0xeb,
  0xfe, 0x51, 0x25, 0xd8, 0x62, 0x51, 0x1d, 0xce, 0xc3, 0xbd, 0xbe, 0xe8,
  0xe1, 0x47, 0x0b, 0x5c, 0x30, 0xaf, 0x26, 0xd7, 0xc3, 0x17, 0x11, 0xd1,
  0x5f, 0xd7, 0x45, 0xca, 0x4f, 0x4a, 0x59, 0xe5, 0xe8, 0xca, 0xf2, 0xf4,
  0xc4, 0xbc, 0x25, 0x4a, 0xd6, 0x4e, 0x1c, 0xe5, 0xff, 0xb8, 0x65, 0x44,
  0x14, 0xba, 0x30, 0xe4, 0xd0, 0xa3, 0x64, 0xf4, 0x18, 0xba, 0xd4, 0xac,
  0x3e, 0xa4, 0xcf, 0xf3, 0x30, 0x16, 0x3a, 0x3d, 0x18, 0xac, 0x07, 0x29,
  0x28, 0x43, 0xf0, 0xa4, 0xef, 0xf6, 0xe7, 0xb8, 0xa8, 0x14, 0xa6, 0xf5,
  0xc6, 0xca, 0xc2, 0x40, 0x14, 0xee, 0xc8, 0xf5, 0xe7, 0x08, 0xdd, 0xe2,
  0x27, 0xed, 0x06, 0xd3, 0x39, 0xed, 0xce, 0x26, 0xcf, 0x48, 0xd1, 0xd4,
  0x8e, 0xc5, 0xba, 0x40, 0x94, 0x1d, 0xc2, 0x3f, 0xbc, 0xc0, 0xf1, 0x4a,
  0xb2, 0xc3, 0xfe, 0xf9, 0x2e, 0x00, 0x22, 0x06, 0x02, 0xf6, 0x02, 0x32,
  0xbe, 0xb9, 0xba, 0x5d, 0x3e, 0xf5, 0x33, 0x5f, 0xc6, 0x0b, 0xba, 0xc8,
  0x49, 0xd0, 0xd4, 0x55, 0xaf, 0x45, 0x20, 0x68, 0x46, 0xdf, 0xd0, 0xc9,
  0xfb, 0x12, 0xf2, 0xdf, 0x35, 0x16, 0x23, 0x58, 0x13, 0x05, 0xb1, 0x5a,
  0xb3, 0xc5, 0xb8, 0x50, 0xf0, 0x37, 0xd5, 0x17, 0x49, 0xde, 0x22, 0x29,
  0x35, 0xbf, 0x3c, 0x20, 0xe6, 0x54, 0xbe, 0xbe, 0x05, 0x08, 0x42, 0x4e,
  0xd7, 0xba, 0x39, 0xdc, 0xc1, 0x38, 0xc2, 0x4e, 0x24, 0x3c, 0xfb, 0x3a,
  0x36, 0x28, 0xb2, 0xf5, 0xb5, 0x5c, 0x56, 0xd0, 0x2f, 0x3e, 0x01, 0xd5,
  0x35, 0xbc, 0xf0, 0x2c, 0xcf, 0x58, 0x1a, 0x53, 0xfe, 0xe5, 0x0c, 0xde,
  0xb8, 0xdf, 0xb3, 0x08, 0xae, 0x24, 0x1c, 0x39, 0xca, 0xd7, 0xfd, 0x5e,
  0xff, 0xb1, 0x36, 0x4f, 0x33, 0xde, 0xfa, 0xfe, 0x5a, 0x22, 0xeb, 0xd0,
  0x18, 0xc6, 0xcc, 0xdc, 0x23, 0xe7, 0xea, 0xea, 0xfd, 0xfe, 0x1e, 0x07,
  0xb9, 0xff, 0xab, 0xfc, 0x2b, 0x10, 0xdf, 0xea, 0x2b, 0x14, 0xc8, 0xa8,
  0x1d, 0xef, 0xe2, 0xed, 0xfb, 0x9c, 0x27, 0x2f, 0xce, 0xac, 0xc0, 0xb6,
  0xe4, 0xf4, 0xe8, 0x59, 0x19, 0x08, 0x49, 0x12, 0x03, 0xf9, 0x45, 0x4a,
  0x3d, 0x0e, 0xa0, 0x4e, 0x37, 0x1f, 0x26, 0x01, 0x24, 0xe0, 0x0a, 0x4c,
  0xf6, 0x30, 0xfc, 0x40, 0xbc, 0x3e, 0xed, 0xd9, 0x19, 0x38, 0x37, 0x31,
  0xe5, 0x11, 0x61, 0x17, 0xc2, 0xbe, 0x09, 0x37, 0xff, 0xf3, 0xd8, 0x3e,
  0x05, 0x0a, 0xd8, 0x27, 0xe3, 0x2f, 0xbd, 0xf9, 0xda, 0x54, 0xc5, 0x50,
  0xc8, 0xc3, 0x38, 0x59, 0x36, 0x36, 0x2a, 0xf1, 0x5f, 0xff, 0xc8, 0xdf,
  0x67, 0xa4, 0x48, 0xa4, 0xc8, 0xae, 0x3a, 0xe1, 0xcd, 0xd1, 0x2b, 0x39,
  0x1c, 0x99, 0xb6, 0xe9, 0x41, 0xbf, 0x57, 0x18, 0xda, 0xb8, 0x55, 0x99,
  0x20, 0xd1, 0x5e, 0x2b, 0xbf, 0x01, 0x1d, 0xa4, 0x3f, 0xf2, 0xdb, 0x9b,
  0xdc, 0x10, 0x15, 0xec, 0xfe, 0x20, 0xd5, 0xe4, 0xda, 0xa4, 0xc2, 0xa0,
  0xcf, 0x30, 0x23, 0x08, 0xf6, 0xec, 0xdf, 0xed, 0x3a, 0xd3, 0x52, 0x0e,
  0xe7, 0x39, 0xb2, 0xdf, 0xf2, 0x32, 0x33, 0xa7, 0x1b, 0x47, 0x1e, 0xde,
  0x51, 0x17, 0x22, 0x2b, 0xfe, 0x4e, 0xf9, 0xf9, 0x33, 0xbb, 0xd3, 0x40,
  0x2e, 0x0b, 0x4d, 0xea, 0xdf, 0xe0, 0xa4, 0xd8, 0xb1, 0x5a, 0xf0, 0xc8,
  0x03, 0x5d, 0x07, 0x27, 0xed, 0xf9, 0xc3, 0x24, 0x0b, 0xb2, 0xc4, 0xfd,
  0xf3, 0xb1, 0xf8, 0x1f, 0xf4, 0x26, 0xfb, 0xd1, 0x2b, 0xc6, 0x31, 0xa6,
  0xaa, 0x0b, 0xb3, 0x24, 0xa3, 0x0f, 0x0f, 0x1c, 0xee, 0x30, 0xf8, 0x13,
  0xab, 0xbc, 0x27, 0x01, 0xb6, 0x9f, 0x29, 0xa2, 0x20, 0x2d, 0xaa, 0x3a,
  0xeb, 0x1b, 0xf7, 0xba, 0xfb, 0x37, 0x32, 0x97, 0xbb, 0xfd, 0xd5, 0xe6,
  0x01, 0x45, 0x2e, 0x21, 0x3f, 0x46, 0xb8, 0xfe, 0xf7, 0x36, 0x39, 0xb1,
  0x40, 0xc2, 0xf7, 0xf2, 0xcb, 0xf4, 0xff, 0xb8, 0x39, 0xe3, 0xb6, 0x56,
  0x2b, 0xf9, 0x34, 0xc3, 0x45, 0x06, 0xf0, 0x54, 0x49, 0x2e, 0x21, 0x29,
  0xb9, 0xd8, 0x25, 0x1d, 0x2d, 0x0c, 0x2d, 0x17, 0x04, 0xe1, 0xa4, 0x49,
  0xb6, 0xd4, 0x1b, 0xed, 0xc8, 0xc8, 0xf4, 0x36, 0x19, 0x51, 0xd4, 0xe3,
  0x2d, 0x53, 0x34, 0x27, 0x3f, 0x38, 0x21, 0xbc, 0x0c, 0xd5, 0x2b, 0x0b,
  0xb2, 0xcd, 0x23, 0x06, 0xc0, 0xd9, 0x46, 0xea, 0x51, 0xa6, 0xc1, 0xe6,
  0x35, 0x4a, 0x2e, 0xeb, 0xa9, 0xbe, 0x2b, 0x2e, 0xba, 0x3b, 0xa8, 0xf7,
  0x3b, 0xf4, 0x34, 0xa0, 0xac, 0xd7, 0x17, 0xe8, 0x02, 0xcf, 0xbb, 0x4d,
  0x54, 0xb4, 0x36, 0xb1, 0x05, 0xd1, 0x55, 0xa3, 0xaa, 0xb8, 0xba, 0x10,
  0xba, 0xad, 0xb2, 0x35, 0xe9, 0x25, 0x36, 0x23, 0xdb, 0xfb, 0x0d, 0xe1,
  0xea, 0xa1, 0x0a, 0x31, 0x48, 0xf5, 0x48, 0xdc, 0x0e, 0xe1, 0x0c, 0xd4,
  0xbc, 0xe4, 0xd1, 0xe3, 0x36, 0xd4, 0xc1, 0x56, 0xd6, 0x5c, 0x5a, 0xed,
  0xc3, 0xbc, 0x0b, 0xc0, 0x51, 0x21, 0xf8, 0x50, 0xed, 0x25, 0xd1, 0x38,
  0x41, 0x25, 0xe3, 0xff, 0xeb, 0x0b, 0xea, 0x4d, 0xc4, 0xba, 0x10, 0xf1,
  0x30, 0x39, 0x1e, 0x48, 0xcc, 0x5c, 0x9e, 0xf5, 0x10, 0xc4, 0x06, 0xf2,
  0xa3, 0xd9, 0x9f, 0xf3, 0xd1, 0x49, 0xe4, 0x3c, 0xba, 0x37, 0x01, 0x33,
  0xdb, 0xe0, 0xef, 0x0b, 0xd3, 0x2b, 0x30, 0xab, 0x32, 0x9e, 0xb4, 0xa8,
  0x50, 0x93, 0xe8, 0x0b, 0x3f, 0xc0, 0x1c, 0x14, 0xef, 0xda, 0x1b, 0x1f,
  0xed, 0xc4, 0x37, 0xe3, 0xcf, 0x05, 0x5d, 0xa4, 0x54, 0x3f, 0xbf, 0xdd,
  0xfa, 0xe8, 0x5c, 0x16, 0x24, 0xdc, 0xc6, 0xab, 0xdf, 0x9f, 0x4c, 0xe3,
  0x3d, 0xfa, 0x03, 0x2e, 0xe5, 0xa3, 0xe4, 0xab, 0xe1, 0xb6, 0x0d, 0x16,
  0xd4, 0xd7, 0x37, 0xb9, 0x49, 0x47, 0xbc, 0xde, 0xe0, 0x22, 0x0b, 0x1c,
  0x23, 0xc9, 0x2c, 0xc0, 0xbf, 0x15, 0x37, 0xef, 0xd9, 0xc8, 0xd5, 0xf0,
  0xd1, 0x43, 0x4b, 0x14, 0xec, 0x0b, 0x00, 0xaf, 0xc9, 0x18, 0xdd, 0x21,
  0x01, 0x2f, 0x16, 0x28, 0xf2, 0xcd, 0xcd, 0x16, 0xd4, 0xd2, 0xda, 0x27,
  0xdf, 0xec, 0x4b, 0x51, 0xe3, 0xf4, 0x3b, 0x59, 0xa6, 0x1b, 0x4a, 0xe3,
  0x41, 0xe2, 0xc6, 0x5f, 0x08, 0x27, 0x2b, 0xdf, 0x4b, 0x56, 0xfc, 0xc8,
  0xf1, 0xe9, 0x53, 0x42, 0xb0, 0xbc, 0x24, 0x44, 0x29, 0xb9, 0xf0, 0x10,
  0xf7, 0xf6, 0xad, 0x10, 0xc3, 0xd6, 0x09, 0xd9, 0x3b, 0x14, 0x50, 0x2a,
  0xee, 0x48, 0x56, 0xdf, 0x50, 0xcf, 0x28, 0x36, 0x4f, 0xdf, 0xeb, 0x49,
  0x34, 0xba, 0xa8, 0x38, 0x01, 0xd4, 0xe6, 0xae, 0xb1, 0xaf, 0x1c, 0x37,
  0xc9, 0x0f, 0xbf, 0x3a, 0xf7, 0x2b, 0x0c, 0x48, 0x08, 0xb4, 0xfb, 0x30,
  0x24, 0xea, 0xe3, 0xda, 0x51, 0xf9, 0xae, 0x4e, 0xe4, 0x44, 0xd1, 0xae,
  0xa4, 0x29, 0x43, 0x0a, 0x1c, 0xc1, 0x0e, 0x4c, 0xe4, 0xd7, 0xfa, 0xfa,
  0x2b, 0x4b, 0xf7, 0xc8, 0x2f, 0x27, 0x33, 0x09, 0x3e, 0xf9, 0xee, 0xd5,
  0xed, 0x37, 0xaf, 0x2c, 0xf5, 0xb0, 0xfe, 0xa8, 0xe2, 0xc3, 0xc2, 0xce,
  0xdb, 0xb0, 0xd9, 0x3b, 0xba, 0xa6, 0xf3, 0x1b, 0x03, 0x3f, 0xf5, 0x1c,
  0x10, 0x43, 0x32, 0xd8, 0xd6, 0x06, 0x4e, 0x19, 0xb4, 0x0c, 0xc3, 0xeb,
  0xc6, 0xe1, 0xf1, 0x15, 0xbc, 0x4f, 0x20, 0x2d, 0x00, 0x4f, 0x2d, 0x3a,
  0x08, 0xf7, 0x4d, 0x0e, 0x05, 0x2a, 0x12, 0x2b, 0x49, 0x0a, 0x11, 0xc6,
  0x16, 0x58, 0x3a, 0xc2, 0xd5, 0x38, 0x05, 0x4f, 0xc6, 0x12, 0x2f, 0xe6,
  0xb5, 0x1b, 0x11, 0xf7, 0xae, 0xe6, 0xc5, 0x06, 0xc6, 0xc3, 0xf3, 0xb5,
  0xf4, 0xb2, 0xf5, 0x20, 0x3b, 0xaa, 0xbf, 0x0d, 0xc8, 0xbc, 0x18, 0x07,
  0xf3, 0x19, 0xfc, 0xbc, 0x05, 0x2b, 0xb6, 0x38, 0x0a, 0x21, 0xf7, 0xd9,
  0xca, 0xf4, 0xfc, 0xfa, 0x54, 0xa8, 0x01, 0x29, 0x24, 0x3e, 0xd6, 0xb9,
  0x45, 0x50, 0xdb, 0x03, 0xdd, 0xbe, 0xc5, 0xf4, 0xc9, 0xf7, 0x20, 0xd7,
  0x59, 0xea, 0xee, 0xa8, 0xd4, 0x21, 0x55, 0x1f, 0xe5, 0xc5, 0xd0, 0x0b,
  0x48, 0x2e, 0x13, 0xa2, 0x0a, 0xbd, 0xd4, 0x28, 0x00, 0x47, 0x18, 0xab,
  0xc9, 0xc6, 0x63, 0xea, 0x6a, 0xc4, 0xe0, 0xa8, 0x56, 0xdf, 0x27, 0x3c,
  0xd9, 0xd7, 0x3a, 0x1f, 0xce, 0xff, 0xda, 0xed, 0x6e, 0xef, 0x64, 0x43,
  0x4d, 0xd6, 0x0f, 0xd5, 0x5b, 0xef, 0xf9, 0x4b, 0x3a, 0x0d, 0x24, 0x03,
  0x18, 0xc1, 0xc9, 0x68, 0xd5, 0x09, 0xcb, 0x03, 0xc8, 0x1f, 0x62, 0xee,
  0xe9, 0xe2, 0xc3, 0xdc, 0x21, 0xf5, 0xc8, 0x2f, 0x47, 0x01, 0x65, 0x33,
  0xc3, 0x34, 0xf4, 0xeb, 0xe0, 0x2a, 0xe7, 0x04, 0xe8, 0x51, 0x2c, 0xe9,
  0xb4, 0xc6, 0xfa, 0xef, 0xf2, 0x03, 0xfa, 0x4f, 0x25, 0xea, 0x1b, 0x45,
  0x2b, 0x1c, 0xa3, 0x29, 0xce, 0x2d, 0xa4, 0x05, 0x17, 0x26, 0xca, 0xe7,
  0xfe, 0x06, 0x05, 0xfc, 0x46, 0xd4, 0x00, 0xf3, 0xa5, 0xc0, 0xc6, 0xd6,
  0x46, 0xee, 0xb5, 0xa2, 0xda, 0xec, 0x32, 0xbe, 0x49, 0x3e, 0x21, 0x3e,
  0xa5, 0xf2, 0xb4, 0xbe, 0x1b, 0x46, 0xcd, 0xe9, 0x41, 0x14, 0xd8, 0x48,
  0xe5, 0x47, 0x07, 0x3b, 0xa7, 0x56, 0x22, 0xd4, 0xd9, 0xed, 0xd3, 0x1b,
  0x39, 0xf4, 0x50, 0x3a, 0x38, 0xce, 0xe6, 0x2b, 0xf3, 0x60, 0xa4, 0x06,
  0x10, 0xe9, 0xba, 0x2b, 0x24, 0x33, 0x54, 0x58, 0x0a, 0xd3, 0xec, 0x24,
  0x20, 0x5a, 0xc2, 0xbf, 0x1e, 0x54, 0x52, 0x40, 0x11, 0x18, 0xb4, 0x24,
  0xa6, 0x49, 0xa7, 0x2d, 0xf2, 0x52, 0x27, 0xd7, 0xe5, 0x45, 0xfd, 0x63,
  0x0f, 0x4e, 0x3f, 0x55, 0xbd, 0xb6, 0xc9, 0x39, 0xbe, 0x0e, 0x11, 0xd3,
  0x1d, 0x05, 0x08, 0xb8, 0x4b, 0x3c, 0xf9, 0x54, 0xe0, 0xcf, 0x07, 0x25,
  0x41, 0xd1, 0xd3, 0xb2, 0xc1, 0xb2, 0xa9, 0xfb, 0xa5, 0xc5, 0xa5, 0xc7,
  0xc7, 0x18, 0xc2, 0x3a, 0xb6, 0xb6, 0xe9, 0x16, 0xc4, 0xfb, 0x02, 0xd1,
  0x93, 0x4f, 0xf7, 0x2d, 0xf8, 0xc7, 0x04, 0x31, 0x0b, 0xd5, 0xfc, 0x53,
  0xba, 0x67, 0x10, 0xcb, 0x11, 0x6d, 0x22, 0xc6, 0xf4, 0x66, 0x00, 0x1e,
  0x3e, 0x24, 0xb0, 0xc3, 0x9d, 0x14, 0xb1, 0x65, 0x45, 0x3b, 0x44, 0xd3,
  0xf4, 0xcb, 0xc6, 0x20, 0xb2, 0x31, 0xf9, 0xe5, 0x58, 0xe7, 0xfd, 0x14,
  0x1d, 0xfd, 0xb8, 0x30, 0x21, 0x5a, 0x27, 0xe4, 0x02, 0xd0, 0x36, 0xe7,
  0x57, 0x5d, 0x57, 0x21, 0xd1, 0x55, 0x00, 0x51, 0x0c, 0xf2, 0x50, 0x59,
  0xeb, 0x14, 0xe6, 0x46, 0x72, 0x5f, 0xed, 0xba, 0x31, 0x56, 0x2e, 0x60,
  0x4f, 0xc8, 0x1a, 0xf4, 0xcf, 0x47, 0x76, 0xd6, 0xda, 0x0f, 0x0b, 0xf0,
  0x17, 0xe3, 0x1c, 0xe4, 0x33, 0x1f, 0x4d, 0x3c, 0x0f, 0x26, 0xcd, 0x35,
  0xd7, 0x62, 0x67, 0xd0, 0xcf, 0xd9, 0x6e, 0x4c, 0xdb, 0x2b, 0x6a, 0x13,
  0xcd, 0xcd, 0x05, 0x49, 0x62, 0x52, 0xe7, 0x25, 0x4a, 0xf6, 0x13, 0xd1,
  0x51, 0xdd, 0x13, 0x48, 0x28, 0x3f, 0x61, 0xed, 0xd7, 0x30, 0x2e, 0x1e,
  0x0c, 0xd2, 0x49, 0xda, 0xe2, 0x44, 0xfe, 0xb2, 0x4b, 0x41, 0x59, 0xbb,
  0x68, 0x27, 0xbc, 0xf9, 0x24, 0x0f, 0x5e, 0xf7, 0x2f, 0x2a, 0xe0, 0xe6,
  0x01, 0xcc, 0x0b, 0xe5, 0x05, 0x22, 0xc0, 0xe3, 0xce, 0x30, 0xd3, 0x18,
  0xce, 0x48, 0xcd, 0xd2, 0x21, 0x4e, 0x0b, 0xcb, 0x3e, 0x1b, 0xea, 0xfa,
  0xde, 0xe1, 0x4d, 0xec, 0x4c, 0xe1, 0xfa, 0x20, 0xe0, 0x43, 0xd1, 0xeb,
  0x1b, 0x4e, 0x30, 0x6e, 0x65, 0x4a, 0x49, 0x34, 0x0d, 0x29, 0xee, 0xc2,
  0x6b, 0x64, 0xc9, 0x2c, 0x73, 0xbc, 0x43, 0xef, 0x24, 0x2e, 0xfe, 0xc5,
  0x19, 0x18, 0x74, 0xfc, 0xe7, 0x31, 0x61, 0x36, 0xff, 0x49, 0x1f, 0x47,
  0xee, 0x65, 0x05, 0x24, 0xd4, 0xbf, 0x51, 0xce, 0x3e, 0xc9, 0xe6, 0xde,
  0x0a, 0x1c, 0x12, 0x38, 0xf2, 0xc5, 0x48, 0x40, 0x15, 0xc3, 0xde, 0x10,
  0xe0, 0x50, 0x36, 0x25, 0xc6, 0x39, 0xb2, 0x60, 0xad, 0x14, 0xdf, 0x50,
  0xff, 0xdb, 0xed, 0x4c, 0x3f, 0x70, 0xbf, 0xe6, 0x4a, 0xfa, 0x40, 0xea,
  0x45, 0xd4, 0x23, 0x50, 0x2f, 0x5e, 0xbf, 0x32, 0x1c, 0x6c, 0xf1, 0x0f,
  0xc5, 0x66, 0x4f, 0x51, 0x3e, 0xf9, 0xc4, 0x0a, 0xcb, 0x0d, 0xff, 0xce,
  0xe9, 0x20, 0xdb, 0xdc, 0x25, 0x27, 0x34, 0xdf, 0x04, 0xdd, 0xb0, 0x47,
  0xda, 0xe4, 0x50, 0x1b, 0x10, 0xfa, 0xd8, 0xf2, 0x0a, 0xd4, 0x27, 0xd3,
  0xf4, 0xca, 0x03, 0xf6, 0xc1, 0xef, 0x12, 0xf5, 0xf4, 0xc8, 0x36, 0xa4,
  0xc6, 0xea, 0x21, 0xdc, 0x5f, 0xae, 0xc5, 0x27, 0xd3, 0x2e, 0xda, 0xca,
  0x0e, 0xa0, 0xf7, 0x48, 0x2a, 0xb3, 0x28, 0xd1, 0xdf, 0xd4, 0xe7, 0xaf,
  0xc6, 0xc4, 0x4b, 0x34, 0x08, 0xf1, 0xbe, 0xc1, 0xe9, 0x18, 0xbc, 0x17,
  0x3b, 0x38, 0xbd, 0x42, 0x59, 0x0d, 0x57, 0xe3, 0x20, 0x3f, 0x34, 0xf5,
  0xbb, 0x48, 0x4d, 0x0c, 0x32, 0xaf, 0xbd, 0xe5, 0xc5, 0xe6, 0x57, 0xcf,
  0x55, 0xc8, 0x25, 0xa8, 0xe2, 0xc3, 0x56, 0x0d, 0xe9, 0xbc, 0x3a, 0x0b,
  0xee, 0x59, 0xd8, 0xe6, 0xf8, 0x05, 0x5a, 0x6d, 0x3d, 0x08, 0x2c, 0x69,
  0xf3, 0x56, 0xfd, 0x64, 0x52, 0xd8, 0x29, 0xea, 0x42, 0xf2, 0x04, 0x0d,
  0x17, 0x5d, 0x62, 0x11, 0x36, 0x1e, 0xdc, 0x08, 0xfa, 0xc9, 0xee, 0x47,
  0xcb, 0xc9, 0xc6, 0x19, 0x2f, 0xee, 0xda, 0xd1, 0xf2, 0xd8, 0xf3, 0xe5,
  0xd5, 0xf9, 0x36, 0xf3, 0xdd, 0xac, 0x1e, 0xc8, 0x0a, 0xd3, 0xd3, 0x1f,
  0xc5, 0x4b, 0x14, 0xf9, 0x20, 0x47, 0xb9, 0x12, 0x15, 0xb2, 0xf5, 0x12,
  0xcb, 0x49, 0x20, 0xc8, 0xaf, 0xce, 0x3c, 0x68, 0xfb, 0x1a, 0x30, 0x59,
  0x29, 0xc9, 0x22, 0x08, 0x35, 0x3e, 0xde, 0x3c, 0xe0, 0xc0, 0x09, 0x66,
  0xbb, 0x42, 0xf0, 0x0b, 0x03, 0x57, 0xb5, 0xc0, 0x41, 0xe4, 0xd0, 0x52,
  0xa6, 0x37, 0xc1, 0x2f, 0xda, 0x01, 0xf4, 0x54, 0xe6, 0xbf, 0xa6, 0x54,
  0xdf, 0x12, 0x0b, 0xd1, 0xe7, 0x0f, 0xcc, 0x32, 0x01, 0x33, 0x3a, 0xee,
  0x4b, 0x14, 0xd8, 0xf2, 0x1d, 0xba, 0xc4, 0x12, 0x29, 0x5d, 0xe2, 0x55,
  0x11, 0x2d, 0xb3, 0x18, 0xc9, 0x2f, 0x05, 0xee, 0xda, 0xf5, 0x0b, 0xb6,
  0x3b, 0xe1, 0xb2, 0x36, 0x48, 0xca, 0x3d, 0xa9, 0x14, 0x2e, 0x38, 0x4a,
  0x08, 0x26, 0xe9, 0xd4, 0x35, 0xd6, 0xd2, 0xc3, 0xdc, 0x14, 0x30, 0xdb,
  0xef, 0x47, 0x55, 0x3f, 0xe2, 0x20, 0xff, 0xb4, 0xf4, 0x1a, 0xcc, 0xfc,
  0xe9, 0x53, 0xf8, 0xa7, 0x3b, 0xbb, 0x4f, 0x13, 0x25, 0x1c, 0xbf, 0xb6,
  0x22, 0x1c, 0x1c, 0x39, 0xf5, 0xa7, 0x63, 0xd6, 0x03, 0x22, 0x4a, 0xe7,
  0x3f, 0x00, 0x59, 0x24, 0x40, 0x08, 0xf1, 0x14, 0xe1, 0x21, 0xd9, 0x15,
  0xf9, 0x05, 0x18, 0x01, 0xda, 0x97, 0x57, 0xbc, 0x27, 0x15, 0xcb, 0x29,
  0xd2, 0x23, 0xbc, 0xd8, 0xb3, 0x08, 0xb3, 0x43, 0x34, 0xb6, 0xab, 0x20,
  0xf0, 0x0a, 0xa9, 0xe1, 0xae, 0xeb, 0xac, 0x54, 0xf6, 0x0a, 0xd0, 0x31,
  0x39, 0xfc, 0x0d, 0x5f, 0x9f, 0xc4, 0x47, 0xf9, 0x08, 0x0e, 0xe3, 0x2d,
  0xa6, 0x10, 0x03, 0x28, 0xae, 0x08, 0x25, 0x52, 0x38, 0x0c, 0xcd, 0xfe,
  0x23, 0xc5, 0xec, 0x45, 0x04, 0x05, 0x4d, 0xf9, 0xe1, 0xe7, 0xf4, 0xbf,
  0x0d, 0xc1, 0x45, 0x39, 0xb2, 0x46, 0x03, 0xb4, 0xf7, 0xa2, 0x21, 0xc2,
  0xe4, 0xb4, 0x51, 0xc7, 0x37, 0x39, 0x35, 0xc6, 0x3c, 0xc4, 0xac, 0xfe,
  0xf8, 0xa3, 0x09, 0xce, 0xad, 0x2b, 0xb5, 0x45, 0x29, 0xac, 0x55, 0x28,
  0x4c, 0x33, 0x37, 0x0a, 0x5b, 0xae, 0x41, 0xd3, 0xdb, 0xfd, 0x5c, 0xab,
  0xeb, 0xd8, 0x13, 0x18, 0x26, 0xcc, 0xf6, 0x48, 0x51, 0xe7, 0xdc, 0xd4,
  0x45, 0xd0, 0xcf, 0xd2, 0xb9, 0x53, 0x30, 0xc5, 0x44, 0x24, 0xe6, 0xea,
  0xc4, 0xca, 0xe0, 0x2d, 0xed, 0x01, 0x4d, 0x42, 0x3f, 0xdf, 0xe0, 0x0e,
  0xff, 0x14, 0xf6, 0xda, 0xc2, 0x3c, 0xdf, 0x31, 0x14, 0x2b, 0x12, 0x64,
  0xdb, 0x30, 0x34, 0x5d, 0xdb, 0x30, 0x08, 0xec, 0xde, 0xd1, 0xab, 0xf1,
  0x0d, 0xef, 0xfe, 0x2f, 0x2f, 0xcc, 0xbc, 0x0c, 0xe2, 0xcb, 0x1c, 0x5c,
  0xd4, 0xc0, 0x3b, 0x03, 0xed, 0x23, 0xa1, 0x42, 0x2a, 0x54, 0xac, 0xfe,
  0x00, 0xe7, 0xf8, 0x1c, 0x0f, 0x4e, 0x01, 0x3c, 0x2c, 0xb0, 0xf4, 0xf5,
  0x18, 0x1b, 0x4c, 0xd0, 0xc6, 0x56, 0x09, 0xb0, 0xef, 0xbd, 0xfb, 0x48,
  0x9d, 0x1a, 0xc6, 0x5f, 0xaf, 0x17, 0xee, 0x0d, 0x37, 0xdc, 0xc2, 0x5c,
  0x02, 0x04, 0x98, 0xce, 0x3d, 0xe8, 0xc5, 0x57, 0xb8, 0xff, 0x1d, 0x34,
  0xd5, 0xdf, 0x2a, 0xc9, 0xc3, 0x62, 0xd9, 0x01, 0xf5, 0x66, 0xe6, 0xd0,
  0xe2, 0x2c, 0x00, 0x05, 0xe2, 0xfc, 0xff, 0x3f, 0x23, 0x22, 0xe0, 0x5c,
  0x0d, 0x65, 0xed, 0x5e, 0xe0, 0x5f, 0xfd, 0x2d, 0x14, 0x50, 0xeb, 0xd4,
  0x15, 0x07, 0x61, 0x50, 0x04, 0x28, 0xed, 0x40, 0x16, 0xe5, 0x1a, 0xc0,
  0xfb, 0x28, 0x20, 0x0c, 0xbf, 0x20, 0x22, 0xae, 0x04, 0xd1, 0x49, 0xe9,
  0x40, 0xae, 0x56, 0x17, 0xe0, 0x16, 0x63, 0xb5, 0x2d, 0xad, 0xe6, 0x4e,
  0x29, 0x49, 0xdc, 0xaf, 0x4b, 0xc5, 0xca, 0xef, 0xf2, 0x40, 0x65, 0xdd,
  0x37, 0x40, 0x3d, 0xbe, 0xec, 0xf3, 0xed, 0x06, 0xfc, 0x30, 0xf0, 0xe0,
  0xcb, 0xc2, 0x07, 0x30, 0xe1, 0xce, 0xea, 0x5d, 0x13, 0x38, 0x1b, 0x02,
  0x4a, 0x05, 0xed, 0x07, 0xe3, 0xd1, 0x24, 0xff, 0xb6, 0x49, 0x55, 0x20,
  0xc8, 0xd1, 0x02, 0x44, 0x3c, 0x65, 0xed, 0x11, 0xd9, 0x17, 0xaf, 0x3b,
  0x4b, 0xe2, 0x06, 0x49, 0x1e, 0x37, 0xbd, 0x67, 0x25, 0x5e, 0xd0, 0xc6,
  0x50, 0xe9, 0x0f, 0xff, 0xdb, 0x18, 0xd5, 0xf0, 0xc5, 0x4c, 0xef, 0x4c,
  0xcd, 0x52, 0x00, 0x5b, 0xef, 0xef, 0xc6, 0x2b, 0xd5, 0xd1, 0xaf, 0xd0,
  0xea, 0x50, 0x2d, 0x03, 0x28, 0x32, 0xed, 0x3d, 0xc7, 0xef, 0x19, 0x33,
  0x58, 0xe0, 0x56, 0xb9, 0xf2, 0x25, 0xeb, 0x31, 0x25, 0xc6, 0xb9, 0xb4,
  0x1e, 0xca, 0x00, 0xfd, 0xf8, 0xe7, 0xb2, 0x03, 0xea, 0x11, 0xc8, 0x31,
  0xca, 0xf0, 0xe0, 0xb5, 0xbd, 0x27, 0xe5, 0x15, 0x23, 0x5c, 0x16, 0x25,
  0x04, 0xcb, 0x32, 0xca, 0xbc, 0x11, 0xf1, 0xcf, 0xf8, 0xc4, 0x0b, 0x3b,
  0x55, 0x32, 0xb4, 0x00, 0x57, 0xfd, 0x15, 0xeb, 0xd2, 0x46, 0xe8, 0xf4,
  0x58, 0xc8, 0x4f, 0x4f, 0xfc, 0xd7, 0xdc, 0x17, 0x2d, 0x54, 0xe2, 0x4f,
  0x5b, 0x1e, 0x5b, 0xf1, 0xb5, 0x49, 0x18, 0xcd, 0x50, 0x3f, 0x2d, 0xc4,
  0x04, 0xfe, 0x35, 0xe7, 0xce, 0xd7, 0xdc, 0xc9, 0x15, 0xb6, 0xc2, 0x35,
  0xd5, 0x45, 0x3d, 0xaa, 0x52, 0xf3, 0x49, 0x29, 0x39, 0xb3, 0x1d, 0xf2,
  0x09, 0xb2, 0xf9, 0x32, 0x4b, 0xe7, 0x40, 0x39, 0x10, 0x11, 0x12, 0xa8,
  0x2c, 0xe7, 0x17, 0x16, 0xf8, 0xcb, 0x35, 0x13, 0x0b, 0xb1, 0xaa, 0xcc,
  0x23, 0xfa, 0x04, 0xe9, 0x35, 0x04, 0x1d, 0xfc, 0x42, 0x32, 0xbb, 0x41,
  0xfb, 0xef, 0xaa, 0x15, 0xf7, 0x2a, 0x17, 0x1c, 0x3f, 0x03, 0xe9, 0xf2,
  0x40, 0x01, 0xd9, 0x22, 0xfe, 0x06, 0x4d, 0xb8, 0x4b, 0x06, 0x0c, 0xcf,
  0xaa, 0xb9, 0xf9, 0x27, 0x4a, 0xf0, 0xc8, 0x11, 0x33, 0x3c, 0xde, 0xea,
  0xf0, 0x24, 0xb8, 0xcb, 0xd3, 0x51, 0xc3, 0xb6, 0xcc, 0x2b, 0x2f, 0xd2,
  0x45, 0xc7, 0xfe, 0xea, 0x45, 0xfb, 0x17, 0x44, 0xc2, 0x02, 0x42, 0xc7,
  0x34, 0x36, 0xc3, 0x19, 0xa3, 0xb9, 0x9c, 0xef, 0xf8, 0xc0, 0x32, 0xf7,
  0x2d, 0x1f, 0xb0, 0xc2, 0x0a, 0x2c, 0xc1, 0xde, 0xf4, 0x9b, 0xb5, 0x41,
  0xc3, 0x3c, 0xb7, 0xe2, 0x0d, 0x40, 0xd7, 0xe8, 0x03, 0xdd, 0xff, 0x34,
  0x06, 0x2b, 0x08, 0x4b, 0x0a, 0xe5, 0xf6, 0xc2, 0xd6, 0x26, 0x08, 0xdf,
  0x62, 0xaf, 0x0d, 0x1b, 0xd5, 0x4f, 0x0b, 0xdb, 0xce, 0xb7, 0xf2, 0x57,
  0x3a, 0x05, 0x02, 0xc0, 0x32, 0xf5, 0x08, 0x4f, 0x52, 0x35, 0x68, 0xd7,
  0xdd, 0xe1, 0x47, 0x46, 0xd2, 0xe6, 0xf7, 0xe1, 0x6c, 0x67, 0x3f, 0x33,
  0xd1, 0x14, 0x09, 0x56, 0x11, 0xc2, 0x60, 0xb8, 0x67, 0xcc, 0xfa, 0xad,
  0x3e, 0x0e, 0x67, 0x2b, 0xc2, 0x3b, 0xc5, 0xd5, 0xc6, 0xd7, 0xd5, 0xd9,
  0xb4, 0x3d, 0xdb, 0xc7, 0x1c, 0xdc, 0x53, 0x0a, 0x4b, 0x40, 0xfd, 0xbe,
  0x42, 0xe1, 0x09, 0xcb, 0x36, 0xff, 0x2b, 0x2c, 0xdb, 0xb1, 0x37, 0x31,
  0x07, 0xc9, 0xc3, 0xab, 0xfb, 0xba, 0x1f, 0xe9, 0x38, 0xed, 0x03, 0xf8,
  0xea, 0x29, 0xfa, 0x3e, 0xe8, 0xb6, 0x4a, 0xbe, 0x4b, 0x54, 0x47, 0xe1,
  0x00, 0x56, 0xf8, 0x48, 0xba, 0x0d, 0xf5, 0xcf, 0x40, 0xbf, 0x0c, 0xcc,
  0x34, 0x10, 0x11, 0xc7, 0x2d, 0x12, 0xea, 0xbf, 0xeb, 0x3c, 0xe9, 0x2b,
  0x06, 0x61, 0xf3, 0x1b, 0x31, 0x5b, 0xfd, 0xc5, 0x23, 0x38, 0xa2, 0xe8,
  0x04, 0x37, 0xb8, 0xc7, 0x9f, 0x0e, 0xbe, 0x3e, 0xb0, 0xb9, 0xa8, 0xe3,
  0x9c, 0x33, 0x9c, 0xea, 0xa6, 0xf5, 0xd2, 0x1d, 0xb3, 0x1d, 0xe5, 0x32,
  0xf8, 0x22, 0x01, 0x49, 0x2f, 0xc0, 0xdf, 0xc5, 0xf7, 0xe7, 0x03, 0xc2,
  0x1c, 0x52, 0xfd, 0x49, 0x12, 0x07, 0x36, 0xf2, 0x30, 0x44, 0x36, 0xc9,
  0xe1, 0xee, 0xc3, 0xbf, 0x38, 0x0e, 0x2a, 0x21, 0xd6, 0xac, 0x35, 0x07,
  0xd5, 0xea, 0x32, 0xd5, 0x9b, 0xf9, 0x1f, 0x40, 0x09, 0xc0, 0x2b, 0xd8,
  0xfb, 0x3d, 0xc4, 0xa7, 0x05, 0xad, 0x4d, 0x2b, 0x1a, 0xdb, 0xcb, 0xf4,
  0x4b, 0x04, 0x34, 0x0c, 0x46, 0x19, 0xfe, 0xd7, 0xeb, 0xf6, 0x0a, 0xc2,
  0xe5, 0x1e, 0x32, 0xc8, 0x1d, 0x0d, 0xe2, 0x08, 0x5e, 0xee, 0x4a, 0x0e,
  0xb5, 0xda, 0x36, 0xb3, 0x15, 0x95, 0xe0, 0xc9, 0xcf, 0xae, 0x09, 0xe4,
  0x18, 0xee, 0x56, 0xd6, 0x1d, 0x04, 0x43, 0x3d, 0xdd, 0xaf, 0x0a, 0x14,
  0xc1, 0xdd, 0x63, 0x42, 0x1a, 0xa2, 0x59, 0x40, 0xf6, 0x0d, 0x4d, 0xb5,
  0x46, 0x39, 0xb5, 0x07, 0x23, 0xd9, 0xfd, 0x21, 0x44, 0xb1, 0xfe, 0x25,
  0xe4, 0xbc, 0xa8, 0x23, 0xa9, 0xb3, 0xd6, 0xd7, 0xc7, 0x4a, 0xaa, 0x0b,
  0xcd, 0x24, 0xbc, 0x3b, 0xca, 0xc6, 0xd4, 0x3a, 0x21, 0xfb, 0xfb, 0xeb,
  0x0d, 0x14, 0xae, 0x08, 0xbe, 0x37, 0xbb, 0x05, 0xdc, 0xd8, 0xdf, 0xcb,
  0xa9, 0x10, 0xfb, 0xe1, 0x00, 0x4a, 0x0a, 0xf0, 0xf3, 0xe2, 0xae, 0xf4,
  0x3f, 0x40, 0x0b, 0x4e, 0xb8, 0x60, 0xbd, 0x1a, 0xd1, 0xf7, 0x4f, 0x25,
  0xc6, 0xc5, 0xb0, 0xcd, 0xdd, 0xc5, 0x4a, 0x15, 0x4f, 0x40, 0x02, 0x50,
  0xea, 0x24, 0x4a, 0x4d, 0x19, 0x36, 0x43, 0x26, 0x50, 0x05, 0xe0, 0xf0,
  0x44, 0xfa, 0x0c, 0x14, 0x24, 0x51, 0x5c, 0xf3, 0x28, 0x2e, 0xda, 0xc7,
  0x50, 0xf1, 0xf6, 0x12, 0x20, 0x17, 0xd5, 0x0f, 0xd4, 0xbd, 0x31, 0x55,
  0x45, 0xda, 0x2f, 0xf7, 0xfc, 0xc3, 0x0a, 0x05, 0x69, 0x13, 0x25, 0xc7,
  0x45, 0x2f, 0x0a, 0x61, 0x0d, 0x33, 0x10, 0xc7, 0x00, 0x32, 0xed, 0x08,
  0xbd, 0x6a, 0xcd, 0x2e, 0xf8, 0x1c, 0x17, 0xea, 0x1f, 0x3d, 0xe6, 0x65,
  0x09, 0x07, 0x3b, 0x50, 0xd3, 0x4e, 0xd1, 0x3d, 0x36, 0x01, 0xfe, 0x65,
  0x28, 0xcb, 0xc8, 0xff, 0x8d, 0x25, 0xad, 0xbf, 0xcc, 0x16, 0x15, 0x49,
  0xef, 0xda, 0x8c, 0x25, 0xef, 0xf8, 0x1f, 0x03, 0xf7, 0xbd, 0x92, 0x48,
  0x04, 0x06, 0x17, 0x4b, 0x31, 0xd9, 0x9a, 0xf6, 0xac, 0x1a, 0x44, 0xa2,
  0xe7, 0xde, 0xc1, 0xb6, 0xf5, 0xa0, 0xdf, 0xe8, 0xdf, 0xd9, 0x27, 0xf3,
  0xc3, 0x9e, 0xd7, 0x11, 0xcf, 0xbc, 0xe0, 0xe7, 0xf7, 0xab, 0xca, 0xc1,
  0xbe, 0xd8, 0x5b, 0xf7, 0x30, 0x29, 0x29, 0x14, 0xc8, 0xfd, 0x1e, 0x1e,
  0xb2, 0x33, 0xb7, 0x9c, 0xd2, 0xd7, 0x21, 0x37, 0x24, 0xc6, 0xd8, 0x0e,
  0x60, 0x38, 0x24, 0xe7, 0x3d, 0xdd, 0x0d, 0xc5, 0xde, 0x5b, 0x1f, 0x09,
  0xf8, 0x3f, 0x5b, 0x02, 0xc9, 0xdd, 0xdb, 0x5a, 0x10, 0x14, 0x1c, 0xc1,
  0x1a, 0x3e, 0x2b, 0x03, 0x06, 0x27, 0x1a, 0x52, 0x57, 0xe3, 0xdb, 0xf7,
  0xc6, 0x42, 0xf0, 0xe0, 0xde, 0xc0, 0xdc, 0xd1, 0xea, 0x68, 0x24, 0x44,
  0xe4, 0x34, 0xf7, 0xca, 0xfb, 0xc6, 0xff, 0xc7, 0xde, 0xbc, 0x09, 0xbc,
  0x4a, 0x3f, 0x18, 0xd4, 0xad, 0x2d, 0x2b, 0x06, 0x11, 0xdc, 0x2c, 0x4f,
  0x32, 0x12, 0xb1, 0xbb, 0x53, 0x46, 0x38, 0xd7, 0xbb, 0xf4, 0x2a, 0xce,
  0x00, 0x30, 0xbc, 0x0a, 0x0f, 0x4a, 0x5b, 0x39, 0xf7, 0xfb, 0x3a, 0x31,
  0x3f, 0x52, 0x4b, 0x54, 0xd9, 0x1e, 0x64, 0x4f, 0x10, 0x03, 0x08, 0xb2,
  0x48, 0x51, 0x4e, 0x4d, 0x6d, 0x0d, 0xd3, 0xe8, 0xd0, 0xf9, 0x4c, 0xc8,
  0x5a, 0x34, 0x5c, 0x13, 0xdb, 0x0f, 0xdb, 0x32, 0x53, 0xee, 0x11, 0x06,
  0xdb, 0x1d, 0xeb, 0xfd, 0xf7, 0x34, 0x40, 0x0f, 0x07, 0xb6, 0x39, 0xcd,
  0x27, 0xd2, 0x0c, 0xc6, 0x36, 0x9d, 0x3d, 0x24, 0x26, 0xb5, 0xc9, 0xed,
  0xdc, 0x94, 0x30, 0xb1, 0xb7, 0xb8, 0xe2, 0x0b, 0x0e, 0x9f, 0xbc, 0xc9,
  0xc0, 0x24, 0xf8, 0xc8, 0x07, 0xab, 0xe7, 0xd1, 0xb0, 0x54, 0x34, 0x55,
  0xa7, 0xb7, 0x39, 0x29, 0x32, 0x47, 0xfe, 0x13, 0x4b, 0xde, 0x03, 0x1c,
  0xf6, 0x58, 0xb3, 0x03, 0x0c, 0xe1, 0xd7, 0xd3, 0x1a, 0x45, 0x0e, 0xf6,
  0xaf, 0xdb, 0xa8, 0xce, 0xa8, 0xcd, 0x0d, 0x22, 0x18, 0x63, 0xf8, 0x22,
  0xda, 0xdb, 0xec, 0xe9, 0xb9, 0x2b, 0xe7, 0xdf, 0xd8, 0x4a, 0x2f, 0xd0,
  0xf2, 0xc6, 0x14, 0xb4, 0xbb, 0x5d, 0x9f, 0xe5, 0xaa, 0xc2, 0x11, 0xaf,
  0x22, 0xc8, 0xca, 0x07, 0xc4, 0xc5, 0x2f, 0xbe, 0x25, 0x10, 0x09, 0xf6,
  0xd7, 0xf4, 0x40, 0xcd, 0x3f, 0xb3, 0x0e, 0xff, 0x0d, 0x09, 0xc6, 0xc3,
  0xf1, 0x2d, 0x3d, 0x40, 0x3c, 0x05, 0xd6, 0xbe, 0xce, 0x10, 0xc0, 0x1f,
  0x0e, 0xcd, 0x3f, 0x0b, 0x40, 0x27, 0xd3, 0x37, 0x61, 0x44, 0xfa, 0xaa,
  0xee, 0x02, 0x2b, 0xc2, 0x24, 0x29, 0x59, 0xb9, 0xe7, 0xef, 0x3f, 0x50,
  0xf3, 0xae, 0xfd, 0x0e, 0x34, 0x1b, 0xbe, 0xc9, 0x6f, 0xfe, 0xd6, 0x59,
  0xcd, 0xca, 0x4c, 0x65, 0x56, 0x22, 0xec, 0x69, 0x36, 0xf6, 0x31, 0x53,
  0x05, 0x23, 0x13, 0xdf, 0x55, 0xf3, 0xd9, 0xcb, 0xc7, 0x35, 0x32, 0x02,
  0x25, 0x3f, 0x6b, 0xf5, 0xc9, 0x46, 0x28, 0xfb, 0xbd, 0xb6, 0x63, 0xf4,
  0x02, 0xd4, 0xe2, 0x1b, 0xd3, 0xfb, 0x46, 0xd5, 0x48, 0x34, 0x31, 0x05,
  0xe8, 0xf2, 0xb3, 0xdc, 0xf3, 0x4e, 0x44, 0x49, 0x3d, 0x52, 0xbe, 0x06,
  0x2c, 0xc2, 0x4e, 0x50, 0xfb, 0x29, 0x3c, 0xb7, 0xd9, 0xb4, 0xc1, 0xda,
  0x41, 0x14, 0x15, 0xbb, 0xa8, 0xf9, 0xd9, 0xad, 0xc7, 0xdf, 0x0a, 0x46,
  0xce, 0x24, 0x00, 0xcc, 0xb0, 0xd8, 0xb9, 0x3e, 0xea, 0x15, 0x11, 0x20,
  0xb3, 0x4a, 0x46, 0xae, 0x9e, 0x3c, 0xd5, 0xa5, 0x07, 0xa4, 0x33, 0xf2,
  0xc4, 0xac, 0x0b, 0x01, 0xf2, 0xe6, 0x20, 0x13, 0x37, 0xab, 0x4c, 0x3c,
  0xc7, 0x1a, 0xa7, 0xef, 0xd7, 0xf5, 0x2f, 0x25, 0xb0, 0x2d, 0xd9, 0xf6,
  0xc4, 0xf5, 0xe5, 0x14, 0xa1, 0x54, 0x36, 0x40, 0x20, 0xd0, 0xcd, 0xbf,
  0x28, 0xc2, 0xab, 0xfd, 0xf3, 0xdb, 0xac, 0xe1, 0xcd, 0x53, 0xdc, 0x06,
  0x2b, 0xd9, 0x18, 0x66, 0xb8, 0xed, 0x40, 0x3d, 0x4b, 0x65, 0x1f, 0xe7,
  0x21, 0x03, 0xd6, 0xe3, 0x08, 0x4c, 0x27, 0xdc, 0x45, 0x61, 0x42, 0xe9,
  0xdc, 0x5d, 0xcd, 0xce, 0x1d, 0x10, 0xdd, 0x0a, 0x47, 0x1e, 0x0a, 0xc7,
  0x05, 0xd8, 0x39, 0x24, 0x62, 0x2c, 0xce, 0x17, 0xf5, 0x0d, 0x31, 0x1e,
  0x10, 0xf6, 0xef, 0xf9, 0x21, 0xd4, 0x63, 0xbf, 0x1d, 0x35, 0xcf, 0x38,
  0x29, 0x38, 0x1f, 0xe3, 0x12, 0xbe, 0x45, 0xe8, 0x2a, 0x5e, 0xe3, 0x05,
  0xde, 0x2c, 0x5e, 0x05, 0x39, 0x56, 0x63, 0x32, 0x12, 0xea, 0x2b, 0x62,
  0x41, 0x3e, 0x04, 0x2c, 0x30, 0x37, 0x52, 0x35, 0x38, 0x17, 0x5f, 0x15,
  0xd4, 0x5d, 0x1c, 0xee, 0xc4, 0x21, 0xf7, 0x0c, 0xf0, 0x00, 0x63, 0x26,
  0x0e, 0x22, 0x43, 0xed, 0x5b, 0x60, 0xc5, 0x1d, 0xc0, 0x0a, 0xe4, 0x20,
  0xc1, 0x59, 0xfb, 0xca, 0x02, 0x1c, 0x65, 0x4e, 0xcc, 0x07, 0x52, 0x0c,
  0x3a, 0x68, 0x46, 0x42, 0xbc, 0xd0, 0x25, 0xf2, 0xee, 0x36, 0xa5, 0x62,
  0xd5, 0x1f, 0x1c, 0x43, 0x32, 0xb3, 0x3a, 0xc1, 0xb0, 0xbd, 0xc0, 0x14,
  0xb8, 0xc7, 0x34, 0xbc, 0xd8, 0x0f, 0xb6, 0x17, 0xe6, 0xfa, 0x2d, 0xa6,
  0x1c, 0xb2, 0xd7, 0xbd, 0xff, 0x07, 0xa7, 0x1d, 0x0f, 0xaa, 0x11, 0x34,
  0xe8, 0xcf, 0x96, 0x3b, 0xca, 0x3c, 0xb7, 0xf2, 0xac, 0x41, 0xea, 0xea,
  0x3c, 0xc3, 0xa0, 0xff, 0xd4, 0xea, 0xbb, 0x58, 0x9b, 0x49, 0xbf, 0xd4,
  0xde, 0xd0, 0xda, 0x3b, 0x05, 0xf2, 0xb2, 0x54, 0x33, 0x44, 0x1f, 0xe3,
  0xca, 0xe9, 0x1b, 0xc7, 0xcb, 0x6d, 0xf8, 0x25, 0x42, 0x44, 0xce, 0xec,
  0xae, 0xd0, 0xdc, 0x35, 0xbf, 0xd9, 0xe3, 0x36, 0x20, 0xcb, 0xe9, 0xdb,
  0xde, 0x1d, 0x3e, 0x0f, 0x07, 0x1f, 0xfa, 0x0e, 0xee, 0x37, 0xca, 0xcb,
  0x20, 0x48, 0x2b, 0xea, 0x04, 0xc7, 0xc2, 0x3a, 0x59, 0x04, 0xb6, 0xd8,
  0x23, 0x0c, 0x33, 0x0c, 0xf2, 0x4b, 0x5a, 0x0b, 0xe5, 0x1c, 0x5f, 0xd2,
  0x23, 0xd3, 0xe0, 0x4e, 0xf5, 0x07, 0x08, 0x13, 0xfd, 0x03, 0xf7, 0x12,
  0x09, 0xa3, 0x39, 0xa7, 0xdb, 0x45, 0x6c, 0xd6, 0x43, 0x37, 0x6c, 0x06,
  0xe8, 0xee, 0xf2, 0x35, 0x4c, 0x04, 0x6b, 0x0f, 0xce, 0xdc, 0x01, 0x0f,
  0x34, 0x2a, 0x2f, 0xba, 0x16, 0x67, 0xd3, 0x18, 0x01, 0xe2, 0x60, 0xe3,
  0x2c, 0x03, 0xdd, 0x17, 0x39, 0xd9, 0xe7, 0x5a, 0xd0, 0x29, 0x66, 0x0c,
  0x4c, 0x60, 0x21, 0x2a, 0x51, 0x69, 0x09, 0x09, 0x57, 0x2e, 0xd3, 0x26,
  0x3e, 0x0d, 0xf7, 0x1f, 0x36, 0x25, 0xe5, 0x2c, 0x2f, 0x6b, 0xec, 0xe8,
  0xc4, 0xf6, 0xdf, 0xcb, 0x02, 0x4c, 0x26, 0xde, 0x1f, 0x4e, 0x1a, 0xd6,
  0xa5, 0xcc, 0x08, 0xcd, 0x03, 0x04, 0xcb, 0x13, 0xed, 0xf0, 0xf9, 0x01,
  0x10, 0xc6, 0xe9, 0xe8, 0x22, 0x31, 0xbf, 0x0d, 0x19, 0xd7, 0x45, 0xc8,
  0x01, 0x41, 0xa3, 0xb2, 0x08, 0xf0, 0xd7, 0x28, 0xab, 0xe4, 0x28, 0x45,
  0x36, 0x13, 0x44, 0x55, 0xfb, 0xd0, 0xef, 0xd7, 0xa5, 0x40, 0xa9, 0x3a,
  0xbf, 0x57, 0xd1, 0xa9, 0x51, 0xfb, 0x0d, 0x44, 0x37, 0x46, 0x3a, 0xbf,
  0x1c, 0x31, 0xd1, 0x42, 0xa7, 0x11, 0x01, 0xe2, 0x05, 0x25, 0xd8, 0x46,
  0x38, 0x36, 0x09, 0xc5, 0x38, 0x24, 0x1e, 0xc4, 0x31, 0xd6, 0xc3, 0xc4,
  0xcc, 0x16, 0xc8, 0xf8, 0xba, 0xfd, 0x0e, 0x1a, 0x20, 0xf5, 0x2f, 0xfb,
  0x2f, 0xbd, 0xef, 0x10, 0xa9, 0xf4, 0xc5, 0x11, 0xb9, 0xd0, 0x14, 0x0d,
  0xa9, 0x4c, 0xb0, 0xec, 0x49, 0xfa, 0x24, 0x1e, 0xd3, 0xfd, 0x46, 0x25,
  0x09, 0xa6, 0x04, 0x18, 0x0c, 0x44, 0x27, 0x05, 0x27, 0x98, 0xa6, 0xd9,
  0xf7, 0x3b, 0x2e, 0x43, 0x47, 0x06, 0xca, 0xa3, 0x0e, 0xe0, 0xe0, 0xee,
  0xa8, 0xf9, 0xcd, 0xb9, 0x38, 0xab, 0x0d, 0x07, 0xfa, 0xba, 0x01, 0xfc,
  0xde, 0xa4, 0xc9, 0x38, 0xa4, 0x4d, 0xe3, 0xee, 0xdd, 0xbd, 0x2c, 0x3c,
  0x1b, 0xd4, 0x2b, 0x1a, 0xea, 0x26, 0xcd, 0x3e, 0x5d, 0x3f, 0xb5, 0xaf,
  0x40, 0x46, 0x43, 0x2b, 0x4b, 0x50, 0xd4, 0x28, 0x6c, 0xfc, 0xda, 0xef,
  0x44, 0x10, 0xdf, 0xa3, 0x1f, 0xe5, 0xed, 0xee, 0x34, 0xc7, 0xf0, 0x05,
  0xd6, 0xa7, 0x24, 0xb3, 0x06, 0xad, 0x24, 0x51, 0x54, 0xc2, 0x27, 0xc1,
  0xe6, 0xdf, 0x26, 0x33, 0xef, 0x11, 0xed, 0x3c, 0x1f, 0x06, 0x23, 0xd7,
  0x72, 0xdc, 0xc6, 0x48, 0x41, 0xd9, 0x51, 0x49, 0x09, 0xe0, 0xd0, 0xde,
  0x47, 0x17, 0x64, 0x17, 0xdb, 0xbe, 0xe1, 0x3c, 0xd1, 0xb1, 0xbf, 0x26,
  0xc0, 0xd0, 0xe3, 0x35, 0x02, 0xc3, 0xed, 0x0f, 0x30, 0x24, 0xe4, 0x43,
  0x18, 0x55, 0xde, 0x30, 0x48, 0x54, 0x3f, 0xc3, 0x2b, 0xcf, 0x50, 0xcb,
  0xb8, 0x5c, 0x59, 0x21, 0xc6, 0x56, 0xf5, 0xcc, 0x25, 0x19, 0x3c, 0x4d,
  0x5f, 0xe5, 0xb6, 0xaf, 0xf9, 0xd5, 0x5d, 0xbb, 0xff, 0x27, 0x60, 0x17,
  0x2d, 0xf5, 0xc7, 0xef, 0xeb, 0xd9, 0xfe, 0xc0, 0x5e, 0x35, 0x1d, 0x28,
  0x3a, 0x10, 0xd6, 0x4e, 0xbb, 0x59, 0xe8, 0xee, 0x17, 0xec, 0xfa, 0x56,
  0xe6, 0xb2, 0x49, 0x49, 0xde, 0xf3, 0x3c, 0xd7, 0x15, 0xf0, 0xd2, 0x5a,
  0x28, 0xb8, 0xe9, 0xdc, 0x4d, 0x35, 0xc8, 0x5f, 0xd5, 0xdc, 0x3d, 0x04,
  0xe1, 0xca, 0x35, 0x2c, 0xe7, 0x05, 0xfb, 0x43, 0x2c, 0x9d, 0x2f, 0xf6,
  0xdb, 0xe1, 0xd3, 0xfe, 0xf9, 0x41, 0x03, 0xe1, 0x38, 0xe8, 0xf3, 0xe1,
  0x28, 0xda, 0x4b, 0x08, 0x04, 0xe2, 0x20, 0x59, 0x55, 0xf7, 0x4b, 0xc9,
  0xb0, 0xea, 0x56, 0x5d, 0x4e, 0xf0, 0xbe, 0x2c, 0x4b, 0x5f, 0x4c, 0x42,
  0x42, 0x07, 0x05, 0x6c, 0xc6, 0x41, 0x3e, 0x6f, 0x1b, 0x38, 0x29, 0x33,
  0xba, 0x47, 0xe3, 0x1b, 0xc2, 0xdb, 0x53, 0x0d, 0x09, 0x48, 0x37, 0x16,
  0x05, 0x0a, 0x3b, 0xff, 0xed, 0x37, 0xea, 0x37, 0x32, 0xe6, 0xe3, 0x22,
  0xbd, 0x17, 0x15, 0x46, 0x47, 0xe9, 0x3a, 0xd9, 0x2d, 0x2d, 0xbf, 0x3b,
  0xcf, 0x44, 0xfb, 0xbd, 0x3b, 0x15, 0xac, 0x30, 0x1a, 0xf6, 0x1e, 0xcd,
  0xac, 0x02, 0xcd, 0xc0, 0xf2, 0x54, 0x0f, 0x03, 0xc8, 0xc3, 0xfd, 0xcc,
  0xc5, 0xa7, 0xf4, 0xa4, 0xcb, 0xb2, 0xbc, 0xa2, 0x10, 0xde, 0x36, 0xd8,
  0xe0, 0xe9, 0x3c, 0x13, 0x58, 0xad, 0xd7, 0x14, 0x3e, 0xe5, 0x32, 0x0f,
  0x41, 0xff, 0x0a, 0xc1, 0xe6, 0x2f, 0x55, 0xe7, 0xfe, 0x14, 0xe2, 0x58,
  0x30, 0x10, 0x48, 0x0f, 0xc5, 0x08, 0x0d, 0xc8, 0x59, 0x59, 0xef, 0xf4,
  0xdf, 0x48, 0x12, 0x1b, 0xf5, 0xbf, 0x4a, 0x49, 0x0d, 0xb6, 0xf8, 0xc4,
  0xd5, 0xd3, 0x21, 0xc5, 0xe7, 0xf0, 0xec, 0x0e, 0xd2, 0x3e, 0xb2, 0xc0,
  0xd6, 0x15, 0xb5, 0x13, 0x31, 0x3b, 0xf5, 0xf8, 0xeb, 0x44, 0xc9, 0xc5,
  0x0c, 0x4f, 0xcf, 0xdf, 0xb9, 0x1d, 0xba, 0x3a, 0x05, 0x16, 0x31, 0x56,
  0xf4, 0x4e, 0xd0, 0x56, 0xb9, 0xe7, 0xdb, 0x2c, 0xac, 0x30, 0xb1, 0xb9,
  0xbd, 0x3b, 0xb1, 0xcf, 0xe4, 0xcb, 0xda, 0x3a, 0xe2, 0xaf, 0xca, 0xb0,
  0x49, 0x43, 0x55, 0x3d, 0x54, 0xf5, 0xde, 0x1d, 0x40, 0xee, 0x1b, 0xf1,
  0xab, 0x4f, 0xe7, 0xca, 0x27, 0xc2, 0x06, 0x37, 0x19, 0x54, 0x27, 0x5b,
  0xad, 0x08, 0x17, 0x4c, 0x12, 0xec, 0x4c, 0x55, 0x2a, 0xb2, 0x59, 0x47,
  0x0f, 0xc3, 0x46, 0x44, 0x28, 0x11, 0xb7, 0xb4, 0x5c, 0x1d, 0x17, 0x3d,
  0x4c, 0x65, 0xf5, 0x06, 0xfb, 0xd7, 0xf9, 0xe4, 0x37, 0x4d, 0x46, 0x54,
  0x25, 0xc9, 0xcc, 0x33, 0xbb, 0x3d, 0xdc, 0xff, 0xc7, 0x38, 0xf2, 0x21,
  0xbf, 0x64, 0xee, 0x66, 0xca, 0x36, 0xe5, 0x1c, 0xfc, 0x2c, 0x3d, 0x35,
  0x52, 0x21, 0x2c, 0x2c, 0xdb, 0x64, 0xf5, 0x44, 0x3f, 0x0e, 0x4c, 0xe7,
  0x1e, 0xd5, 0x50, 0xf2, 0x59, 0xf6, 0xb6, 0xf3, 0xd8, 0xbd, 0x2d, 0xe9,
  0x29, 0xee, 0x17, 0x12, 0x4c, 0x25, 0xe0, 0xbf, 0xec, 0xc4, 0xd9, 0xd4,
  0xef, 0xb8, 0xec, 0x1f, 0xc7, 0xe6, 0x02, 0xfc, 0x0d, 0xd3, 0x2a, 0xff,
  0x1d, 0x25, 0xdc, 0x58, 0xf9, 0x48, 0x5c, 0x48, 0xcd, 0xb1, 0x11, 0x16,
  0x56, 0x2c, 0x3f, 0xc6, 0xbd, 0xbb, 0xf4, 0x16, 0xe4, 0x4c, 0xbd, 0x25,
  0x4c, 0x16, 0x24, 0xc3, 0xce, 0x52, 0x4a, 0xd3, 0x4d, 0xe9, 0x06, 0x06,
  0xf5, 0xd9, 0x03, 0x30, 0x42, 0x2b, 0x5c, 0x4c, 0x26, 0xb8, 0xb8, 0xc4,
  0xe4, 0x49, 0x0e, 0xa9, 0xe0, 0xbc, 0xb7, 0xdb, 0x51, 0xc1, 0xc4, 0x0d,
  0x20, 0x08, 0x36, 0xfb, 0xda, 0xbc, 0xc4, 0xfb, 0xef, 0x07, 0x32, 0x00,
  0xdd, 0xb0, 0x3d, 0x9d, 0xc7, 0x01, 0x1f, 0xfb, 0xdb, 0xed, 0x2a, 0xec,
  0x54, 0xd3, 0x2f, 0x2a, 0x0c, 0xa4, 0x4b, 0x21, 0xf4, 0xbc, 0xdf, 0xe0,
  0x10, 0xfd, 0xe8, 0x09, 0xe8, 0x1f, 0xdf, 0xeb, 0xd1, 0xbb, 0x04, 0xff,
  0x56, 0xee, 0xc2, 0xe9, 0x4a, 0x29, 0x0f, 0x52, 0x43, 0xdd, 0x04, 0x55,
  0x2f, 0x5a, 0x38, 0x55, 0x3f, 0x41, 0xda, 0x31, 0x64, 0xcb, 0x10, 0x26,
  0x09, 0x09, 0x57, 0x74, 0x36, 0xf4, 0x21, 0x05, 0x3e, 0x0d, 0x5c, 0x37,
  0x50, 0x72, 0xba, 0x5d, 0xf9, 0xfc, 0xfd, 0x34, 0xdb, 0x3d, 0x37, 0x6c,
  0xb4, 0x70, 0x3c, 0xdb, 0xdf, 0x4f, 0x17, 0xc8, 0xed, 0xd5, 0xc8, 0xf1,
  0x04, 0x1a, 0x22, 0xef, 0xbd, 0x52, 0xb2, 0xc4, 0xeb, 0x39, 0x0d, 0x45,
  0xf7, 0xe3, 0xd0, 0xda, 0x99, 0x2f, 0x27, 0x1d, 0x2a, 0x0a, 0xc2, 0x25,
  0xf3, 0x27, 0xee, 0xbb, 0xa8, 0x1f, 0xff, 0x4a, 0xd8, 0xb0, 0xf6, 0x35,
  0xe4, 0xeb, 0xa6, 0xcc, 0xd3, 0x2c, 0x1c, 0x1a, 0x08, 0x22, 0x1b, 0xcf,
  0xce, 0x14, 0xa7, 0xa8, 0x32, 0xfd, 0xbb, 0x9c, 0xa8, 0xc5, 0xbf, 0x3e,
  0xb6, 0xb6, 0xb8, 0x3e, 0xd6, 0x0b, 0x03, 0xaa, 0xd9, 0xb7, 0xfb, 0x0f,
  0xd0, 0xdd, 0x05, 0x07, 0xf0, 0xf0, 0x01, 0x48, 0xc0, 0xd1, 0x2e, 0xe2,
  0x05, 0xfd, 0x48, 0xb8, 0xde, 0x19, 0x0b, 0xff, 0x4c, 0xf9, 0xfa, 0x50,
  0x4d, 0xdf, 0x0e, 0x49, 0xbe, 0xda, 0x19, 0xec, 0x25, 0xf2, 0x1e, 0xfe,
  0xbd, 0xca, 0x1c, 0xba, 0xfe, 0xbc, 0xcc, 0x10, 0x43, 0xcb, 0x45, 0xf1,
  0x1a, 0x38, 0xeb, 0x38, 0x34, 0xd8, 0xbc, 0x9d, 0xd4, 0x3f, 0xd7, 0x12,
  0xc2, 0xc5, 0xf0, 0x42, 0xf7, 0xe9, 0x59, 0xea, 0x41, 0x1a, 0xe2, 0x28,
  0x1f, 0xc0, 0x64, 0xe0, 0x41, 0x2d, 0x15, 0x3b, 0xeb, 0x13, 0x34, 0x3c,
  0x64, 0xfd, 0x4f, 0xe6, 0xc7, 0xd0, 0x56, 0xf6, 0x60, 0xf8, 0xf7, 0x14,
  0x4c, 0x5b, 0xcf, 0x1a, 0x0e, 0x00, 0x29, 0x0d, 0xac, 0xd5, 0x37, 0x57,
  0x08, 0xd9, 0x4d, 0x3e, 0xe7, 0x04, 0x4a, 0x2e, 0xda, 0xea, 0xf2, 0x6a,
  0x3e, 0x63, 0x48, 0xd2, 0xb5, 0xe6, 0x9d, 0x02, 0xe9, 0x1d, 0xd8, 0x1e,
  0xf0, 0x40, 0x13, 0xc7, 0xf2, 0x06, 0x31, 0x6a, 0x11, 0xcb, 0xd9, 0xc6,
  0xbd, 0x38, 0x2f, 0x63, 0xe2, 0x4d, 0x33, 0xca, 0xf4, 0x6a, 0x28, 0xd2,
  0xa3, 0x07, 0x1f, 0x54, 0x10, 0xef, 0xac, 0xbb, 0x0f, 0x11, 0x2f, 0x3c,
  0xe3, 0xfd, 0xe0, 0x48, 0x28, 0x1e, 0xee, 0x08, 0xa4, 0x59, 0x2d, 0xab,
  0xb2, 0xff, 0x4a, 0xc4, 0xb7, 0xb8, 0xe6, 0x33, 0x26, 0xd1, 0x51, 0xb7,
  0xb4, 0xb8, 0xca, 0x31, 0xf3, 0xdc, 0x52, 0xf4, 0xdf, 0x06, 0xf4, 0xc9,
  0xf8, 0x46, 0x4e, 0xa6, 0xd0, 0xaa, 0x1d, 0xb6, 0x30, 0x29, 0x2d, 0x1f,
  0xd0, 0xcd, 0xef, 0x14, 0x1e, 0xf1, 0x22, 0xf8, 0xff, 0xde, 0xda, 0x37,
  0x09, 0xa0, 0xb0, 0xf7, 0xe2, 0xaf, 0x01, 0xd3, 0x55, 0x42, 0xfc, 0xa8,
  0x41, 0x03, 0xf6, 0x05, 0x47, 0xfa, 0x28, 0xad, 0x2c, 0xc4, 0x32, 0x19,
  0x0c, 0xfa, 0x4d, 0xf2, 0x28, 0xfc, 0x23, 0x31, 0xb1, 0x35, 0x13, 0x46,
  0xc2, 0xf4, 0xaf, 0x1e, 0x20, 0x36, 0x4b, 0xde, 0x55, 0x38, 0x2c, 0x1f,
  0xb2, 0x1a, 0x43, 0xa8, 0x58, 0xca, 0x49, 0xf1, 0xde, 0x13, 0xdb, 0x16,
  0xb7, 0xe8, 0xda, 0xe6, 0xfc, 0x37, 0x42, 0xee, 0x45, 0x35, 0xd3, 0x17,
  0xde, 0xf1, 0xc3, 0xe8, 0xc3, 0xf1, 0xe1, 0x0f, 0xf4, 0xb7, 0x43, 0x29,
  0xdb, 0x4f, 0x0e, 0xb9, 0x6d, 0x24, 0xf6, 0xb9, 0x4e, 0x34, 0x2a, 0xa1,
  0x57, 0xb2, 0x51, 0xd8, 0x66, 0xa6, 0xed, 0xe1, 0x37, 0x20, 0x2b, 0xd4,
  0x1a, 0xf7, 0xea, 0xb2, 0x21, 0xeb, 0x02, 0xb0, 0xc1, 0x37, 0xe1, 0x23,
  0x47, 0x3b, 0x5d, 0x09, 0x50, 0xd3, 0x54, 0xf1, 0x00, 0x1d, 0x20, 0xd3,
  0xca, 0xd1, 0x0c, 0x5d, 0xdd, 0xcb, 0x2b, 0x1b, 0xf1, 0xe2, 0xde, 0xf0,
  0x0e, 0x37, 0xbb, 0x20, 0x0f, 0xce, 0x55, 0x3c, 0x60, 0xd9, 0x20, 0x37,
  0x16, 0xcc, 0x5f, 0x3e, 0x27, 0xf1, 0x30, 0x0a, 0x3e, 0x18, 0x0b, 0xbe,
  0xe8, 0xf9, 0xca, 0x2c, 0xf6, 0xe5, 0x3f, 0xbf, 0x4a, 0x30, 0x38, 0x12,
  0xce, 0xc0, 0xb7, 0x45, 0x1c, 0xc6, 0x18, 0x45, 0x26, 0x1a, 0x0a, 0xb3,
  0x59, 0xee, 0xff, 0xfb, 0x39, 0x4b, 0x4e, 0xc4, 0x5f, 0xc7, 0x08, 0x1a,
  0xc2, 0xab, 0xf4, 0xc4, 0x33, 0xfb, 0x31, 0x56, 0x0d, 0xf9, 0x3a, 0x12,
  0x26, 0xd1, 0xdf, 0xa6, 0x2a, 0x2a, 0xdd, 0xd9, 0xeb, 0xc6, 0xda, 0x2d,
  0x04, 0xe0, 0xb7, 0x1c, 0xd3, 0x4a, 0xc3, 0xd4, 0x51, 0xb9, 0xbf, 0xdd,
  0x56, 0xae, 0xb3, 0x30, 0x2b, 0xd3, 0x0c, 0x15, 0xdd, 0xf2, 0x04, 0xd7,
  0xcf, 0x4a, 0x14, 0xdf, 0xd8, 0xd7, 0x12, 0xc9, 0x03, 0xd9, 0xca, 0x14,
  0xb0, 0xb1, 0xec, 0xfc, 0xa5, 0x42, 0xd4, 0x4c, 0x50, 0x11, 0xe9, 0x33,
  0xde, 0x4d, 0x4c, 0xe2, 0xb7, 0xf9, 0xd3, 0xad, 0xb3, 0x06, 0xbf, 0xcf,
  0xf4, 0xd5, 0x33, 0xb3, 0x51, 0x2c, 0x34, 0xd3, 0x35, 0xbc, 0x2b, 0xbb,
  0xd4, 0x9f, 0x0a, 0xf9, 0x0e, 0x27, 0xfc, 0xc2, 0xf9, 0x0b, 0x3f, 0x1b,
  0xdb, 0xf7, 0xf8, 0x18, 0x1f, 0xcb, 0xb2, 0xd3, 0x47, 0x24, 0x38, 0xa4,
  0xf6, 0xa6, 0xc8, 0x04, 0x5e, 0x13, 0x3e, 0xdd, 0x3f, 0xfd, 0xfa, 0xee,
  0x43, 0xdf, 0xcd, 0xd9, 0xb7, 0x33, 0x02, 0xd7, 0x58, 0xab, 0xfe, 0xbf,
  0xc1, 0x1a, 0x1e, 0x1b, 0x5d, 0x1e, 0xcc, 0x2f, 0x1b, 0x2f, 0x03, 0x1c,
  0xf1, 0x0e, 0xff, 0xd5, 0xb6, 0x1c, 0x19, 0x0b, 0xf5, 0xa9, 0x41, 0xbe,
  0x39, 0xd9, 0xf1, 0xf9, 0x48, 0xa2, 0x33, 0xd3, 0x1c, 0x3e, 0x18, 0xbf,
  0xf4, 0xfb, 0x48, 0x2e, 0xda, 0x52, 0x04, 0x1b, 0x1f, 0x2d, 0x31, 0x1a,
  0x30, 0xd5, 0xf8, 0x52, 0x50, 0x34, 0xcf, 0x60, 0x38, 0xe2, 0x00, 0x3a,
  0x44, 0x40, 0xb6, 0x3a, 0x42, 0xff, 0x39, 0xbe, 0xd8, 0x2b, 0x0d, 0x0d,
  0xa5, 0x1a, 0xc8, 0x49, 0x39, 0x14, 0x3d, 0xed, 0x11, 0xcf, 0x32, 0x1d,
  0xe9, 0xd1, 0xb9, 0xd7, 0x4d, 0x0d, 0xe6, 0xe0, 0x54, 0x56, 0xda, 0xcc,
  0xb3, 0x27, 0x4b, 0xc3, 0x25, 0x61, 0x27, 0x2c, 0xfa, 0x06, 0x44, 0x50,
  0xb0, 0x61, 0xeb, 0xda, 0xad, 0xf8, 0x0d, 0xf8, 0x54, 0xf2, 0xee, 0x2a,
  0xe6, 0x5a, 0xc1, 0x50, 0xda, 0x1c, 0x13, 0x41, 0x1c, 0x0f, 0x0d, 0x59,
  0xd1, 0x17, 0xcc, 0xd7, 0x12, 0xe0, 0xa2, 0xa0, 0xa3, 0x9c, 0x99, 0x09,
  0xa8, 0x29, 0x30, 0xdc, 0x3f, 0xc2, 0x23, 0xf9, 0x38, 0x0b, 0xf1, 0xd1,
  0x1f, 0x44, 0x24, 0x3e, 0xd6, 0x4e, 0xe9, 0x40, 0x3c, 0xd6, 0xa1, 0xf4,
  0x2e, 0x67, 0x9c, 0x13, 0xfe, 0x52, 0xfb, 0x2f, 0xd8, 0x03, 0xb4, 0x47,
  0xbe, 0x5f, 0xc6, 0x55, 0x2e, 0x6b, 0x41, 0x26, 0xed, 0x11, 0x21, 0x50,
  0x01, 0xd8, 0xe9, 0x2b, 0x56, 0x21, 0xd5, 0x05, 0xc6, 0xd4, 0x13, 0xf9,
  0xdf, 0xe4, 0xc6, 0x00, 0xe2, 0x68, 0xf0, 0x1a, 0x60, 0xc9, 0x4f, 0xc1,
  0x27, 0x2a, 0xec, 0xc4, 0x62, 0xc7, 0x1f, 0x0c, 0xe6, 0xc1, 0x05, 0xf1,
  0x0d, 0xcc, 0x16, 0x2b, 0x46, 0x07, 0x65, 0xbd, 0xef, 0x08, 0x6a, 0x40,
  0xe3, 0xba, 0x51, 0x3b, 0x58, 0x39, 0xd6, 0x01, 0xbb, 0x44, 0x0d, 0xc6,
  0x3f, 0x13, 0xee, 0x0d, 0x5c, 0xbf, 0x47, 0x25, 0x02, 0xbe, 0x03, 0xd7,
  0x39, 0xfa, 0x12, 0xe9, 0x54, 0x5b, 0x05, 0xaf, 0x3e, 0x13, 0x4c, 0x13,
  0x1d, 0x2b, 0xf0, 0x3a, 0xce, 0x27, 0x03, 0x1d, 0x15, 0x16, 0x01, 0x09,
  0x62, 0x42, 0x5d, 0x4b, 0x5e, 0xc3, 0x21, 0xff, 0xb8, 0x1b, 0x07, 0xcf,
  0xc7, 0xe4, 0xf0, 0xca, 0xcf, 0x16, 0xf8, 0x2b, 0x42, 0x0a, 0xe9, 0x3c,
  0x61, 0xee, 0xfb, 0xfa, 0x27, 0xf9, 0xc5, 0xb4, 0xb9, 0x5a, 0xd2, 0x11,
  0xcd, 0xff, 0xc3, 0x17, 0x54, 0xeb, 0xd6, 0xbb, 0x27, 0xe6, 0xe8, 0xc6,
  0x33, 0x51, 0x3b, 0x37, 0x3d, 0x32, 0xb6, 0x20, 0x21, 0x4d, 0x37, 0x27,
  0xd8, 0x26, 0xa0, 0xce, 0x42, 0x43, 0x52, 0x60, 0xc0, 0xbd, 0x43, 0x08,
  0x37, 0xde, 0x67, 0x2e, 0xc3, 0x0d, 0x54, 0x26, 0x66, 0xc0, 0x55, 0x06,
  0xd3, 0xed, 0xbf, 0x44, 0x0f, 0x11, 0x4e, 0x49, 0x5e, 0x20, 0x63, 0xfc,
  0xd0, 0x35, 0x1b, 0xad, 0x51, 0xf9, 0x61, 0x0c, 0x08, 0xad, 0x10, 0x06,
  0xfe, 0x2b, 0x14, 0xb4, 0x24, 0xa6, 0xce, 0x0e, 0x4a, 0xc2, 0xf6, 0x03,
  0x59, 0x94, 0x43, 0xf2, 0x35, 0xd3, 0x3d, 0xba, 0x01, 0xe9, 0x16, 0xaf,
  0xe3, 0xa3, 0xc5, 0xe9, 0xe6, 0xa7, 0xd1, 0xe3, 0x45, 0xfb, 0xe4, 0xd1,
  0x38, 0xab, 0xdf, 0xa5, 0x38, 0xa3, 0xd7, 0xdb, 0x29, 0x3b, 0x34, 0x46,
  0x3c, 0xdc, 0xf5, 0x38, 0xdf, 0x55, 0x28, 0xe8, 0x3f, 0xaa, 0x3e, 0x47,
  0xf5, 0xbb, 0xe4, 0xff, 0xd2, 0x1f, 0xf5, 0xf4, 0x02, 0xbd, 0xc6, 0x1e,
  0x14, 0x19, 0x0b, 0xc0, 0x43, 0x07, 0xcb, 0x2f, 0x3a, 0xd0, 0xea, 0xe9,
  0xf6, 0xbc, 0x29, 0xed, 0x17, 0x33, 0x42, 0xfb, 0x2a, 0xe9, 0xfb, 0xfa,
  0x20, 0xff, 0xe8, 0x47, 0x18, 0x18, 0x30, 0x1a, 0x14, 0xdc, 0xe4, 0xba,
  0xc2, 0xcb, 0x32, 0x4e, 0xf0, 0xd3, 0xf2, 0x2c, 0x1e, 0xc8, 0xd8, 0x59,
  0x11, 0x18, 0xc2, 0xd1, 0x45, 0x3f, 0x3d, 0x04, 0xeb, 0xef, 0xc5, 0xd8,
  0x20, 0x21, 0x12, 0x34, 0x25, 0x08, 0xdb, 0x54, 0xbe, 0x43, 0x56, 0x03,
  0x1b, 0x4b, 0xc4, 0x51, 0x3d, 0x3a, 0x03, 0xfb, 0xf2, 0xfa, 0xb7, 0xc4,
  0xc3, 0x47, 0x3f, 0xa2, 0x49, 0xe1, 0x1b, 0x0b, 0x1c, 0x0b, 0xd5, 0xa1,
  0xed, 0xca, 0x03, 0xf5, 0xf3, 0xe0, 0xda, 0xa7, 0xca, 0x4c, 0xe0, 0x52,
  0x3b, 0x44, 0x00, 0xe2, 0xc0, 0xe6, 0xc4, 0x56, 0x10, 0xe7, 0x26, 0x2d,
  0x4f, 0x5b, 0x3a, 0xf7, 0xd1, 0x1b, 0x45, 0xfb, 0x0c, 0x4c, 0x29, 0x5a,
  0xe7, 0x54, 0xd2, 0x23, 0x41, 0x3c, 0xbd, 0xce, 0x20, 0xaf, 0x42, 0xfa,
  0xf8, 0x33, 0x21, 0xbb, 0x2b, 0xe7, 0xf2, 0x36, 0xc1, 0x21, 0x25, 0x2a,
  0xd5, 0x09, 0x10, 0x49, 0x48, 0xe1, 0x49, 0xf9, 0x1c, 0xa9, 0x0c, 0x39,
  0xcf, 0x25, 0x09, 0xfd, 0xbd, 0x34, 0xbe, 0x49, 0xb8, 0xf4, 0xa6, 0xba,
  0xa9, 0xc0, 0xb0, 0x62, 0xc7, 0x38, 0x0d, 0x60, 0x05, 0x52, 0x11, 0x02,
  0x41, 0x2a, 0x3f, 0xbc, 0x04, 0x4b, 0x39, 0x0c, 0xf4, 0x51, 0x11, 0xfc,
  0x3d, 0x10, 0xc6, 0x4e, 0xf3, 0xf0, 0xb7, 0xe6, 0x12, 0xf6, 0x2f, 0x1a,
  0x22, 0x5a, 0xc8, 0x1b, 0x2d, 0x4d, 0x58, 0xe6, 0xef, 0x0f, 0x12, 0x59,
  0xbe, 0x26, 0x36, 0x3a, 0x01, 0x50, 0x3e, 0x1b, 0xcf, 0x45, 0x1d, 0x02,
  0xc6, 0xc0, 0xc1, 0xd0, 0x35, 0xf9, 0xc6, 0x1f, 0x5a, 0xaa, 0xf2, 0xef,
  0x30, 0x4c, 0x0a, 0xd4, 0xe9, 0xdd, 0x55, 0xd9, 0x06, 0xb8, 0xb9, 0x34,
  0x60, 0xed, 0xea, 0xc2, 0xc9, 0xe6, 0x31, 0x1c, 0x36, 0xb3, 0x40, 0xb0,
  0x39, 0xd1, 0x3e, 0xfc, 0x20, 0x05, 0x4c, 0xce, 0xfa, 0x03, 0xeb, 0xdb,
  0x24, 0xf0, 0x42, 0xda, 0xd3, 0xff, 0xc6, 0x08, 0xd0, 0x52, 0xe7, 0xd9,
  0xfe, 0xb7, 0xe9, 0x4f, 0x62, 0xfc, 0x34, 0xe1, 0x05, 0xda, 0x1e, 0xcc,
  0x1e, 0xf6, 0x4f, 0x02, 0x36, 0xff, 0xc4, 0xc2, 0x00, 0x57, 0xb8, 0x36,
  0x48, 0x2d, 0xdd, 0x20, 0x47, 0x1e, 0xdd, 0x37, 0xee, 0x12, 0x2b, 0x05,
  0xaf, 0x28, 0x30, 0x60, 0x32, 0x60, 0x08, 0xca, 0x2e, 0x52, 0x14, 0xbb,
  0xf1, 0x0f, 0x5b, 0xce, 0x48, 0xa5, 0xb1, 0x00, 0xc3, 0xe4, 0x34, 0x2c,
  0x0b, 0xbc, 0xe4, 0xe8, 0x43, 0x1a, 0x19, 0x1c, 0x58, 0xa3, 0x0a, 0xf8,
  0x00, 0xa3, 0x2e, 0xbc, 0xd8, 0xff, 0xe0, 0xa4, 0x02, 0xf2, 0xd3, 0x0f,
  0x52, 0xd8, 0xb3, 0xb6, 0xc6, 0xb0, 0xb0, 0xff, 0x09, 0x05, 0x2d, 0x3a,
  0xb6, 0xf8, 0x26, 0xe9, 0xc1, 0xe1, 0xed, 0x41, 0xc8, 0xb5, 0x4b, 0x43,
  0x42, 0xca, 0x42, 0xf4, 0x15, 0xbf, 0xe9, 0x5e, 0x01, 0x16, 0x57, 0x47,
  0x36, 0xdf, 0xb6, 0x64, 0xf6, 0xd3, 0x36, 0xe5, 0xcb, 0x56, 0xc5, 0x1b,
  0x1a, 0x40, 0x54, 0x5c, 0xfe, 0x4a, 0x4e, 0x2e, 0xd5, 0x43, 0x55, 0xd3,
  0xc7, 0x40, 0xc9, 0x40, 0xe2, 0xf7, 0xd4, 0xbb, 0xcd, 0x4d, 0x0f, 0xe4,
  0xbb, 0xb4, 0x33, 0x52, 0x53, 0xe6, 0x33, 0x3a, 0xe1, 0x56, 0x59, 0xcd,
  0xff, 0x27, 0xd9, 0x48, 0x3f, 0x3f, 0x49, 0xfc, 0x12, 0x11, 0x57, 0x41,
  0x1e, 0xf6, 0xf7, 0xf0, 0xca, 0x05, 0xda, 0x19, 0xe0, 0x0d, 0xc7, 0xa1,
  0x62, 0x09, 0xed, 0xb3, 0x3e, 0xc1, 0xd6, 0x1b, 0xee, 0xef, 0xea, 0xe9,
  0x0a, 0x28, 0x16, 0x09, 0x5d, 0x42, 0xda, 0xc8, 0xec, 0x0b, 0x2a, 0x1b,
  0xcb, 0x10, 0xc4, 0xbe, 0x42, 0xa6, 0xfc, 0xd2, 0xc1, 0x10, 0x5f, 0xad,
  0xec, 0xe7, 0x49, 0x14, 0x1f, 0xe6, 0x4e, 0x02, 0xfd, 0x2d, 0x3b, 0xf9,
  0x13, 0xa8, 0x4c, 0x43, 0x00, 0x09, 0x2b, 0x4a, 0xeb, 0xe1, 0x09, 0xbb,
  0xc1, 0xb6, 0xca, 0x07, 0xbb, 0xe8, 0x08, 0x46, 0x30, 0x1a, 0xf9, 0xdf,
  0x3e, 0x34, 0xcb, 0xc2, 0x11, 0x2c, 0xe1, 0xa4, 0xac, 0xdd, 0xd2, 0xa5,
  0x94, 0xb0, 0x34, 0x48, 0xe9, 0xd4, 0xb9, 0x4e, 0xf5, 0xaf, 0x36, 0x4d,
  0xb2, 0x18, 0x99, 0x41, 0xbb, 0xd0, 0x25, 0xae, 0xc5, 0xa4, 0xba, 0xaf,
  0x33, 0xa9, 0xe8, 0x00, 0xf2, 0xe5, 0x43, 0xe4, 0xe5, 0xc6, 0x4a, 0x04,
  0x62, 0xed, 0x09, 0x45, 0xea, 0x42, 0xe2, 0x48, 0x31, 0x11, 0x63, 0xb9,
  0x02, 0x0b, 0xe0, 0xd8, 0x12, 0x48, 0x60, 0x9f, 0x6c, 0xe5, 0xc7, 0xcb,
