// optimized Only_DENS_DO_S model
const unsigned char model[] = {
  0x20, 0x00, 0x00, 0x00, 0x54, 0x46, 0x4c, 0x33, 0x00, 0x00, 0x00, 0x00,
  0x14, 0x00, 0x20, 0x00, 0x1c, 0x00, 0x18, 0x00, 0x14, 0x00, 0x10, 0x00,
  0x0c, 0x00, 0x00, 0x00, 0x08, 0x00, 0x04, 0x00, 0x14, 0x00, 0x00, 0x00,
  0x1c, 0x00, 0x00, 0x00, 0x98, 0x00, 0x00, 0x00, 0xf0, 0x00, 0x00, 0x00,
  0x38, 0x37, 0x00, 0x00, 0x48, 0x37, 0x00, 0x00, 0xc4, 0x3f, 0x00, 0x00,
  0x03, 0x00, 0x00, 0x00, 0x01, 0x00, 0x00, 0x00, 0x10, 0x00, 0x00, 0x00,
  0x00, 0x00, 0x0a, 0x00, 0x10, 0x00, 0x0c, 0x00, 0x08, 0x00, 0x04, 0x00,
  0x0a, 0x00, 0x00, 0x00, 0x0c, 0x00, 0x00, 0x00, 0x1c, 0x00, 0x00, 0x00,
  0x3c, 0x00, 0x00, 0x00, 0x0f, 0x00, 0x00, 0x00, 0x73, 0x65, 0x72, 0x76,
  0x69, 0x6e, 0x67, 0x5f, 0x64, 0x65, 0x66, 0x61, 0x75, 0x6c, 0x74, 0x00,
  0x01, 0x00, 0x00, 0x00, 0x04, 0x00, 0x00, 0x00, 0x90, 0xff, 0xff, 0xff,
  0x0c, 0x00, 0x00, 0x00, 0x04, 0x00, 0x00, 0x00, 0x08, 0x00, 0x00, 0x00,
  0x64, 0x65, 0x6e, 0x73, 0x65, 0x5f, 0x31, 0x31, 0x00, 0x00, 0x00, 0x00,
  0x01, 0x00, 0x00, 0x00, 0x04, 0x00, 0x00, 0x00, 0xe6, 0xc7, 0xff, 0xff,
  0x04, 0x00, 0x00, 0x00, 0x0d, 0x00, 0x00, 0x00, 0x64, 0x65, 0x6e, 0x73,
  0x65, 0x5f, 0x39, 0x5f, 0x69, 0x6e, 0x70, 0x75, 0x74, 0x00, 0x00, 0x00,
  0x02, 0x00, 0x00, 0x00, 0x34, 0x00, 0x00, 0x00, 0x04, 0x00, 0x00, 0x00,
  0xdc, 0xff, 0xff, 0xff, 0x0f, 0x00, 0x00, 0x00, 0x04, 0x00, 0x00, 0x00,
  0x13, 0x00, 0x00, 0x00, 0x43, 0x4f, 0x4e, 0x56, 0x45, 0x52, 0x53, 0x49,
  0x4f, 0x4e, 0x5f, 0x4d, 0x45, 0x54, 0x41, 0x44, 0x41, 0x54, 0x41, 0x00,
  0x08, 0x00, 0x0c, 0x00, 0x08, 0x00, 0x04, 0x00, 0x08, 0x00, 0x00, 0x00,
  0x0e, 0x00, 0x00, 0x00, 0x04, 0x00, 0x00, 0x00, 0x13, 0x00, 0x00, 0x00,
  0x6d, 0x69, 0x6e, 0x5f, 0x72, 0x75, 0x6e, 0x74, 0x69, 0x6d, 0x65, 0x5f,
  0x76, 0x65, 0x72, 0x73, 0x69, 0x6f, 0x6e, 0x00, 0x10, 0x00, 0x00, 0x00,
  0x44, 0x36, 0x00, 0x00, 0x3c, 0x36, 0x00, 0x00, 0xb0, 0x07, 0x00, 0x00,
  0xd8, 0x06, 0x00, 0x00, 0xe4, 0x01, 0x00, 0x00, 0x70, 0x01, 0x00, 0x00,
  0xe0, 0x00, 0x00, 0x00, 0xbc, 0x00, 0x00, 0x00, 0xb4, 0x00, 0x00, 0x00,
  0xac, 0x00, 0x00, 0x00, 0xa4, 0x00, 0x00, 0x00, 0x9c, 0x00, 0x00, 0x00,
  0x94, 0x00, 0x00, 0x00, 0x8c, 0x00, 0x00, 0x00, 0x6c, 0x00, 0x00, 0x00,
  0x04, 0x00, 0x00, 0x00, 0xa2, 0xc8, 0xff, 0xff, 0x04, 0x00, 0x00, 0x00,
  0x58, 0x00, 0x00, 0x00, 0x0c, 0x00, 0x00, 0x00, 0x08, 0x00, 0x0e, 0x00,
  0x08, 0x00, 0x04, 0x00, 0x08, 0x00, 0x00, 0x00, 0x10, 0x00, 0x00, 0x00,
  0x28, 0x00, 0x00, 0x00, 0x00, 0x00, 0x06, 0x00, 0x08, 0x00, 0x04, 0x00,
  0x06, 0x00, 0x00, 0x00, 0x04, 0x00, 0x00, 0x00, 0x01, 0x00, 0x00, 0x00,
  0xeb, 0x03, 0x00, 0x00, 0x00, 0x00, 0x0a, 0x00, 0x10, 0x00, 0x0c, 0x00,
  0x08, 0x00, 0x04, 0x00, 0x0a, 0x00, 0x00, 0x00, 0x02, 0x00, 0x00, 0x00,
  0x02, 0x00, 0x00, 0x00, 0x04, 0x00, 0x00, 0x00, 0x05, 0x00, 0x00, 0x00,
  0x32, 0x2e, 0x39, 0x2e, 0x32, 0x00, 0x00, 0x00, 0x06, 0xc9, 0xff, 0xff,
  0x04, 0x00, 0x00, 0x00, 0x10, 0x00, 0x00, 0x00, 0x31, 0x2e, 0x31, 0x34,
  0x2e, 0x30, 0x00, 0x00, 0x00, 0x00, 0x00, 0x00, 0x00, 0x00, 0x00, 0x00,
  0xe0, 0xc8, 0xff, 0xff, 0xe4, 0xc8, 0xff, 0xff, 0xe8, 0xc8, 0xff, 0xff,
  0xec, 0xc8, 0xff, 0xff, 0xf0, 0xc8, 0xff, 0xff, 0xf4, 0xc8, 0xff, 0xff,
  0x3a, 0xc9, 0xff, 0xff, 0x04, 0x00, 0x00, 0x00, 0x14, 0x00, 0x00, 0x00,
  0xcf, 0xfe, 0xff, 0xff, 0x8c, 0xff, 0xff, 0xff, 0xa1, 0x01, 0x00, 0x00,
  0xb4, 0x00, 0x00, 0x00, 0x6c, 0xff, 0xff, 0xff, 0x5a, 0xc9, 0xff, 0xff,
  0x04, 0x00, 0x00, 0x00, 0x7d, 0x00, 0x00, 0x00, 0x4c, 0xd5, 0x2f, 0xe1,
  0xfb, 0x56, 0xfa, 0x67, 0x9e, 0x05, 0x29, 0x6d, 0xb1, 0xb6, 0x34, 0x4e,
  0x6e, 0xb4, 0xfc, 0x78, 0x82, 0x61, 0x39, 0xca, 0xe8, 0x2d, 0x92, 0x9f,
  0x4a, 0xc7, 0x53, 0x9e, 0x8b, 0xe5, 0x33, 0x4c, 0x1d, 0xf6, 0x2e, 0x53,
  0xf0, 0xcf, 0xfe, 0x6e, 0x36, 0x0f, 0xa8, 0x61, 0x52, 0x74, 0x92, 0x8d,
  0x73, 0x69, 0x66, 0xa8, 0xe1, 0xfb, 0xe6, 0xce, 0xac, 0xc0, 0xb2, 0xd9,
  0x79, 0xec, 0x79, 0xf9, 0xb1, 0xbc, 0xcb, 0xbd, 0x1c, 0xb4, 0xda, 0xc5,
  0xdc, 0xb3, 0xa3, 0x86, 0xba, 0x6c, 0x33, 0x96, 0x03, 0xb3, 0x27, 0x63,
  0x2c, 0x44, 0xd5, 0x03, 0x43, 0xf0, 0x0e, 0x7a, 0xc3, 0x65, 0x0f, 0x18,
  0xf0, 0x13, 0x17, 0x47, 0xfc, 0xb1, 0x27, 0xfb, 0x22, 0xaa, 0x37, 0x81,
  0x0e, 0x3d, 0xbc, 0x72, 0xef, 0xcf, 0xb9, 0x34, 0xd7, 0x40, 0x75, 0xe5,
  0x30, 0x00, 0x00, 0x00, 0xe6, 0xc9, 0xff, 0xff, 0x04, 0x00, 0x00, 0x00,
  0x64, 0x00, 0x00, 0x00, 0xab, 0x01, 0x00, 0x00, 0x7c, 0x00, 0x00, 0x00,
  0xe9, 0x01, 0x00, 0x00, 0xd4, 0x02, 0x00, 0x00, 0x5c, 0x02, 0x00, 0x00,
  0x84, 0x01, 0x00, 0x00, 0x2f, 0xff, 0xff, 0xff, 0xda, 0xfe, 0xff, 0xff,
  0xf0, 0xff, 0xff, 0xff, 0xd4, 0x03, 0x00, 0x00, 0x5a, 0x01, 0x00, 0x00,
  0x34, 0x03, 0x00, 0x00, 0xec, 0x00, 0x00, 0x00, 0xee, 0x04, 0x00, 0x00,
  0x3a, 0x03, 0x00, 0x00, 0xc0, 0x02, 0x00, 0x00, 0xda, 0x00, 0x00, 0x00,
  0x6f, 0x03, 0x00, 0x00, 0x41, 0x02, 0x00, 0x00, 0x0c, 0xfc, 0xff, 0xff,
  0x36, 0x02, 0x00, 0x00, 0x27, 0x01, 0x00, 0x00, 0x58, 0x06, 0x00, 0x00,
  0x6b, 0x00, 0x00, 0x00, 0x2d, 0x00, 0x00, 0x00, 0x56, 0xca, 0xff, 0xff,
  0x04, 0x00, 0x00, 0x00, 0xe2, 0x04, 0x00, 0x00, 0x18, 0x03, 0xf8, 0x20,
  0xf9, 0xfa, 0xe7, 0xb4, 0x5a, 0x5a, 0xf9, 0xf0, 0x05, 0xee, 0xb9, 0x28,
  0x4a, 0xc6, 0x3c, 0x27, 0x63, 0x2b, 0x10, 0x12, 0xba, 0x2e, 0x60, 0xf6,
  0x19, 0xeb, 0x9d, 0x17, 0xe6, 0x06, 0xb6, 0xbe, 0x2c, 0x12, 0x0c, 0x5a,
  0xd7, 0xb2, 0x1c, 0x13, 0x55, 0xe4, 0xb2, 0x38, 0xe4, 0x95, 0xe9, 0x10,
  0xbf, 0x4d, 0xdc, 0x66, 0xf5, 0xaa, 0x4a, 0xe7, 0x28, 0x49, 0xc9, 0xa1,
  0x61, 0x00, 0xf5, 0x0d, 0xbb, 0xc0, 0xc0, 0xbf, 0x0b, 0x38, 0xf3, 0xaf,
  0x4d, 0x89, 0x53, 0x4b, 0x3c, 0xf6, 0xb3, 0xf5, 0x10, 0x5f, 0xc5, 0x26,
  0x11, 0x36, 0xb7, 0x1f, 0xf6, 0x39, 0xc8, 0xe9, 0x53, 0xf5, 0x44, 0x2f,
  0x4f, 0x5a, 0xdf, 0xbc, 0xe8, 0xb4, 0xe5, 0x68, 0x3b, 0x16, 0x1e, 0xf1,
  0x0c, 0x17, 0xd1, 0x00, 0xc5, 0xd4, 0xd3, 0x28, 0xed, 0x46, 0xb0, 0xda,
  0x46, 0x31, 0xe4, 0x51, 0xee, 0x21, 0x45, 0x5e, 0x1b, 0x54, 0x4a, 0xc0,
  0xe2, 0xed, 0xd9, 0xad, 0xb4, 0x0e, 0x0b, 0xf6, 0xb1, 0x2c, 0xe6, 0x04,
  0x64, 0x27, 0xe6, 0x53, 0x04, 0xcd, 0x2a, 0x32, 0x4e, 0xeb, 0xf8, 0x0a,
  0xcd, 0xf3, 0xf5, 0xca, 0xb7, 0x4f, 0xf9, 0x1e, 0x68, 0x36, 0x9e, 0xc1,
  0xcf, 0x26, 0xd1, 0x3b, 0x9f, 0x43, 0xef, 0x38, 0x70, 0x18, 0xb6, 0x0b,
  0x41, 0x08, 0x07, 0x12, 0x09, 0xf8, 0xc7, 0x4e, 0xf7, 0xde, 0xe3, 0x58,
  0x1c, 0x67, 0x0a, 0x4d, 0x2e, 0x61, 0xb5, 0xaf, 0x05, 0x3e, 0x37, 0x72,
  0xcc, 0xf1, 0xa4, 0x00, 0xe6, 0xc2, 0xdf, 0x74, 0xf5, 0xb4, 0x3d, 0x15,
  0xc9, 0xfe, 0xb1, 0xee, 0xda, 0x71, 0xca, 0xf2, 0x07, 0xe8, 0x24, 0x30,
  0x1d, 0x16, 0x25, 0x14, 0xf1, 0xea, 0xd4, 0xaa, 0xb6, 0x25, 0x6f, 0x17,
  0xd7, 0xde, 0x53, 0x4e, 0x2e, 0x01, 0x45, 0xa0, 0x50, 0xcd, 0x17, 0x4e,
  0x15, 0x08, 0x21, 0x3a, 0xc6, 0x3a, 0xf2, 0x56, 0xe2, 0x01, 0x0e, 0xb3,
  0xf9, 0x0e, 0x66, 0xe5, 0x01, 0x08, 0xba, 0x06, 0xe5, 0x70, 0xbd, 0xd0,
  0xd9, 0x15, 0x53, 0x39, 0x2c, 0xdf, 0x22, 0xc6, 0xa9, 0x58, 0x27, 0x42,
  0xc9, 0xf9, 0x60, 0x1c, 0xfd, 0xa8, 0xea, 0xe5, 0x3b, 0xfa, 0x24, 0x4e,
  0x46, 0x3f, 0xe4, 0xf9, 0x31, 0xf5, 0xf2, 0x2a, 0x01, 0xae, 0x20, 0x32,
  0x1f, 0x32, 0x9e, 0xdf, 0xd3, 0x51, 0xa1, 0xb0, 0x02, 0xf5, 0x4c, 0x39,
  0xd7, 0x11, 0xa0, 0xef, 0xd4, 0xf5, 0xbd, 0xf1, 0x98, 0xd7, 0xe7, 0xf5,
  0xc5, 0x35, 0xd3, 0xfa, 0x33, 0x36, 0x37, 0xc2, 0x57, 0xf6, 0x1d, 0x03,
  0x4e, 0x4a, 0xc8, 0xe2, 0x0a, 0xe9, 0xec, 0x2c, 0x3a, 0xb5, 0x55, 0x3b,
  0xc8, 0xd5, 0xe4, 0xd5, 0xda, 0x45, 0x6b, 0x10, 0xa1, 0xcf, 0x47, 0x45,
  0xb5, 0x08, 0x60, 0xa9, 0xe3, 0x23, 0x9e, 0x23, 0xc1, 0xce, 0xd8, 0xa1,
  0x3e, 0x3e, 0x24, 0x41, 0x21, 0x0c, 0xf7, 0x24, 0x20, 0xad, 0x25, 0xc6,
  0xf0, 0x1d, 0xbf, 0x04, 0x41, 0x50, 0x4c, 0xb3, 0xf9, 0xbf, 0xd2, 0xd0,
  0xba, 0xc8, 0xaa, 0x43, 0xe5, 0xe2, 0x35, 0x2c, 0xca, 0xeb, 0xee, 0xc5,
  0x18, 0xa1, 0x3a, 0xbc, 0x07, 0x32, 0x12, 0xd3, 0x07, 0x4c, 0x33, 0x21,
  0x46, 0x3b, 0x6a, 0x06, 0xec, 0xf6, 0x40, 0x1c, 0x1d, 0x3f, 0x57, 0xc7,
  0x1a, 0x5a, 0x03, 0xfe, 0x5a, 0x41, 0xe0, 0xec, 0x23, 0x90, 0x5a, 0xdd,
  0xfb, 0x9e, 0x39, 0x31, 0xba, 0xff, 0x3e, 0x96, 0x7a, 0xfe, 0xac, 0x4b,
  0x13, 0x04, 0x23, 0xd6, 0xae, 0x33, 0x2b, 0x39, 0xa4, 0xeb, 0x32, 0xe9,
  0x17, 0x9d, 0x1e, 0x3a, 0x97, 0x1a, 0x48, 0x06, 0x0c, 0xf9, 0xdd, 0xf8,
  0xbc, 0xb9, 0x11, 0xe9, 0xdd, 0x44, 0xb5, 0x39, 0xcc, 0x30, 0x09, 0xe6,
  0xd7, 0x28, 0xa9, 0xf5, 0xdd, 0xcb, 0x22, 0x13, 0x52, 0xa2, 0x4a, 0xd0,
  0x17, 0x0c, 0x27, 0xad, 0xaa, 0xee, 0xf0, 0x43, 0x5c, 0x3b, 0xca, 0xe2,
  0xfc, 0xd8, 0x2f, 0x1e, 0x2c, 0xf5, 0x33, 0xe5, 0x56, 0xdc, 0x8f, 0x4f,
  0x18, 0x46, 0xd6, 0xad, 0xd5, 0x0c, 0x19, 0xe2, 0x48, 0x07, 0x0e, 0x43,
  0xd0, 0xeb, 0x40, 0xcc, 0x1f, 0x10, 0x4d, 0x65, 0x54, 0xcc, 0xd2, 0xe1,
  0xe2, 0x3c, 0x07, 0xcd, 0x29, 0xaa, 0x1c, 0xff, 0x0a, 0x4c, 0x11, 0x1f,
  0xaa, 0x4d, 0xe1, 0xed, 0xcb, 0x08, 0x99, 0x0d, 0x9f, 0x30, 0xbb, 0xa5,
  0xc8, 0x0a, 0x49, 0xeb, 0xcb, 0xea, 0x42, 0xbc, 0xa8, 0x2b, 0x3c, 0xff,
  0xad, 0x31, 0x4e, 0x8d, 0xcb, 0xc0, 0x5f, 0xbb, 0x2d, 0xcd, 0x25, 0x0a,
  0xaa, 0x1d, 0x05, 0xbe, 0xd3, 0x4c, 0xc1, 0x25, 0xe6, 0xcd, 0x1e, 0xed,
  0x45, 0x5c, 0x16, 0x98, 0xde, 0xa0, 0x42, 0x10, 0xf2, 0xb5, 0xa4, 0x0b,
  0xf6, 0xea, 0xd6, 0x8c, 0x4b, 0xd0, 0x13, 0x4b, 0x0c, 0xd8, 0xef, 0xfa,
  0xd6, 0x32, 0x25, 0x75, 0x5b, 0xaf, 0xc1, 0x0a, 0x50, 0xa8, 0xe8, 0xd4,
  0x06, 0xc4, 0x2a, 0xef, 0xb6, 0xa1, 0x1d, 0xd4, 0x19, 0xa2, 0xde, 0xf8,
  0xa7, 0xde, 0xe2, 0x50, 0xc0, 0x1b, 0x12, 0x04, 0xec, 0xeb, 0x25, 0xf7,
  0x34, 0xc6, 0x58, 0x37, 0xb3, 0xc0, 0x0e, 0x3e, 0x30, 0xbe, 0x09, 0x5b,
  0x22, 0x0b, 0x3b, 0x20, 0xdc, 0x13, 0xc5, 0x4a, 0xee, 0xb5, 0xd4, 0x18,
  0xdb, 0x70, 0x36, 0x41, 0x74, 0x50, 0x16, 0x53, 0xf0, 0xc8, 0x42, 0xb0,
  0x54, 0x02, 0x3a, 0x02, 0xd0, 0xf2, 0xe6, 0x16, 0x19, 0xe6, 0xe7, 0xab,
  0x41, 0x58, 0x0f, 0xd2, 0x4b, 0xe0, 0x52, 0x30, 0x1c, 0x4a, 0xc7, 0xe0,
  0xd8, 0xf2, 0x49, 0x09, 0x53, 0xf5, 0x34, 0xf2, 0x07, 0xbd, 0x23, 0x9d,
  0xe3, 0xe5, 0xf8, 0xd6, 0x17, 0xf1, 0x04, 0x8d, 0xbb, 0x10, 0x18, 0x31,
  0xb1, 0xb2, 0xb6, 0x12, 0x58, 0x53, 0x70, 0x08, 0xf9, 0xac, 0xa8, 0xdc,
  0xc5, 0x4d, 0x4c, 0x0c, 0x79, 0x24, 0xa9, 0xef, 0xd2, 0x22, 0xcd, 0x37,
  0x0b, 0x5c, 0xbd, 0xf0, 0xe6, 0x30, 0x17, 0xc7, 0xae, 0xc8, 0xe7, 0x0f,
  0x0a, 0xde, 0xf8, 0xb8, 0x00, 0x14, 0xc1, 0x6c, 0x2e, 0xce, 0xf6, 0x06,
  0xce, 0x64, 0xdd, 0x1b, 0x38, 0x25, 0xfb, 0x0b, 0x10, 0xaa, 0x42, 0x77,
  0x3e, 0x33, 0x06, 0x1e, 0x13, 0xd0, 0xd8, 0xda, 0x88, 0xad, 0x00, 0x7b,
  0x0f, 0x54, 0xce, 0xfa, 0x65, 0xe1, 0xac, 0xab, 0x1c, 0x46, 0xed, 0xfd,
  0x46, 0x19, 0xb6, 0xfd, 0x3b, 0xe8, 0x3f, 0x29, 0x28, 0x39, 0x2b, 0x50,
  0xd9, 0x9d, 0xab, 0x42, 0xfe, 0xdc, 0x3f, 0xd1, 0x3a, 0xab, 0x1b, 0x45,
  0xfb, 0xb1, 0x61, 0x85, 0x02, 0x2d, 0x92, 0xad, 0x02, 0x3e, 0x33, 0xd3,
  0xb0, 0x8b, 0xd6, 0xa9, 0x01, 0x3f, 0xc0, 0xc0, 0xf6, 0xb6, 0x16, 0xd0,
  0xf1, 0x56, 0xe0, 0xdf, 0x2b, 0xe9, 0x30, 0xdd, 0xf5, 0xb6, 0xe1, 0x20,
  0xdc, 0xc7, 0x25, 0xe7, 0xb7, 0x08, 0x42, 0x09, 0x39, 0xd3, 0xc9, 0x24,
  0xda, 0x3b, 0xb7, 0xa9, 0xc1, 0xdc, 0x60, 0x94, 0x15, 0x71, 0xe2, 0xd9,
  0x6e, 0xd8, 0xd9, 0xc5, 0x54, 0xfa, 0xb6, 0xcf, 0x97, 0xce, 0x48, 0x3d,
  0x60, 0x06, 0x0f, 0xfc, 0x21, 0xcc, 0x66, 0x58, 0xca, 0x28, 0x23, 0xd3,
  0xbb, 0x0a, 0xce, 0xf3, 0x0c, 0xcf, 0x10, 0xf9, 0xf9, 0x4c, 0x2f, 0x3d,
  0x31, 0x45, 0xfe, 0xf4, 0xe7, 0x3e, 0x11, 0xbe, 0xde, 0xda, 0xba, 0xf7,
  0x0d, 0xca, 0x30, 0xb2, 0xee, 0x2f, 0x5d, 0xe7, 0xb8, 0xbc, 0x30, 0xe4,
  0xaf, 0x8d, 0xce, 0x17, 0xc7, 0xe4, 0xf2, 0xf9, 0xdd, 0x3c, 0xf7, 0xba,
  0x5a, 0xcd, 0x63, 0xa6, 0x1b, 0x6d, 0x14, 0x0c, 0xa3, 0x3a, 0xf3, 0xa3,
  0xee, 0x91, 0xd7, 0xed, 0xff, 0x29, 0xa8, 0x2b, 0x0a, 0x90, 0x25, 0x5b,
  0x8a, 0x3c, 0xd3, 0x21, 0x26, 0x41, 0xe4, 0x1e, 0x16, 0xa6, 0x25, 0x1c,
  0xfe, 0x09, 0xae, 0x02, 0xbd, 0x49, 0x20, 0xe8, 0x17, 0xa0, 0x6b, 0xa2,
  0xd2, 0xdb, 0x02, 0x11, 0x14, 0xc9, 0x89, 0x18, 0xba, 0x06, 0x72, 0x1e,
  0xd8, 0x45, 0x26, 0xf9, 0x1c, 0x34, 0x6d, 0xee, 0x05, 0xd2, 0x9b, 0x51,
  0x0b, 0x4f, 0xbe, 0x0b, 0x54, 0xd7, 0x14, 0x29, 0xa0, 0x5c, 0xde, 0x36,
  0x08, 0x43, 0xf0, 0xfb, 0xed, 0x48, 0x31, 0x4f, 0xe6, 0x57, 0xf9, 0xa6,
  0x37, 0x28, 0x63, 0x11, 0xf3, 0x99, 0x49, 0x02, 0x04, 0x16, 0x56, 0x10,
  0xc3, 0xbc, 0x02, 0xd0, 0xda, 0xb7, 0x03, 0xbc, 0x70, 0x59, 0x45, 0x9e,
  0xc1, 0xc7, 0xf3, 0x3c, 0x60, 0x49, 0xf3, 0x48, 0x14, 0xf5, 0xba, 0x99,
  0x1b, 0xe3, 0xef, 0x46, 0xde, 0xf3, 0x4b, 0xd3, 0x19, 0xc9, 0x0a, 0x39,
  0x58, 0xbf, 0x0a, 0x37, 0x46, 0xe1, 0xc2, 0xcc, 0x2a, 0xda, 0x46, 0xa9,
  0x09, 0x58, 0x9b, 0xb7, 0xd3, 0xd4, 0xf2, 0xda, 0xb5, 0x1a, 0x1d, 0x48,
  0xe7, 0xb6, 0x37, 0xf7, 0x21, 0xcf, 0xac, 0x3e, 0xf6, 0x2e, 0x61, 0xfe,
  0xfb, 0xf2, 0x5c, 0xd8, 0xc9, 0x1a, 0xfe, 0x3f, 0x53, 0x1a, 0x1d, 0x59,
  0x5a, 0xda, 0x66, 0x96, 0x41, 0x3a, 0x2e, 0x4d, 0xaf, 0xd5, 0xf3, 0xde,
  0x2e, 0x81, 0x49, 0x28, 0x9c, 0x1c, 0x19, 0xfb, 0x07, 0xa8, 0xeb, 0x21,
  0x20, 0x3c, 0xd2, 0xe6, 0x32, 0xc7, 0x10, 0x3a, 0x15, 0xf0, 0x23, 0x35,
  0x6c, 0x59, 0xda, 0xb6, 0xd6, 0x3e, 0xec, 0x2d, 0xca, 0x48, 0x00, 0x00,
  0x46, 0xcf, 0xff, 0xff, 0x04, 0x00, 0x00, 0x00, 0xc8, 0x00, 0x00, 0x00,
  0x45, 0xfc, 0xff, 0xff, 0xb7, 0xff, 0xff, 0xff, 0xd4, 0x0a, 0x00, 0x00,
  0x26, 0xf8, 0xff, 0xff, 0x9f, 0xfa, 0xff, 0xff, 0x78, 0x04, 0x00, 0x00,
  0x90, 0x01, 0x00, 0x00, 0xfa, 0xfb, 0xff, 0xff, 0x10, 0x07, 0x00, 0x00,
  0xe1, 0xf7, 0xff, 0xff, 0x2b, 0xf7, 0xff, 0xff, 0xd5, 0xf8, 0xff, 0xff,
  0x24, 0x05, 0x00, 0x00, 0x38, 0x05, 0x00, 0x00, 0x7d, 0xf9, 0xff, 0xff,
  0xb8, 0x05, 0x00, 0x00, 0xe6, 0x00, 0x00, 0x00, 0x61, 0xf7, 0xff, 0xff,
  0xba, 0x02, 0x00, 0x00, 0x07, 0xfe, 0xff, 0xff, 0x92, 0x07, 0x00, 0x00,
  0xf4, 0xf8, 0xff, 0xff, 0xc3, 0x06, 0x00, 0x00, 0x73, 0xf7, 0xff, 0xff,
  0x96, 0xf8, 0xff, 0xff, 0x7d, 0x07, 0x00, 0x00, 0xba, 0xf7, 0xff, 0xff,
  0x28, 0x0b, 0x00, 0x00, 0x66, 0x08, 0x00, 0x00, 0xf3, 0xfe, 0xff, 0xff,
  0xfc, 0xfa, 0xff, 0xff, 0x95, 0x04, 0x00, 0x00, 0xd2, 0x02, 0x00, 0x00,
  0x7e, 0x02, 0x00, 0x00, 0xcf, 0x00, 0x00, 0x00, 0x5d, 0x08, 0x00, 0x00,
  0x26, 0x07, 0x00, 0x00, 0x66, 0x05, 0x00, 0x00, 0x80, 0x02, 0x00, 0x00,
  0x6b, 0x03, 0x00, 0x00, 0xa8, 0x02, 0x00, 0x00, 0xfd, 0xfb, 0xff, 0xff,
  0xcd, 0xf9, 0xff, 0xff, 0xbc, 0x0b, 0x00, 0x00, 0x19, 0x0f, 0x00, 0x00,
  0xaa, 0x00, 0x00, 0x00, 0x53, 0xfd, 0xff, 0xff, 0x6c, 0x01, 0x00, 0x00,
  0xfe, 0x00, 0x00, 0x00, 0x11, 0x00, 0x00, 0x00, 0x1a, 0xd0, 0xff, 0xff,
  0x04, 0x00, 0x00, 0x00, 0x7c, 0x2e, 0x00, 0x00, 0x0d, 0xfc, 0xe5, 0x19,
  0x20, 0xfb, 0xf9, 0xb4, 0xed, 0xb7, 0xf2, 0xe7, 0xbc, 0xc2, 0xd2, 0xd8,
  0xf2, 0xf5, 0x12, 0xef, 0xbe, 0x2c, 0xb3, 0xd1, 0xc5, 0xe3, 0x04, 0xeb,
  0x06, 0xbf, 0x02, 0x14, 0x08, 0x02, 0xdb, 0x1e, 0xdb, 0x37, 0xd7, 0xf5,
  0xcd, 0x16, 0xf5, 0xbf, 0x04, 0xc3, 0x33, 0x2f, 0xd7, 0xff, 0xe6, 0xc6,
  0xc4, 0xd9, 0x35, 0x0c, 0xc2, 0xce, 0x2b, 0xf1, 0xbb, 0x48, 0x32, 0x39,
  0xce, 0x3f, 0x07, 0xfb, 0x2b, 0x41, 0xd7, 0x4a, 0xe3, 0x07, 0xdf, 0x1c,
  0xca, 0x2c, 0x2a, 0xfb, 0xd1, 0x17, 0xdb, 0xf7, 0xeb, 0xf7, 0x20, 0x3e,
  0xec, 0x31, 0x0a, 0x4c, 0x3a, 0xdc, 0x36, 0xd5, 0x1f, 0xe7, 0xec, 0x02,
  0x36, 0xe5, 0xd0, 0xf7, 0x1d, 0x05, 0xe3, 0x0d, 0x3b, 0x42, 0x09, 0xe8,
  0x29, 0x3b, 0x0b, 0x39, 0xe0, 0xe5, 0x3d, 0x4a, 0xe3, 0xd6, 0x39, 0xeb,
  0x08, 0xcb, 0x09, 0x32, 0x37, 0x26, 0xe2, 0x26, 0x2e, 0x36, 0x1d, 0x2f,
  0x0f, 0xbc, 0xda, 0x34, 0x07, 0xfb, 0x3c, 0xcb, 0x15, 0xb8, 0x2d, 0xc7,
  0x18, 0x11, 0x12, 0x33, 0xc1, 0x0a, 0x1f, 0x37, 0x03, 0xb6, 0xd3, 0xb5,
  0xd7, 0xd1, 0x27, 0xbb, 0xbf, 0xf8, 0xe3, 0x01, 0xc7, 0xf7, 0x15, 0x33,
  0x34, 0xd7, 0x09, 0xcd, 0x12, 0xfc, 0xe0, 0xdf, 0xfa, 0xe3, 0x08, 0xe1,
  0x36, 0x31, 0xb8, 0xec, 0xb6, 0xcf, 0xfa, 0xc7, 0xd7, 0xf8, 0xe1, 0x33,
  0xe7, 0xf7, 0xcf, 0x30, 0xee, 0x31, 0xcb, 0xed, 0xed, 0xf1, 0x1e, 0xd1,
  0x38, 0xe0, 0x32, 0xca, 0x2a, 0xff, 0x21, 0xc0, 0x1e, 0xdd, 0xe3, 0x18,
  0x02, 0x0b, 0x2b, 0xf4, 0xb3, 0xb3, 0xdb, 0x21, 0x34, 0xcf, 0x0a, 0xde,
  0x1f, 0xc6, 0xdf, 0xc7, 0xdd, 0x09, 0xe9, 0xdd, 0xf2, 0xa6, 0x2f, 0xd4,
  0xd1, 0xfb, 0x15, 0x0e, 0x1d, 0x02, 0xa8, 0xc4, 0x10, 0x0e, 0xd5, 0xe9,
  0xf5, 0xd1, 0xea, 0xf2, 0x00, 0xcf, 0xa8, 0xdf, 0xf5, 0xcd, 0xaf, 0xc9,
  0x0e, 0x0f, 0x10, 0xf5, 0xb8, 0xe0, 0xba, 0x07, 0x9b, 0xc1, 0x06, 0xdc,
  0x01, 0x3e, 0x0f, 0xc6, 0xd9, 0x35, 0x15, 0x07, 0xc6, 0xcd, 0x1c, 0x13,
  0xae, 0x25, 0x01, 0x0e, 0xf1, 0x05, 0xe6, 0x40, 0xd6, 0xf9, 0x39, 0x17,
  0x02, 0x37, 0xd4, 0xf1, 0xc6, 0x01, 0x2d, 0x12, 0xd2, 0xf5, 0x46, 0xf2,
  0x25, 0x36, 0x09, 0x22, 0xfe, 0xb6, 0x31, 0xcf, 0x3e, 0xb7, 0x3f, 0x27,
  0x33, 0xae, 0xfb, 0xfa, 0x02, 0xbf, 0x0f, 0xce, 0x36, 0xb3, 0x1a, 0x22,
  0x2f, 0x01, 0xf9, 0x23, 0xf6, 0x11, 0x2e, 0xe1, 0x43, 0xec, 0x42, 0xf1,
  0x3b, 0x44, 0xd1, 0x39, 0x20, 0x0a, 0xec, 0xec, 0xef, 0x0e, 0xcb, 0x0f,
  0x43, 0x16, 0x24, 0x2c, 0x33, 0xf0, 0xcc, 0xf7, 0x3b, 0x12, 0xfd, 0xd7,
  0xfb, 0x12, 0x21, 0x40, 0xf8, 0xdb, 0xda, 0x2b, 0xd3, 0x2b, 0xe5, 0x03,
  0xc5, 0xda, 0x3d, 0x23, 0x3e, 0xd7, 0xdd, 0x41, 0xcb, 0x30, 0xfb, 0x09,
  0xd8, 0x18, 0xdd, 0xd4, 0xc7, 0x4b, 0xe6, 0x3c, 0x26, 0x1c, 0xdc, 0x06,
  0x4a, 0x16, 0xf6, 0xf4, 0x12, 0xe7, 0x2e, 0xfa, 0x0c, 0x47, 0x2b, 0xe0,
  0xc9, 0x00, 0x44, 0x10, 0xde, 0x4a, 0x0a, 0x46, 0xda, 0x3f, 0x05, 0xf6,
  0x2a, 0xd1, 0xdf, 0x16, 0xc3, 0xe9, 0x3b, 0xec, 0xdf, 0x17, 0xee, 0xfe,
  0x20, 0xdd, 0x10, 0x18, 0xee, 0x21, 0xbf, 0x40, 0x41, 0x0c, 0x10, 0xee,
  0x01, 0xfe, 0xd7, 0x49, 0xda, 0xe3, 0x22, 0xdc, 0x33, 0x57, 0x06, 0x31,
  0xc9, 0x33, 0x02, 0x1d, 0xf2, 0x4b, 0x16, 0x45, 0x2e, 0xe5, 0xd2, 0x1a,
  0x15, 0xf0, 0xe0, 0x48, 0x4a, 0xfd, 0x3e, 0x31, 0x16, 0x26, 0xd7, 0x2a,
  0xfc, 0xf9, 0x12, 0xdd, 0xf5, 0xd0, 0x04, 0x34, 0x1e, 0xd6, 0x49, 0x1d,
  0x07, 0xf4, 0x17, 0xe5, 0x04, 0x12, 0xdd, 0x25, 0x1a, 0x08, 0x5a, 0x29,
  0xdc, 0x22, 0x44, 0xf0, 0x08, 0x3e, 0x4f, 0x1e, 0xdf, 0xdf, 0xf9, 0x2d,
  0x0e, 0xf8, 0xe0, 0x38, 0x1d, 0x0b, 0x55, 0x32, 0xfe, 0x08, 0x07, 0x36,
  0xd3, 0x2e, 0xd0, 0x2c, 0xd8, 0x28, 0x36, 0x54, 0x27, 0xe8, 0xfd, 0x07,
  0x1c, 0xf4, 0x02, 0x21, 0x11, 0xff, 0xfa, 0x3a, 0x03, 0x51, 0xf8, 0x2a,
  0xc4, 0x02, 0xe6, 0x4a, 0x33, 0x29, 0x01, 0xe5, 0xba, 0x39, 0xea, 0x34,
  0x16, 0x09, 0xe9, 0x4d, 0x2d, 0xfb, 0xea, 0xcd, 0x0c, 0xd9, 0x03, 0x04,
  0xec, 0xdb, 0xb6, 0x44, 0xc7, 0x13, 0xd2, 0xcf, 0xda, 0x01, 0x0d, 0xea,
  0x26, 0xfd, 0x26, 0x0d, 0xce, 0x2c, 0x24, 0x3d, 0xeb, 0x35, 0xd7, 0x38,
  0xec, 0x17, 0xb6, 0xd0, 0xea, 0xf5, 0xd0, 0x37, 0xd6, 0xcc, 0xe0, 0xd3,
  0xe8, 0xd7, 0xd8, 0x2b, 0x12, 0x16, 0xf7, 0xd1, 0xc6, 0xcc, 0xeb, 0x34,
  0xcf, 0xfb, 0xcc, 0x15, 0x01, 0x1c, 0xb8, 0xd0, 0x02, 0xe7, 0xda, 0xb6,
  0xb8, 0xdc, 0xbe, 0xf5, 0xeb, 0xbb, 0xdc, 0x09, 0xe2, 0xd5, 0xd3, 0xcd,
  0x05, 0xc3, 0xd6, 0x13, 0x00, 0x0c, 0x17, 0xd8, 0xf7, 0xb7, 0x32, 0xfb,
  0x2a, 0xee, 0xbf, 0x1f, 0x31, 0x28, 0x42, 0x1a, 0xd7, 0xfe, 0x3a, 0xe8,
  0xe5, 0xcd, 0x3c, 0x03, 0xdf, 0xe5, 0xe5, 0xef, 0xde, 0x10, 0x05, 0xe9,
  0xdc, 0x36, 0xf8, 0x34, 0xe4, 0xdf, 0xe6, 0xfa, 0x3b, 0xdc, 0xca, 0x27,
  0x14, 0xf3, 0x05, 0x3c, 0x35, 0x4b, 0x18, 0x20, 0x28, 0x59, 0xdf, 0x0d,
  0xfd, 0xe3, 0x2c, 0x27, 0x59, 0x4b, 0xdd, 0x02, 0x3f, 0x0d, 0x07, 0x40,
  0xfc, 0x43, 0xed, 0xe6, 0xe3, 0x2e, 0x29, 0x1e, 0x0d, 0xc7, 0xf6, 0x2c,
  0xf8, 0x28, 0x15, 0xbc, 0xdb, 0x08, 0xda, 0x10, 0xe2, 0xfb, 0xeb, 0x15,
  0xd7, 0x1f, 0xda, 0xeb, 0xd4, 0xad, 0xd2, 0xe8, 0x39, 0xf9, 0x41, 0xba,
  0xce, 0x0b, 0x1f, 0xf2, 0x3a, 0xe9, 0x24, 0xd4, 0xcd, 0xc1, 0x2f, 0xb4,
  0x1e, 0xf1, 0xca, 0xdb, 0x2c, 0x0d, 0xf8, 0x15, 0x28, 0xc5, 0xd2, 0x1d,
  0xda, 0xbe, 0x43, 0xc5, 0x1f, 0x11, 0xfa, 0xfd, 0x34, 0x1d, 0x2b, 0xf0,
  0x24, 0x29, 0xc3, 0xc6, 0xe4, 0xb2, 0x05, 0xd4, 0xe4, 0x28, 0x37, 0x09,
  0xd2, 0xd7, 0x22, 0x15, 0xf3, 0x1a, 0x03, 0x10, 0x17, 0x2d, 0xc8, 0x10,
  0xf9, 0x11, 0xa7, 0x25, 0xfd, 0xd7, 0xdd, 0xaf, 0xac, 0xb6, 0xab, 0xbb,
  0xdb, 0x25, 0xce, 0xcf, 0xee, 0xcb, 0xcf, 0xd1, 0xb0, 0xfe, 0xcb, 0xe5,
  0x0e, 0xd2, 0xf8, 0xce, 0xe2, 0x08, 0x15, 0x0b, 0xfb, 0xfd, 0xd7, 0x21,
  0xb1, 0x2a, 0x1c, 0x34, 0xd4, 0xf9, 0xd6, 0xe7, 0xf0, 0xdd, 0xd5, 0xdc,
  0xeb, 0x15, 0xbd, 0xd0, 0x0b, 0xe4, 0xc0, 0xf4, 0xf1, 0xf7, 0xef, 0xd8,
  0xc2, 0x39, 0xdc, 0xe9, 0x34, 0xd6, 0x18, 0x16, 0x2d, 0x25, 0x2d, 0x11,
  0x32, 0x2e, 0x3a, 0xd8, 0x05, 0x21, 0x27, 0xf3, 0xd6, 0xd5, 0x34, 0x42,
  0xf0, 0x15, 0x26, 0x0f, 0x11, 0x04, 0xf2, 0x48, 0x45, 0x13, 0xe5, 0xf6,
  0x47, 0xc9, 0xcd, 0x1c, 0x10, 0x1d, 0xd9, 0xd3, 0xe6, 0x31, 0x1d, 0x42,
  0xf7, 0xca, 0x44, 0x23, 0x35, 0xec, 0xcd, 0x22, 0xe6, 0x22, 0xfe, 0x09,
  0xb1, 0xea, 0xc3, 0xe9, 0x06, 0x2d, 0xae, 0xe8, 0x22, 0xdb, 0xe9, 0x38,
  0xf1, 0x31, 0xca, 0x13, 0xdc, 0x0a, 0x1c, 0x11, 0x21, 0xde, 0x08, 0x12,
  0x28, 0xf6, 0xe4, 0x19, 0x13, 0xf9, 0x10, 0xc1, 0x00, 0x28, 0xdc, 0x0a,
  0x2b, 0xdc, 0xe9, 0x06, 0xac, 0x3a, 0xf3, 0x27, 0xe3, 0xc9, 0xdc, 0x40,
  0xd8, 0xfa, 0xb8, 0xc1, 0xda, 0xe7, 0x23, 0x00, 0x19, 0xe6, 0xf2, 0xd8,
  0xf8, 0x25, 0xe6, 0x40, 0xae, 0xf6, 0x30, 0xcc, 0x01, 0x0c, 0xee, 0x03,
  0xe2, 0x25, 0xe4, 0x10, 0x20, 0x2a, 0x35, 0x0a, 0xdf, 0xc9, 0x2a, 0x2f,
  0x1e, 0xbc, 0x32, 0x39, 0xf5, 0x2d, 0x38, 0x06, 0x3c, 0x0d, 0x0d, 0x21,
  0xca, 0xfc, 0x21, 0x15, 0xe1, 0xe0, 0xe2, 0xc2, 0x27, 0x3e, 0x0b, 0x23,
  0x2b, 0xd8, 0xf1, 0xed, 0x3e, 0xf8, 0xf2, 0xda, 0x49, 0x3e, 0x13, 0x03,
  0x3a, 0xbc, 0xe5, 0x27, 0x1a, 0x02, 0x3f, 0x15, 0xe3, 0x1d, 0xd6, 0xd5,
  0x0e, 0xe3, 0x42, 0xf9, 0xfa, 0x2f, 0xe3, 0xd1, 0xda, 0x1c, 0xd2, 0xeb,
  0x18, 0x1a, 0x08, 0x02, 0xd3, 0xd5, 0xdf, 0xe8, 0x3a, 0xc4, 0x02, 0xb1,
  0x3d, 0xc5, 0xe2, 0xd8, 0xf3, 0xcd, 0xc6, 0x2b, 0xd2, 0xfe, 0x19, 0x12,
  0xdf, 0xdd, 0x44, 0xcb, 0x3e, 0xc1, 0x26, 0x11, 0xd0, 0xe0, 0xfb, 0xd5,
  0xe6, 0x0b, 0xc4, 0xc1, 0xf9, 0xf3, 0xe6, 0xff, 0xcb, 0xda, 0xec, 0x2e,
  0xfe, 0xe0, 0xdd, 0xc1, 0xec, 0xda, 0x16, 0x20, 0xd8, 0x0c, 0x14, 0xba,
  0x03, 0xe9, 0xfe, 0x39, 0xed, 0xea, 0xc8, 0xfb, 0xdf, 0x0d, 0x3b, 0xbb,
  0x36, 0xeb, 0xca, 0x1e, 0xbd, 0x35, 0x16, 0xd2, 0x17, 0x09, 0x27, 0xf3,
  0xe6, 0xfd, 0xec, 0x09, 0xda, 0xe5, 0x26, 0x04, 0xd8, 0xcd, 0xff, 0x55,
  0xc4, 0xf8, 0x20, 0x4b, 0xd9, 0xe5, 0xd9, 0x5b, 0xee, 0x4a, 0x36, 0x48,
  0xef, 0x38, 0xd4, 0x56, 0xe6, 0x28, 0xeb, 0x2c, 0xc9, 0x03, 0x0e, 0x16,
  0x1d, 0x31, 0x35, 0x43, 0xf8, 0xc8, 0x25, 0xdc, 0x08, 0xe0, 0xd8, 0x0d,
  0xbe, 0x09, 0xcb, 0xfc, 0xf5, 0x31, 0xed, 0x2b, 0xc8, 0xdf, 0xd9, 0xac,
  0xe2, 0xb5, 0xef, 0xeb, 0xd5, 0xe5, 0xdb, 0xe6, 0x14, 0xba, 0xd6, 0xf8,
  0x16, 0xc9, 0xc0, 0xad, 0xf6, 0xcf, 0x0d, 0xbf, 0xfc, 0xe1, 0xd6, 0xbe,
  0xe4, 0xe4, 0x08, 0xd9, 0x11, 0xef, 0x30, 0x0e, 0x18, 0x2d, 0x2d, 0xf5,
  0x2b, 0x28, 0x3a, 0xe7, 0x21, 0x44, 0xe2, 0xe0, 0xd2, 0x42, 0xeb, 0xff,
  0x29, 0xea, 0x21, 0x15, 0xef, 0xd9, 0x20, 0x53, 0xf8, 0x1e, 0x31, 0xec,
  0x3b, 0xe1, 0x2c, 0x0f, 0xd0, 0x45, 0x30, 0x14, 0x37, 0xf0, 0x02, 0x34,
  0xcc, 0x3c, 0x10, 0xcc, 0x00, 0xec, 0x44, 0xe4, 0xfd, 0xe3, 0xf4, 0x0e,
  0x01, 0xca, 0xea, 0x0c, 0xf8, 0xb7, 0xde, 0xf3, 0xc8, 0x11, 0xd2, 0x2d,
  0xe0, 0x22, 0xcd, 0xb9, 0x1e, 0xe6, 0xd9, 0x07, 0xca, 0x17, 0x23, 0xb5,
  0x0a, 0xd7, 0x1b, 0x08, 0x21, 0x16, 0x27, 0x1b, 0xcc, 0xf9, 0x12, 0xb2,
  0x16, 0xef, 0xf5, 0xc8, 0x1e, 0xb7, 0x2f, 0x0c, 0x0b, 0xe8, 0x37, 0xed,
  0x29, 0xf1, 0x15, 0xe8, 0x0c, 0xfa, 0x15, 0x29, 0xd1, 0xc7, 0xf6, 0x17,
  0xc9, 0xe4, 0xeb, 0x2d, 0xd1, 0xe2, 0x21, 0xe1, 0xfd, 0x24, 0x36, 0x18,
  0x32, 0xfe, 0x44, 0xca, 0xfc, 0xdd, 0xd1, 0x29, 0xf6, 0xbc, 0xec, 0xcf,
  0xf0, 0xc7, 0x27, 0x36, 0x3f, 0x19, 0x1f, 0xcc, 0x3b, 0x26, 0xdd, 0xdf,
  0x04, 0x29, 0x1d, 0x12, 0x1e, 0x33, 0xc9, 0xda, 0xfd, 0x24, 0xef, 0x4a,
  0xbe, 0x43, 0xe4, 0x34, 0xbc, 0x2e, 0xf1, 0x2a, 0xe7, 0x2c, 0x0c, 0x0f,
  0x21, 0x56, 0xc9, 0xff, 0xd8, 0x3b, 0xee, 0x33, 0x15, 0xf4, 0xee, 0xcd,
  0x1a, 0x1e, 0x05, 0x2b, 0x0f, 0xfe, 0xe7, 0x21, 0x08, 0x09, 0xf9, 0x2d,
  0xc9, 0x1f, 0xbf, 0xed, 0xd4, 0xe2, 0x0b, 0xb7, 0xb7, 0xab, 0xee, 0xf9,
  0xc1, 0xf8, 0xd8, 0xf3, 0x21, 0xc7, 0xba, 0x18, 0xd9, 0xf1, 0xb3, 0xd8,
  0x1e, 0x24, 0xfd, 0xa8, 0xe2, 0x20, 0xe5, 0x0c, 0x30, 0xc3, 0xea, 0xb2,
  0xeb, 0x28, 0xfd, 0xbf, 0x09, 0x30, 0x03, 0x18, 0x17, 0x44, 0xea, 0xc8,
  0xe1, 0x24, 0xc4, 0xea, 0x3e, 0x2c, 0x27, 0x3a, 0xcd, 0x1d, 0x33, 0xe6,
  0xeb, 0xff, 0x39, 0xe8, 0xfc, 0xfa, 0x1a, 0x34, 0xcf, 0xe3, 0x0b, 0x3d,
  0xd9, 0x37, 0x26, 0x0d, 0x29, 0xf7, 0xd4, 0x49, 0x35, 0xdb, 0xdc, 0xe7,
  0xe2, 0x49, 0xdd, 0x1c, 0xdd, 0x01, 0x30, 0x41, 0x1a, 0x37, 0x37, 0x3d,
  0x3d, 0x0e, 0xd1, 0x33, 0xd5, 0xf9, 0x49, 0x15, 0x41, 0xdd, 0xfa, 0xc6,
  0x07, 0x0a, 0x00, 0xeb, 0xd9, 0x0b, 0x24, 0x28, 0x12, 0x07, 0x1e, 0xb0,
  0x00, 0xe1, 0xca, 0x1e, 0xcb, 0xae, 0x4c, 0x13, 0x2c, 0xf2, 0x2d, 0xbc,
  0x36, 0xb1, 0x09, 0xf1, 0xf3, 0x1f, 0x27, 0x18, 0x2a, 0xf6, 0x4b, 0x0c,
  0x24, 0xb8, 0x20, 0xe2, 0xe1, 0xcd, 0x31, 0xbe, 0x07, 0x2d, 0xfe, 0x2d,
  0x15, 0x12, 0xff, 0xf5, 0xca, 0xdd, 0x2f, 0x30, 0x3c, 0xd4, 0xf4, 0xce,
  0x0d, 0xea, 0xf8, 0xbe, 0xd4, 0xbc, 0x1b, 0xc0, 0x41, 0x04, 0x40, 0xf5,
  0x19, 0xdb, 0xd6, 0xec, 0xce, 0x3b, 0xdb, 0x17, 0xd7, 0xcd, 0x06, 0xcb,
  0xfd, 0xf9, 0xdd, 0x25, 0x24, 0xe2, 0x4c, 0x92, 0xe0, 0xdf, 0x08, 0xe4,
  0xea, 0x97, 0xe3, 0xd6, 0xe1, 0x8a, 0xdf, 0xfc, 0x29, 0xab, 0xde, 0x9f,
  0x2a, 0xc6, 0x2b, 0xf4, 0x1b, 0xb6, 0xbd, 0xd1, 0xe0, 0xfd, 0xb3, 0xef,
  0xd6, 0x20, 0xb5, 0x25, 0xea, 0xd0, 0xa8, 0x10, 0xa8, 0xe8, 0xa7, 0x39,
  0xc0, 0x08, 0x00, 0x3f, 0x0b, 0x3d, 0xbd, 0xe2, 0xd2, 0x19, 0xfb, 0xeb,
  0xee, 0x14, 0xc7, 0x0a, 0x11, 0x0c, 0xd2, 0x28, 0x2d, 0x3b, 0xec, 0x29,
  0x31, 0x66, 0x16, 0x23, 0x12, 0x25, 0x36, 0xfd, 0x2b, 0x04, 0x0b, 0x46,
  0x31, 0x3e, 0x47, 0xf5, 0xfe, 0xed, 0xeb, 0x13, 0x0d, 0xd0, 0x15, 0x03,
  0xec, 0xeb, 0x1d, 0x06, 0x3a, 0xdc, 0x40, 0x17, 0x3a, 0xe5, 0x05, 0xe9,
  0xe9, 0xd9, 0x38, 0xd8, 0x47, 0x17, 0x53, 0xe3, 0x23, 0xdd, 0x47, 0x1c,
  0x29, 0xc9, 0x4d, 0xc1, 0xf2, 0xc5, 0xe4, 0x1c, 0xf4, 0xcb, 0xf9, 0x44,
  0x55, 0xde, 0xe5, 0x02, 0x23, 0xdc, 0xe6, 0x15, 0x37, 0xd8, 0x33, 0x29,
  0x13, 0x07, 0xe3, 0xeb, 0x21, 0x0f, 0x53, 0xd9, 0x13, 0xe7, 0x15, 0xde,
  0xd1, 0x05, 0xff, 0x02, 0x0a, 0x4d, 0xf2, 0xd5, 0x2c, 0xdb, 0xd8, 0x39,
  0x04, 0xe1, 0x27, 0x34, 0x38, 0x28, 0xf4, 0x10, 0x08, 0x0a, 0xfd, 0x3e,
  0x13, 0x12, 0xcf, 0x1a, 0x40, 0xd6, 0xe1, 0xe6, 0x2b, 0x3a, 0xf2, 0x40,
  0xd7, 0xd1, 0x2b, 0xef, 0x32, 0x2f, 0xd6, 0x29, 0xd4, 0xc5, 0xd2, 0x24,
  0xb5, 0xe5, 0xdb, 0x2f, 0x01, 0xc9, 0xb2, 0x16, 0xee, 0xee, 0xf2, 0x42,
  0x20, 0x0c, 0xf5, 0xdc, 0xfd, 0x1b, 0x2c, 0xf3, 0xdc, 0x2e, 0x07, 0xe8,
  0xc4, 0x06, 0xbf, 0x21, 0x07, 0xd1, 0x18, 0x43, 0xd8, 0xd2, 0xee, 0x03,
  0xb5, 0xfe, 0x0d, 0xd3, 0xdb, 0x1c, 0x38, 0xcd, 0x34, 0x0f, 0xc3, 0xbf,
  0xd9, 0xb7, 0xdf, 0x02, 0x37, 0xd4, 0xff, 0x21, 0x1e, 0x1a, 0x3d, 0xd1,
  0xfd, 0xd5, 0xf4, 0xf1, 0xdd, 0xda, 0x3b, 0xd6, 0xe9, 0x01, 0xdb, 0x15,
  0x1c, 0x25, 0x42, 0x0d, 0x26, 0x39, 0xf8, 0x1b, 0xfe, 0x35, 0x33, 0x48,
  0xff, 0xec, 0x19, 0x3c, 0x24, 0x4b, 0xf6, 0xef, 0xeb, 0x0c, 0x0b, 0x54,
  0x23, 0x09, 0x1f, 0x31, 0xf2, 0x1d, 0x0f, 0xdc, 0xde, 0xf7, 0x2d, 0x45,
  0x23, 0x55, 0x43, 0x0c, 0x0c, 0xe9, 0xe5, 0xf7, 0xe7, 0x3f, 0x2c, 0xfe,
  0x1f, 0xf6, 0xdc, 0x38, 0xd7, 0xfd, 0x37, 0x1b, 0x0e, 0x33, 0xea, 0x26,
  0xff, 0x19, 0x2a, 0x29, 0xc0, 0x43, 0xee, 0xdc, 0xad, 0x2d, 0xb5, 0x09,
  0x2a, 0x2e, 0xe1, 0x33, 0xbc, 0xee, 0xcc, 0xf5, 0xf5, 0x33, 0xe7, 0xc3,
  0xf5, 0xc4, 0xbb, 0x30, 0xce, 0x30, 0xcf, 0xeb, 0xc0, 0xbd, 0xd1, 0xe8,
  0x29, 0xe7, 0xd0, 0xf4, 0xba, 0xb7, 0xdd, 0x26, 0x0c, 0xff, 0x25, 0xf8,
  0xf3, 0xe9, 0xbe, 0xba, 0x04, 0x0b, 0xe6, 0xb6, 0xe4, 0xf8, 0x07, 0xb5,
  0xd5, 0xaa, 0xf2, 0xd0, 0x15, 0xe4, 0xbd, 0xfd, 0xff, 0x18, 0xe1, 0xc2,
  0xd9, 0xf2, 0x02, 0xe6, 0x25, 0xbd, 0x01, 0x30, 0x04, 0xe8, 0x2c, 0x23,
  0xc7, 0x0b, 0xe0, 0xe9, 0xbc, 0xc3, 0xe4, 0x11, 0x24, 0xea, 0xb3, 0xf3,
  0x01, 0x0c, 0xf5, 0x24, 0xc9, 0x2e, 0x02, 0xe7, 0x01, 0x32, 0xca, 0x34,
  0x1e, 0x00, 0xd5, 0x2f, 0xe0, 0x13, 0x1d, 0x1a, 0xd1, 0xdb, 0xb9, 0x30,
  0x05, 0xf3, 0xcb, 0x2a, 0xf7, 0x3e, 0xca, 0xd1, 0xd7, 0x42, 0x24, 0xd6,
  0x04, 0x13, 0xe4, 0xfc, 0x0e, 0xf0, 0x31, 0xfd, 0x10, 0xd1, 0x20, 0xd9,
  0x24, 0x23, 0xc9, 0xed, 0x29, 0x3c, 0xb4, 0x04, 0x03, 0x31, 0x1a, 0xf3,
  0xe2, 0xf5, 0xba, 0x08, 0xfa, 0x3d, 0xd3, 0xe5, 0xe5, 0x05, 0xe3, 0xd5,
  0xe3, 0xfb, 0xd3, 0xf8, 0xc0, 0x3d, 0x12, 0x11, 0x1c, 0xf0, 0x0e, 0xef,
  0xf8, 0xee, 0x2b, 0x2b, 0x3b, 0x27, 0xd2, 0xe8, 0x1f, 0x10, 0xfa, 0x01,
  0xeb, 0xd6, 0x3a, 0xef, 0x4a, 0xb5, 0x3d, 0xcc, 0xc5, 0x24, 0x3d, 0xb3,
  0xef, 0xe0, 0x43, 0x07, 0x32, 0xb4, 0x06, 0xfa, 0xcd, 0x22, 0x0a, 0xd3,
  0xd4, 0x29, 0x1a, 0xd5, 0xe1, 0x36, 0x30, 0x03, 0x24, 0x00, 0xd7, 0xd4,
  0xe9, 0xdb, 0xd6, 0xed, 0x17, 0x11, 0x2b, 0xfa, 0xf9, 0x20, 0x01, 0x1a,
  0x36, 0xdc, 0x07, 0xcf, 0xbf, 0x04, 0xcf, 0x1f, 0x25, 0xf8, 0xdd, 0x2f,
  0x18, 0x20, 0x07, 0x2e, 0xd2, 0x42, 0x19, 0x43, 0xad, 0xd0, 0x29, 0x05,
  0x11, 0xfa, 0xc1, 0x0b, 0xd8, 0x1f, 0xd7, 0x08, 0xfc, 0x0e, 0xa9, 0x3f,
  0xbe, 0xf1, 0x05, 0xc9, 0x0a, 0x23, 0x0b, 0xe1, 0x16, 0x3f, 0xc7, 0xe7,
  0xc6, 0x0a, 0xc3, 0xbb, 0xb5, 0xe0, 0xdc, 0xda, 0x05, 0xc6, 0xb5, 0x17,
  0x17, 0xcf, 0xb5, 0x34, 0xe1, 0xf6, 0xcf, 0x0d, 0xd5, 0xbf, 0xcb, 0x25,
  0xbf, 0xd2, 0x0a, 0xfc, 0x15, 0x0d, 0x00, 0x17, 0x0f, 0x25, 0xf2, 0xbc,
  0x22, 0x08, 0x27, 0xde, 0x1b, 0xd2, 0xc3, 0x05, 0xb7, 0xf2, 0x27, 0x0f,
  0x26, 0xba, 0xe7, 0xc8, 0x15, 0x2e, 0xe5, 0x0a, 0xbf, 0xaf, 0xfd, 0x14,
  0x28, 0x0a, 0xe0, 0xa9, 0xc3, 0xff, 0xc9, 0xf0, 0xf5, 0xc5, 0x1a, 0xb2,
  0xdd, 0x28, 0xcf, 0xdc, 0x07, 0xff, 0x34, 0xca, 0x30, 0xab, 0xe2, 0xc9,
  0xd4, 0xc3, 0xdd, 0xb3, 0xdd, 0x12, 0xe4, 0xeb, 0xdd, 0x0f, 0x37, 0x00,
  0xe9, 0xff, 0x11, 0x11, 0x37, 0x14, 0xea, 0x19, 0xe9, 0x43, 0x32, 0x42,
  0x21, 0xf2, 0x10, 0x45, 0xe9, 0x04, 0x31, 0x2b, 0x16, 0x22, 0x27, 0xd6,
  0xfe, 0x1e, 0xe5, 0x1b, 0x10, 0xdb, 0x1d, 0xfc, 0xea, 0x0f, 0x50, 0xd0,
  0x2a, 0xd5, 0x41, 0x28, 0x26, 0xdc, 0x23, 0xe1, 0x16, 0x01, 0x3e, 0xc9,
  0x0f, 0xd7, 0x3d, 0xac, 0xeb, 0x10, 0x2b, 0x19, 0x1a, 0xee, 0x30, 0xf8,
  0xf5, 0xb4, 0xc8, 0xe6, 0x2a, 0xc2, 0x1f, 0xc0, 0x1c, 0xc4, 0xdd, 0xd4,
  0x0e, 0xbd, 0x25, 0xd4, 0x0b, 0xd7, 0x23, 0xed, 0x22, 0x15, 0x10, 0xb9,
  0x0d, 0xe3, 0x02, 0xe6, 0xda, 0x29, 0x25, 0xcc, 0xea, 0xf5, 0xfe, 0x2e,
  0xea, 0x26, 0xf1, 0xc3, 0xa9, 0x14, 0xc4, 0xdc, 0xf5, 0x0c, 0x11, 0x1f,
  0x14, 0x08, 0xe3, 0xac, 0xfd, 0x2f, 0xc2, 0x1d, 0x21, 0xe0, 0xd6, 0xbb,
  0xcf, 0xca, 0x09, 0xe4, 0xde, 0xf6, 0xef, 0xc9, 0xaa, 0xff, 0xea, 0x1d,
  0x1d, 0x04, 0xc2, 0xb9, 0xc8, 0x05, 0xe7, 0x17, 0xed, 0xb5, 0x01, 0x33,
  0x27, 0xdd, 0xf3, 0xde, 0x2c, 0xda, 0x28, 0xc1, 0x02, 0xfe, 0x1f, 0x18,
  0xc9, 0xe0, 0x0d, 0x19, 0xed, 0xd9, 0xe9, 0x39, 0xdf, 0x27, 0xdd, 0xc2,
  0x06, 0xfb, 0x37, 0xec, 0x0e, 0x0d, 0xfe, 0x2b, 0x0e, 0x0b, 0x19, 0xe2,
  0xff, 0x2e, 0x27, 0x27, 0xd9, 0xd3, 0x1d, 0xca, 0xd7, 0x0b, 0x2a, 0x3a,
  0x3c, 0x47, 0xf0, 0xef, 0x06, 0xec, 0x31, 0x15, 0x1c, 0xd1, 0x34, 0xe3,
  0x2c, 0xce, 0x19, 0xff, 0xdb, 0x1e, 0x2a, 0xff, 0x0a, 0x27, 0xda, 0x35,
  0x2d, 0xf5, 0xdc, 0xd1, 0x49, 0x33, 0x48, 0xfa, 0x28, 0xf8, 0x29, 0xf9,
  0xef, 0x09, 0x49, 0xc0, 0x05, 0xb9, 0x1c, 0xef, 0x55, 0xe0, 0x12, 0xdd,
  0xf2, 0xbf, 0xd4, 0xce, 0x2e, 0xcc, 0xf3, 0xc5, 0x0e, 0x0a, 0xf9, 0x36,
  0xdd, 0x1b, 0xc4, 0xfb, 0xb4, 0x0a, 0xcc, 0xcc, 0x15, 0x2b, 0x0a, 0xeb,
  0x21, 0xfb, 0x1e, 0x00, 0x0f, 0x24, 0xef, 0xe0, 0xab, 0x28, 0x22, 0x17,
  0xdf, 0x2a, 0xac, 0xc2, 0x07, 0x13, 0x0b, 0x0c, 0xa8, 0xc1, 0xe4, 0x31,
  0xf1, 0xfb, 0xfd, 0x2e, 0xb9, 0xf5, 0xe4, 0xed, 0xf3, 0xdb, 0x19, 0x04,
  0xb0, 0xe9, 0x10, 0xd7, 0xca, 0xdc, 0xca, 0xea, 0xb5, 0xd1, 0x11, 0x21,
  0xb4, 0x29, 0xb6, 0xc9, 0x0f, 0x12, 0xcc, 0xd3, 0xe5, 0xf4, 0x11, 0x26,
  0x06, 0x17, 0x1d, 0x30, 0x20, 0xe0, 0xd6, 0x05, 0xc2, 0xf7, 0x1a, 0xfb,
  0x1b, 0xe5, 0x2c, 0xf8, 0x40, 0xf5, 0xe7, 0xe4, 0xc4, 0xf2, 0xec, 0xea,
  0xd9, 0x26, 0xfe, 0xd5, 0x2e, 0x10, 0xd8, 0x3d, 0xd4, 0x39, 0x19, 0xdd,
  0xd7, 0xe6, 0x09, 0xde, 0x25, 0xc1, 0xf4, 0x17, 0x42, 0xd8, 0xc3, 0xb8,
  0xf2, 0x21, 0x1c, 0xf9, 0x3c, 0x11, 0xdb, 0xf0, 0xe4, 0xc2, 0xf9, 0x26,
  0x24, 0x09, 0xcf, 0xfc, 0x31, 0x0d, 0x00, 0xf0, 0xf9, 0xfb, 0xbe, 0xea,
  0x36, 0xd4, 0x0a, 0x0c, 0x21, 0xc4, 0xb9, 0xca, 0xfc, 0xf0, 0x02, 0xdf,
  0x2d, 0x2e, 0xdf, 0x20, 0xbb, 0xec, 0xdb, 0x02, 0xb9, 0xde, 0xb2, 0xae,
  0xdd, 0xdb, 0xd0, 0x21, 0x0a, 0xf3, 0x2c, 0xbb, 0x2c, 0xfc, 0xc2, 0xec,
  0xe6, 0xba, 0xd9, 0xc3, 0xf8, 0x1e, 0x1d, 0xf8, 0xe9, 0xb7, 0xc8, 0x0d,
  0xfa, 0x31, 0xee, 0x11, 0x03, 0xcb, 0x19, 0x24, 0xf3, 0xe6, 0x26, 0x1f,
  0xcf, 0x21, 0xc4, 0x15, 0x24, 0xd4, 0x08, 0xe7, 0x1c, 0xd6, 0xf1, 0x1f,
  0x01, 0x07, 0xb5, 0xf5, 0xf4, 0x09, 0xcf, 0xb2, 0xec, 0x12, 0xed, 0xfc,
  0x08, 0x0f, 0xe3, 0xf9, 0x34, 0xf9, 0xe3, 0x26, 0x05, 0xcd, 0xe1, 0xdb,
  0x26, 0x28, 0x4a, 0xee, 0xf2, 0x37, 0x2e, 0xf4, 0x1e, 0x15, 0x29, 0xff,
  0x39, 0x05, 0x21, 0x07, 0x53, 0xce, 0x31, 0x45, 0x49, 0x24, 0xfa, 0x48,
  0xfb, 0xcc, 0x4c, 0xd9, 0x44, 0xe9, 0x46, 0xed, 0xed, 0x2f, 0x28, 0xe3,
  0x30, 0x51, 0x39, 0x29, 0x22, 0x59, 0x24, 0xe5, 0x31, 0x00, 0x43, 0x22,
  0x17, 0x22, 0xe9, 0x04, 0x4e, 0x38, 0x28, 0xdf, 0x3e, 0xe8, 0xd6, 0x50,
  0x05, 0xf8, 0xd6, 0xf0, 0xbd, 0x23, 0xf3, 0x03, 0x15, 0xd2, 0x1b, 0x06,
  0xc5, 0xcb, 0xca, 0x25, 0x06, 0xdc, 0x23, 0xc2, 0x1e, 0xd6, 0xb2, 0xef,
  0xab, 0x10, 0xe1, 0x25, 0xf3, 0x07, 0xbf, 0xbe, 0xee, 0xbe, 0xca, 0x1c,
  0xa5, 0xb2, 0x0f, 0xe0, 0xbf, 0xf4, 0xac, 0x28, 0xcf, 0x0f, 0xb0, 0x2a,
  0xa4, 0x07, 0xea, 0x17, 0xed, 0xbc, 0xcf, 0xd8, 0xdb, 0xe1, 0xf3, 0x25,
  0x09, 0x3d, 0x20, 0x15, 0xfd, 0xeb, 0xd2, 0x15, 0xe1, 0x24, 0xdd, 0xcf,
  0xac, 0x2f, 0x1b, 0x2b, 0xc8, 0x2a, 0xe2, 0x0d, 0xf7, 0xe2, 0xe3, 0xe3,
  0xe7, 0xda, 0xbe, 0x0d, 0xfa, 0x41, 0xe6, 0x41, 0xc5, 0x1e, 0xff, 0x4f,
  0x09, 0x2b, 0xfb, 0xf6, 0x0d, 0x59, 0xf1, 0xeb, 0xf6, 0xfd, 0xdc, 0x53,
  0xf9, 0xff, 0xdf, 0xe7, 0x1b, 0xdb, 0x23, 0x54, 0xec, 0xe0, 0xf9, 0xea,
  0x1b, 0xe8, 0x1f, 0x4c, 0xf4, 0x0e, 0xdb, 0x41, 0xd4, 0x28, 0xf3, 0x32,
  0x3c, 0xd4, 0xf8, 0x12, 0xeb, 0xd4, 0x27, 0x4a, 0xe1, 0x24, 0x26, 0x3e,
  0xd8, 0xf9, 0x4b, 0xec, 0xdc, 0xf0, 0x2f, 0x2e, 0x15, 0xdf, 0xf8, 0x40,
  0xef, 0xfc, 0xfc, 0xee, 0x38, 0xcf, 0x1b, 0xfe, 0xfc, 0xe2, 0x47, 0xac,
  0x21, 0x16, 0xf3, 0xf4, 0x30, 0xb2, 0xe9, 0xdc, 0x06, 0xb7, 0x07, 0xc5,
  0xf2, 0xe1, 0xf2, 0xfd, 0x1b, 0xea, 0x3c, 0x24, 0xd4, 0xe0, 0xd1, 0x29,
  0x32, 0x2d, 0x36, 0x37, 0x47, 0x2b, 0x20, 0x1e, 0x0b, 0x39, 0x49, 0xe8,
  0x32, 0xf1, 0xd7, 0x4c, 0x02, 0x0e, 0xce, 0x34, 0xe8, 0xd6, 0xd4, 0xd3,
  0x3f, 0x1d, 0x39, 0x1c, 0x0e, 0xf0, 0xcd, 0x4c, 0x16, 0x49, 0x4c, 0x37,
  0xd2, 0x4e, 0x20, 0xee, 0x00, 0x04, 0x1f, 0x3f, 0x3f, 0x4a, 0x0e, 0xe5,
  0x33, 0x01, 0x1d, 0xdb, 0xc4, 0x17, 0xc7, 0xe6, 0x38, 0x10, 0xe9, 0xff,
  0x22, 0x05, 0x35, 0x0f, 0xc2, 0xfb, 0xca, 0xf3, 0xd4, 0x03, 0xc8, 0xc8,
  0xea, 0x03, 0x41, 0x17, 0x33, 0xd7, 0xff, 0xfd, 0x2b, 0x09, 0x02, 0x25,
  0xd5, 0xff, 0x3b, 0x0d, 0xdc, 0x31, 0x09, 0xe3, 0x07, 0x12, 0x08, 0xc1,
  0x42, 0x12, 0xdd, 0xb7, 0xfa, 0x30, 0x0a, 0xcb, 0x2c, 0x3e, 0x0e, 0x3b,
  0x07, 0x11, 0xdf, 0x1e, 0x37, 0xcc, 0xc4, 0x12, 0xf1, 0xdc, 0x32, 0x09,
  0xc9, 0x49, 0x17, 0x08, 0x1a, 0xf1, 0xbb, 0x31, 0xd0, 0x19, 0xe4, 0x38,
  0xf6, 0x4b, 0x2b, 0xef, 0x24, 0xf4, 0x19, 0xdd, 0xf1, 0xee, 0xda, 0x4e,
  0xdb, 0x3c, 0x18, 0xfa, 0xe3, 0xdd, 0x26, 0x40, 0xf3, 0x09, 0xc2, 0xf5,
  0x3b, 0x0e, 0xe5, 0xcd, 0x24, 0x3e, 0x38, 0x22, 0xef, 0x47, 0xd4, 0xd6,
  0xef, 0xd2, 0x1c, 0xde, 0xd2, 0xcc, 0xf2, 0xeb, 0x10, 0x21, 0xd0, 0x18,
  0x30, 0xdd, 0xe6, 0xe1, 0x34, 0xee, 0x1f, 0x20, 0xe6, 0x40, 0xbd, 0x1b,
  0x05, 0x2e, 0x11, 0xfe, 0xd0, 0xfd, 0xd0, 0xe3, 0xc9, 0xc3, 0xff, 0xe3,
  0xb7, 0xc5, 0x35, 0xf6, 0x14, 0x27, 0x44, 0x3c, 0xd7, 0x59, 0x4f, 0x21,
  0xe6, 0x47, 0xe0, 0x38, 0x3d, 0xea, 0x24, 0xdf, 0xfa, 0xec, 0x40, 0xea,
  0x37, 0xee, 0x39, 0x43, 0x06, 0x20, 0xda, 0xff, 0x3c, 0x27, 0x3b, 0x09,
  0x55, 0xee, 0x36, 0x3d, 0xdb, 0xda, 0x32, 0xd3, 0x38, 0x1d, 0xea, 0x29,
  0xd2, 0x09, 0xe7, 0xb1, 0x10, 0xf9, 0xd5, 0xc1, 0xf8, 0xa1, 0x25, 0xb4,
  0xff, 0xf7, 0x31, 0xcc, 0x2e, 0xa4, 0x1a, 0x05, 0x2e, 0x18, 0x11, 0xd6,
  0xd4, 0x12, 0xe8, 0xe9, 0xc4, 0xfb, 0x00, 0x9f, 0x00, 0xa2, 0xca, 0xd1,
  0xf5, 0xd6, 0xc8, 0xe2, 0xe8, 0xef, 0xf8, 0xef, 0x01, 0xd2, 0xcf, 0x08,
  0xcb, 0xd7, 0x32, 0x11, 0xf9, 0xcb, 0x29, 0x21, 0x02, 0x0c, 0x15, 0x1e,
  0x27, 0xb1, 0xf7, 0x2f, 0xba, 0xb2, 0x2a, 0xf6, 0xb4, 0x13, 0xcb, 0x33,
  0x26, 0x05, 0xe7, 0xd8, 0xb2, 0xf5, 0x25, 0x22, 0x2b, 0xfc, 0xe8, 0xb8,
  0x22, 0x02, 0xf6, 0xbc, 0x05, 0xec, 0xda, 0xfd, 0xf8, 0x26, 0x37, 0xdf,
  0xb3, 0x22, 0x18, 0xed, 0x19, 0x08, 0x1c, 0x0b, 0x31, 0xdc, 0x16, 0xd9,
  0xe8, 0x15, 0xfe, 0x2b, 0x10, 0x23, 0xf8, 0x04, 0x03, 0x15, 0xb3, 0xd0,
  0xc4, 0x07, 0xfd, 0xee, 0xe9, 0xd2, 0xe9, 0x44, 0xb7, 0x0a, 0x01, 0x2a,
  0x21, 0x01, 0x31, 0x29, 0xc0, 0x30, 0xe1, 0x02, 0x03, 0x24, 0x2a, 0x30,
  0x07, 0x34, 0xca, 0x37, 0xeb, 0x2e, 0x24, 0x1e, 0xde, 0x32, 0x1d, 0x41,
  0x23, 0xe0, 0x40, 0xf7, 0x1a, 0x36, 0xe4, 0xd6, 0xe4, 0xc6, 0xef, 0x31,
  0xf3, 0xca, 0xfb, 0x42, 0x25, 0x21, 0x20, 0xc1, 0xe7, 0xc1, 0xf4, 0xdd,
  0x1d, 0x27, 0x41, 0xf6, 0x2a, 0xc2, 0xf2, 0xc4, 0x1a, 0x05, 0xe6, 0xe0,
  0x51, 0xdb, 0x22, 0x89, 0x0f, 0xe7, 0x12, 0x98, 0x22, 0x92, 0xac, 0xb5,
  0xf0, 0xc4, 0xe6, 0x9b, 0x17, 0x8c, 0xab, 0x98, 0x13, 0xf4, 0xf6, 0xd0,
  0xb0, 0xe7, 0x0c, 0xd9, 0xb8, 0xb7, 0xd9, 0x1f, 0xf9, 0xcc, 0xae, 0xe7,
  0xfd, 0xcd, 0xa6, 0x08, 0x0c, 0x3b, 0x1a, 0x03, 0xbe, 0xf1, 0xc3, 0x07,
  0xd3, 0xe6, 0x08, 0xee, 0xdf, 0x3d, 0x06, 0x56, 0xcf, 0x05, 0x05, 0x16,
  0x27, 0xff, 0xe0, 0x0d, 0xca, 0x68, 0xef, 0xf0, 0x41, 0x0e, 0xc4, 0x21,
  0x08, 0xe6, 0x02, 0x2a, 0xe8, 0x45, 0xe7, 0xfa, 0xdf, 0x03, 0x0a, 0xff,
  0xdb, 0xd9, 0xfe, 0xfe, 0xe4, 0x42, 0x41, 0xf3, 0x55, 0x0d, 0x3b, 0x05,
  0x10, 0xfc, 0x0d, 0xd6, 0x09, 0xd0, 0x01, 0x20, 0x07, 0x41, 0x2c, 0x16,
  0xf7, 0xf8, 0x09, 0x3a, 0x09, 0xf9, 0xe9, 0xd4, 0xf8, 0x02, 0xf4, 0x2b,
  0xfc, 0xe9, 0xe5, 0xe4, 0x64, 0x0b, 0x33, 0xe6, 0x32, 0x10, 0x29, 0x3d,
  0xf5, 0xf4, 0x4b, 0xea, 0x1c, 0x4c, 0xfa, 0xd5, 0x46, 0xeb, 0xf1, 0x24,
  0x3c, 0x14, 0x5f, 0xf3, 0x38, 0xcf, 0x53, 0xd8, 0x26, 0x19, 0x17, 0xfe,
  0x19, 0x05, 0x32, 0x38, 0xd5, 0x1e, 0x24, 0x07, 0x06, 0x0b, 0xdf, 0xd5,
  0x09, 0x19, 0x26, 0x00, 0xd8, 0xed, 0xd9, 0x41, 0xea, 0x07, 0x0c, 0xd6,
  0xcc, 0xcb, 0x04, 0x33, 0xc9, 0x3c, 0xff, 0xed, 0xfd, 0x24, 0x03, 0xf2,
  0xc9, 0x47, 0xeb, 0xde, 0xfb, 0x2c, 0x2f, 0xf5, 0x10, 0xf7, 0xf8, 0x02,
  0x32, 0xd8, 0x35, 0x02, 0x43, 0x18, 0x1d, 0x17, 0x41, 0xfc, 0xd5, 0x43,
  0xc4, 0xda, 0x06, 0x30, 0xc6, 0x0a, 0xd4, 0xdb, 0x37, 0xdd, 0xbc, 0x47,
  0x26, 0x3e, 0x07, 0x4e, 0xe2, 0xf5, 0x22, 0xd8, 0x1f, 0x07, 0xff, 0xd5,
  0xc1, 0xe4, 0x16, 0xf2, 0xcc, 0x1a, 0x37, 0xfb, 0x38, 0x08, 0x3b, 0xf7,
  0xe2, 0xe4, 0x14, 0xfc, 0xdc, 0xec, 0xde, 0x0d, 0xf1, 0x51, 0xe3, 0x1e,
  0x37, 0x2e, 0x2a, 0xf2, 0x11, 0x31, 0x35, 0xf0, 0x15, 0x15, 0x4b, 0x0e,
  0x4d, 0x30, 0x18, 0x18, 0x4b, 0xd5, 0xd9, 0x02, 0xf1, 0xd7, 0xe9, 0xfb,
  0xec, 0xf6, 0x2e, 0xc2, 0x27, 0xf2, 0x2d, 0xc8, 0x30, 0xf7, 0x07, 0xf4,
  0xdf, 0xac, 0xc3, 0x16, 0x09, 0x0c, 0x2d, 0x04, 0x26, 0xd5, 0x20, 0x04,
  0xc9, 0x05, 0xc3, 0x00, 0xd4, 0x25, 0x35, 0xf9, 0xd8, 0xc2, 0xc0, 0x18,
  0x16, 0xbf, 0xf8, 0xd8, 0xec, 0xc0, 0x37, 0x05, 0x23, 0xd5, 0x15, 0x23,
  0x13, 0x09, 0xde, 0x09, 0x38, 0x1a, 0x33, 0x00, 0xce, 0xd8, 0x3a, 0xcb,
  0x0d, 0xeb, 0xd6, 0x39, 0xbd, 0x2c, 0x16, 0xe7, 0xc4, 0x24, 0xc8, 0x4a,
  0xeb, 0xe1, 0x23, 0x2d, 0xdf, 0xd9, 0x07, 0xf5, 0x2d, 0x47, 0x39, 0x4d,
  0x27, 0x1e, 0x40, 0x48, 0x15, 0x49, 0xcb, 0x2d, 0xfd, 0x39, 0x35, 0xfe,
  0xda, 0x16, 0x2f, 0x49, 0x30, 0xe3, 0xe4, 0xd5, 0xe0, 0xcf, 0xc5, 0xe0,
  0xfe, 0x3e, 0xe9, 0xfc, 0xe9, 0x3b, 0x16, 0x3d, 0x37, 0x01, 0x15, 0xd8,
  0xea, 0x2e, 0x03, 0x07, 0xc7, 0x14, 0x03, 0xe2, 0xf8, 0xeb, 0x06, 0x07,
  0xbe, 0xf6, 0x36, 0x2f, 0x2b, 0xf7, 0x2c, 0x05, 0x2b, 0xb5, 0xe1, 0x20,
  0x1b, 0x00, 0xc1, 0xad, 0x21, 0x29, 0xca, 0xd1, 0x2f, 0xbf, 0x2c, 0xd7,
  0xdf, 0xa8, 0x1f, 0xd2, 0xc8, 0xb0, 0x25, 0xae, 0x3b, 0xa7, 0xc3, 0xbd,
  0x14, 0xb0, 0x0a, 0xd6, 0x16, 0xa3, 0xf2, 0xfe, 0xf0, 0xc8, 0x1c, 0x0c,
  0x3d, 0xcf, 0xe5, 0xfb, 0xda, 0x05, 0xd9, 0xb6, 0x04, 0x23, 0x14, 0x27,
  0x23, 0x43, 0xe4, 0x17, 0xd0, 0xd5, 0x05, 0xe3, 0x1d, 0x28, 0x06, 0xd6,
  0xff, 0xe6, 0x33, 0x07, 0x10, 0x22, 0xf7, 0x18, 0x06, 0xf5, 0xf0, 0x4b,
  0x4f, 0x34, 0x55, 0x0c, 0x33, 0xe2, 0xf5, 0xee, 0x0f, 0xfe, 0xe6, 0x28,
  0x05, 0x01, 0x4e, 0x19, 0x11, 0x2c, 0x2c, 0xbe, 0xeb, 0xc2, 0x58, 0xa2,
  0x0b, 0xb7, 0x1e, 0xd1, 0x36, 0xb4, 0x2a, 0xfc, 0x05, 0xe2, 0x2d, 0x01,
  0xd9, 0x14, 0x0f, 0x93, 0x37, 0x15, 0xd0, 0xb9, 0x45, 0xa5, 0xd2, 0x18,
  0x2f, 0xd3, 0x29, 0xff, 0x13, 0x08, 0xdd, 0xa6, 0xe2, 0xfa, 0xf5, 0x1e,
  0x2d, 0xdd, 0x34, 0xbf, 0xc7, 0xa8, 0x01, 0x0f, 0xbe, 0x14, 0xd5, 0xd7,
  0xb3, 0xd0, 0x1d, 0x22, 0xc0, 0xcb, 0xb2, 0xaf, 0x1f, 0xc4, 0xd6, 0xb2,
  0xc4, 0xc0, 0xbc, 0x31, 0xb1, 0xbd, 0xc1, 0x24, 0xc4, 0x27, 0xca, 0x16,
  0x19, 0x03, 0xc7, 0xd8, 0xe9, 0x2c, 0xce, 0xf7, 0x00, 0x06, 0xc2, 0xdc,
  0xee, 0x24, 0xd1, 0xc2, 0xd7, 0xf1, 0x9e, 0xe6, 0xcd, 0x3e, 0xf7, 0x13,
  0xab, 0x0d, 0xfd, 0x48, 0xe2, 0x0a, 0xe3, 0xfe, 0xb2, 0xdc, 0xd5, 0xdb,
  0xb7, 0x1a, 0x22, 0x3c, 0xbd, 0xd2, 0xd0, 0xdb, 0x08, 0x11, 0xda, 0x0d,
  0xf1, 0xf6, 0xf5, 0x19, 0xcb, 0x19, 0xef, 0x41, 0x1a, 0x4c, 0xe5, 0xe3,
  0x15, 0x39, 0xe8, 0xdb, 0x24, 0x40, 0x48, 0xd9, 0x2b, 0xff, 0x02, 0x0b,
  0x46, 0x42, 0xe2, 0x0b, 0x19, 0x04, 0x22, 0x2a, 0x36, 0x47, 0x4b, 0x26,
  0x23, 0xe3, 0xe5, 0x1f, 0x1e, 0xdc, 0xf3, 0xf8, 0x35, 0xc7, 0xf7, 0xe4,
  0x1e, 0xf7, 0x27, 0x33, 0xf3, 0xfe, 0x1a, 0x13, 0x0d, 0xec, 0x34, 0x14,
  0xd8, 0x24, 0x41, 0xdd, 0x3e, 0x2a, 0xf4, 0xd9, 0x05, 0x45, 0xdf, 0xe0,
  0x1b, 0xfd, 0xd8, 0xdb, 0xc7, 0x2d, 0xfc, 0x13, 0xd8, 0x46, 0x26, 0x0d,
  0xee, 0x44, 0x1e, 0x00, 0x27, 0xf8, 0xc4, 0xf3, 0xdc, 0xce, 0xf8, 0xd1,
  0x19, 0x14, 0x1b, 0x18, 0x06, 0x37, 0x32, 0xd1, 0x2b, 0x45, 0x27, 0x0f,
  0xe3, 0xe1, 0xc2, 0x25, 0x1a, 0xf8, 0x11, 0x28, 0xe7, 0xff, 0xdd, 0x08,
  0x1b, 0x19, 0xde, 0x08, 0x06, 0xd4, 0x22, 0xd0, 0x18, 0x1f, 0x20, 0xd2,
  0xb9, 0xe6, 0x29, 0xb0, 0x05, 0xa3, 0xe7, 0x01, 0x05, 0xb0, 0xec, 0xef,
  0xbe, 0x23, 0xc9, 0x2f, 0xbf, 0xcc, 0x28, 0xec, 0xd9, 0x10, 0x2c, 0xc6,
  0x42, 0xfe, 0x47, 0x2b, 0x3c, 0x49, 0xe4, 0xce, 0xf4, 0x25, 0x3b, 0xf3,
  0x17, 0x2d, 0xff, 0xea, 0xf7, 0xe7, 0x22, 0xfd, 0x13, 0x57, 0xe9, 0x2c,
  0x35, 0x4b, 0xe4, 0x30, 0x05, 0x0c, 0xec, 0x48, 0x1b, 0x5b, 0x09, 0x0c,
  0x36, 0x0e, 0x07, 0x54, 0x55, 0xe8, 0x41, 0x27, 0xeb, 0xf9, 0x2c, 0xd9,
  0xf3, 0x37, 0x24, 0x42, 0xeb, 0xe1, 0xf6, 0x2d, 0x29, 0x08, 0x57, 0xc6,
  0x36, 0xe9, 0x34, 0xdd, 0x17, 0xf5, 0x3b, 0x37, 0x45, 0xf7, 0x0a, 0x2c,
  0x4d, 0xcb, 0x02, 0x2d, 0xc7, 0xe4, 0xf2, 0xd9, 0xf3, 0xec, 0xff, 0xfa,
  0x18, 0xad, 0x05, 0x0e, 0x1a, 0xc9, 0xef, 0xdd, 0x08, 0xd3, 0x27, 0xcf,
  0xd3, 0x2b, 0x1c, 0xe4, 0xdd, 0xac, 0x27, 0xd5, 0xf1, 0xb9, 0x0a, 0xed,
  0x0f, 0xc9, 0x34, 0xbf, 0x3e, 0xf1, 0xd7, 0x24, 0x23, 0x17, 0xf6, 0xf0,
  0xf6, 0xaa, 0xe1, 0x15, 0xcf, 0x03, 0xe7, 0xb9, 0xd7, 0xa6, 0xdd, 0xb8,
  0x16, 0xad, 0xe2, 0xfc, 0xf3, 0x10, 0x26, 0xc9, 0x1b, 0x14, 0x15, 0x06,
  0xce, 0xb5, 0xc3, 0xb0, 0xfe, 0xe9, 0xd6, 0xf4, 0xf2, 0x01, 0x38, 0xfc,
  0xf5, 0xae, 0x00, 0xae, 0xd4, 0xa8, 0x20, 0xdb, 0x1c, 0xac, 0x27, 0x1e,
  0x2e, 0xd5, 0x2c, 0xb3, 0x21, 0xe4, 0x0a, 0x20, 0xf2, 0x12, 0xef, 0xdb,
  0xf0, 0xee, 0xf3, 0x29, 0x1b, 0xd9, 0xdc, 0x2e, 0x12, 0x3d, 0xcc, 0xfd,
  0xf5, 0x3f, 0x07, 0xcb, 0xde, 0x19, 0x17, 0xe8, 0x26, 0xf4, 0x22, 0xf7,
  0xac, 0x26, 0x04, 0x33, 0x2e, 0x0e, 0xe4, 0xff, 0x2e, 0x0f, 0xae, 0x32,
  0xac, 0x0d, 0xd5, 0x13, 0x00, 0xf3, 0xea, 0x3c, 0x24, 0x42, 0x01, 0xd9,
  0x2b, 0x0c, 0xf1, 0xd8, 0xea, 0xe0, 0x32, 0xe5, 0xcd, 0x18, 0xeb, 0xfa,
  0xc1, 0xd9, 0xfb, 0x02, 0x32, 0x08, 0x0f, 0xf3, 0xe3, 0x02, 0x2b, 0x3e,
  0x03, 0x32, 0x3c, 0xd9, 0x3d, 0x39, 0x37, 0x15, 0xc2, 0xfc, 0x2c, 0xf0,
  0xd1, 0x24, 0x26, 0x2b, 0xcf, 0xe6, 0x27, 0x2c, 0xee, 0x0c, 0xfa, 0x07,
  0x3c, 0xc7, 0xf9, 0xe5, 0x3f, 0x43, 0x42, 0x16, 0xcd, 0xbe, 0x0f, 0xc7,
  0x45, 0x3b, 0x04, 0x1a, 0x4a, 0xd4, 0x02, 0xcd, 0x13, 0xcc, 0x22, 0xde,
  0xd3, 0x01, 0x3c, 0x03, 0x29, 0xf4, 0xf7, 0xbb, 0xfd, 0xea, 0x24, 0x0d,
  0xd3, 0xe0, 0xec, 0xe5, 0x20, 0xd6, 0xe8, 0xc4, 0xef, 0xed, 0x0d, 0xd1,
  0x21, 0xd1, 0x14, 0x10, 0xeb, 0xd8, 0xe2, 0xea, 0xc9, 0xb9, 0xd1, 0x13,
  0x16, 0xc5, 0xe5, 0xcd, 0x16, 0xe2, 0x0a, 0xd8, 0x2a, 0x17, 0x1b, 0xf6,
  0x26, 0x3b, 0xe7, 0xe7, 0xd9, 0xf4, 0xc6, 0xee, 0xc0, 0xc8, 0xcc, 0xc8,
  0xeb, 0x05, 0xc2, 0xee, 0xca, 0xca, 0xed, 0xe5, 0x1f, 0xdf, 0xe0, 0xef,
  0xe2, 0xf2, 0x36, 0xf9, 0xb7, 0xe0, 0xec, 0x1c, 0xb2, 0x04, 0xd4, 0x16,
  0xbb, 0x2f, 0xe5, 0xed, 0x3b, 0xf0, 0xe8, 0xd2, 0x21, 0x31, 0x01, 0xca,
  0xf9, 0x2a, 0x17, 0x0e, 0x44, 0xf1, 0xf4, 0xee, 0x22, 0x1c, 0x4c, 0x09,
  0x01, 0xe0, 0x02, 0x14, 0x1c, 0x32, 0xde, 0xd9, 0x2a, 0x35, 0x29, 0x36,
  0x36, 0xef, 0xd6, 0xf1, 0x23, 0xfe, 0x45, 0x44, 0x1d, 0x1c, 0x31, 0x3d,
  0x3a, 0x26, 0xd1, 0xf3, 0xf3, 0x45, 0x0a, 0x48, 0x0f, 0x32, 0x2f, 0x11,
  0xfc, 0x34, 0xc4, 0x10, 0x0e, 0x02, 0xd6, 0x38, 0xcb, 0x4a, 0xe7, 0xe4,
  0xbf, 0x32, 0xc6, 0xe5, 0x20, 0xda, 0xb5, 0xe0, 0xef, 0x2b, 0xc0, 0x0a,
  0x0a, 0x05, 0x1d, 0xca, 0xf0, 0x00, 0xe9, 0xcc, 0xfd, 0xd6, 0xf3, 0x2c,
  0xea, 0xe8, 0xb6, 0x28, 0xd1, 0x10, 0xf0, 0xfb, 0xf3, 0xee, 0xae, 0xa0,
  0xea, 0xa7, 0xb9, 0x11, 0xdc, 0x9f, 0x0e, 0x96, 0xe0, 0xd2, 0xe4, 0xf9,
  0xd3, 0xd4, 0xb2, 0xd6, 0xdb, 0xcd, 0xbf, 0xe4, 0xcf, 0xbc, 0x37, 0xbb,
  0x1a, 0xbe, 0x06, 0xef, 0x2e, 0xf0, 0xbd, 0xd7, 0xbe, 0x00, 0xc7, 0xcc,
  0x33, 0x07, 0x26, 0xfe, 0xe3, 0x16, 0xe2, 0x1f, 0x2a, 0x39, 0x06, 0x28,
  0x2a, 0x12, 0x3d, 0xe5, 0x1b, 0xd6, 0x39, 0xf4, 0xfb, 0xf9, 0xdb, 0x13,
  0x2f, 0x31, 0x34, 0xde, 0xe5, 0xf8, 0x02, 0xe4, 0xc4, 0x34, 0xcb, 0x38,
  0xb9, 0x3a, 0xdb, 0x1b, 0x21, 0xf1, 0x29, 0x51, 0x06, 0x30, 0x0c, 0x32,
  0x35, 0x36, 0x09, 0xdb, 0xe9, 0xf3, 0x00, 0x10, 0x32, 0xd2, 0xd7, 0x42,
  0xf6, 0xce, 0x2d, 0xf4, 0x00, 0x34, 0xfc, 0x48, 0x06, 0x45, 0xec, 0x09,
  0xd0, 0x23, 0xff, 0x29, 0x01, 0x00, 0x13, 0x21, 0xed, 0x1f, 0x29, 0x3b,
  0xfa, 0xd7, 0x06, 0xeb, 0xd7, 0xc8, 0xd8, 0xe1, 0xd3, 0xec, 0xb7, 0x06,
  0xc6, 0x23, 0x10, 0xef, 0xd9, 0x24, 0xf8, 0xd7, 0x10, 0x12, 0x01, 0xd0,
  0x49, 0x44, 0x0c, 0x42, 0x0a, 0x0f, 0x11, 0x07, 0xe3, 0xea, 0x30, 0xdf,
  0xc9, 0xd8, 0x1e, 0xd8, 0xf8, 0xeb, 0x12, 0xcf, 0x4b, 0xdf, 0xce, 0x1c,
  0x49, 0xe9, 0xf9, 0x3f, 0x3d, 0xe0, 0xf0, 0x0e, 0xfe, 0x02, 0x41, 0x33,
  0xca, 0xe3, 0x4c, 0x0c, 0x37, 0x15, 0xff, 0x23, 0x3b, 0xdd, 0x36, 0xc0,
  0xe6, 0xfe, 0x07, 0x0d, 0x3e, 0xf6, 0x1a, 0x20, 0x29, 0x29, 0x23, 0x05,
  0xfc, 0xd1, 0xcd, 0xc9, 0x25, 0xf3, 0xf3, 0xf0, 0xe1, 0x24, 0xc3, 0xf8,
  0xc2, 0x11, 0xf0, 0xd8, 0xcf, 0x04, 0xed, 0x0d, 0xdb, 0x12, 0xc6, 0xe1,
  0xbb, 0x1d, 0xc5, 0xbd, 0xd5, 0x20, 0x1b, 0xa4, 0x2a, 0xd4, 0xce, 0xd5,
  0xb7, 0xdc, 0xe3, 0x01, 0x0a, 0xaa, 0xfc, 0xbd, 0xc6, 0x0e, 0xbc, 0x30,
  0x2c, 0xf4, 0x2a, 0xc9, 0x1f, 0xbf, 0x26, 0x2b, 0xf0, 0x23, 0x08, 0xd2,
  0xd1, 0xd1, 0xfa, 0x39, 0xbb, 0x00, 0x1e, 0x24, 0xe5, 0xed, 0xfd, 0x39,
  0x10, 0xf8, 0xef, 0xdc, 0xfb, 0x38, 0x00, 0x45, 0xed, 0xf3, 0x07, 0xdb,
  0xcf, 0x30, 0x06, 0x3d, 0xe4, 0x37, 0xe3, 0x13, 0x05, 0x32, 0xbc, 0x4a,
  0xbc, 0xde, 0xcc, 0x0e, 0xba, 0xfe, 0x36, 0x43, 0xeb, 0xf4, 0xd4, 0x11,
  0x2e, 0x1e, 0x18, 0x32, 0x2b, 0x3a, 0xd8, 0xec, 0x3d, 0x28, 0xfa, 0x46,
  0xeb, 0x20, 0x10, 0xdf, 0xd0, 0x30, 0x1b, 0x34, 0x15, 0x4b, 0xf2, 0xe8,
  0x38, 0xde, 0x4a, 0x06, 0x24, 0x52, 0xe5, 0x3b, 0xfc, 0x2c, 0x4d, 0xee,
  0x1e, 0xf5, 0xdf, 0xda, 0xf7, 0x0e, 0x0e, 0x47, 0x0c, 0x00, 0xd2, 0x2f,
  0xd4, 0x05, 0xe6, 0xe5, 0xda, 0x0d, 0xed, 0xe5, 0xfd, 0x02, 0x1f, 0x24,
  0xc3, 0x11, 0xcf, 0xfa, 0xf7, 0x37, 0xd3, 0xd4, 0x1f, 0xfd, 0x2c, 0xf7,
  0x07, 0x32, 0xe9, 0x13, 0xcc, 0xd7, 0xdd, 0x2e, 0xd2, 0x0a, 0xed, 0xea,
  0xee, 0x47, 0x24, 0xed, 0x1c, 0x01, 0xf5, 0xcc, 0xd6, 0x04, 0x01, 0xdb,
  0x1c, 0x27, 0x04, 0xd5, 0xfd, 0x36, 0x2b, 0x16, 0x50, 0xbb, 0xdb, 0xea,
  0x12, 0xd9, 0xf9, 0x02, 0x0c, 0xc7, 0x00, 0xbc, 0xf3, 0xc1, 0xff, 0xd5,
  0x31, 0xb8, 0x32, 0xee, 0xd5, 0x04, 0xec, 0xda, 0xf0, 0x1b, 0xd5, 0x0b,
  0xd8, 0x22, 0xf5, 0xf2, 0xd2, 0xe5, 0xcd, 0x2e, 0xe0, 0x4e, 0xce, 0x39,
  0xbc, 0xeb, 0xee, 0x4e, 0xe4, 0xdc, 0x20, 0x5b, 0x26, 0x1c, 0xbe, 0xf7,
  0xea, 0x03, 0xe5, 0xf0, 0x3f, 0x02, 0x09, 0x02, 0x38, 0xfd, 0xfd, 0x06,
  0xd5, 0xf4, 0x3d, 0xef, 0x09, 0x03, 0x24, 0x2a, 0xef, 0x3e, 0x27, 0x19,
  0x1e, 0xe0, 0xfc, 0x20, 0xe0, 0x0c, 0x40, 0xf3, 0xf2, 0x1e, 0x2e, 0xe7,
  0xd5, 0x02, 0x44, 0xcf, 0xe5, 0x2a, 0x4c, 0xf9, 0x0f, 0x21, 0xec, 0x0a,
  0x2f, 0x00, 0xe2, 0xd7, 0x3f, 0x0f, 0x1f, 0xb1, 0x27, 0xd2, 0xe0, 0x15,
  0x39, 0xbb, 0xce, 0xbe, 0xca, 0xd0, 0x46, 0x1c, 0xd6, 0xc3, 0xe5, 0xd9,
  0x26, 0xa9, 0x2d, 0x1a, 0x2b, 0xeb, 0xc1, 0xe2, 0xd9, 0xfe, 0xe7, 0xcd,
  0xeb, 0xd5, 0xdf, 0x25, 0xd0, 0xb6, 0x09, 0xb8, 0xdb, 0xaa, 0xec, 0xfb,
  0xe1, 0xec, 0xfa, 0x1d, 0x06, 0xdd, 0xd5, 0x23, 0xef, 0x02, 0xf3, 0x23,
  0x2a, 0xe1, 0xd5, 0x1e, 0x0a, 0x2a, 0xcd, 0xb8, 0x14, 0xe1, 0x3d, 0x10,
  0x1c, 0xe0, 0xc3, 0xef, 0xd1, 0xff, 0xc1, 0xdc, 0x03, 0x09, 0xc9, 0x1f,
  0x27, 0xdc, 0x28, 0xfb, 0xc1, 0xb4, 0x0d, 0xed, 0xdb, 0xfc, 0x13, 0xc5,
  0x14, 0xc1, 0xd7, 0xe1, 0xd8, 0xda, 0xe7, 0xe1, 0xda, 0x0e, 0xf6, 0xf8,
  0xc6, 0xd8, 0x07, 0xca, 0xc6, 0xb0, 0xba, 0xe5, 0xbe, 0xce, 0x01, 0xf5,
  0xc3, 0x03, 0xf8, 0x14, 0xf2, 0x2d, 0xe4, 0xcd, 0xcb, 0x06, 0xfa, 0xd1,
  0xc0, 0x35, 0xee, 0xce, 0x16, 0x35, 0xbb, 0xdd, 0xf2, 0x31, 0x21, 0xcc,
  0x19, 0xe9, 0x01, 0xe0, 0xf3, 0xf7, 0xc9, 0x12, 0x23, 0x42, 0x0e, 0xd5,
  0xb6, 0x16, 0x0e, 0x36, 0xb9, 0xf3, 0x19, 0xf6, 0xf5, 0x22, 0xc0, 0x1e,
  0x19, 0x17, 0x19, 0xd2, 0xe7, 0xf4, 0xeb, 0xea, 0x1b, 0xf8, 0x00, 0x21,
  0xea, 0x15, 0xf0, 0xc6, 0xde, 0x3d, 0xee, 0xd9, 0xdf, 0x20, 0xd5, 0xda,
  0x07, 0xc4, 0xbe, 0xc9, 0xc0, 0xca, 0xf1, 0x09, 0x07, 0xfd, 0xe6, 0x39,
  0x2d, 0xc6, 0xff, 0xd1, 0x0e, 0xcb, 0x07, 0x22, 0x25, 0x2f, 0x13, 0xcf,
  0xc8, 0xfb, 0x32, 0xc2, 0x0f, 0x2a, 0x11, 0xdb, 0xca, 0x1e, 0xd2, 0x07,
  0xfa, 0xc3, 0xce, 0x12, 0xb5, 0xc8, 0xda, 0xd5, 0x29, 0x00, 0x02, 0x0a,
  0x1d, 0xb2, 0xbf, 0x30, 0xf0, 0xba, 0x30, 0xe3, 0xfe, 0x09, 0xe5, 0xec,
  0xd5, 0xe5, 0x3a, 0xe9, 0x16, 0xde, 0x00, 0xf9, 0x17, 0xd3, 0xfd, 0xe0,
  0xf4, 0x30, 0x1f, 0x2d, 0x21, 0x21, 0xc0, 0xec, 0x35, 0x11, 0x0d, 0x28,
  0x05, 0xfd, 0xb5, 0xff, 0xc7, 0x36, 0xf7, 0xb5, 0xde, 0x20, 0x05, 0x27,
  0xf3, 0xc6, 0x37, 0xe7, 0xc2, 0x02, 0xf7, 0xc6, 0x2c, 0xd5, 0x32, 0xfb,
  0xca, 0x02, 0xbb, 0x00, 0xe1, 0xb3, 0xbe, 0x13, 0xc5, 0xe3, 0x10, 0xbb,
  0xd4, 0xdb, 0xbb, 0xfd, 0x1d, 0x37, 0xb0, 0xd0, 0xd8, 0xf8, 0x06, 0x32,
  0xf8, 0x3a, 0xde, 0x2f, 0xcc, 0x36, 0xdc, 0x23, 0x24, 0xdd, 0x2b, 0xdc,
  0x4a, 0xed, 0x3b, 0xa4, 0x3f, 0xec, 0xe6, 0xd8, 0x08, 0xca, 0x46, 0x08,
  0xf1, 0xa4, 0x0b, 0x19, 0x3a, 0xbc, 0x3b, 0x27, 0x18, 0xb9, 0xf9, 0x04,
  0x3c, 0xe6, 0x18, 0xe2, 0xe0, 0x2d, 0x17, 0xbc, 0xea, 0x0a, 0x06, 0x11,
  0x0a, 0x25, 0xec, 0x39, 0xde, 0x29, 0xff, 0x39, 0xea, 0x30, 0x15, 0x25,
  0xd7, 0x33, 0xdb, 0xe1, 0x08, 0x20, 0xfa, 0x31, 0x1b, 0xe5, 0x15, 0xdc,
  0x3b, 0xcf, 0x3e, 0x2f, 0x34, 0xcf, 0x40, 0x38, 0x00, 0x06, 0x35, 0x45,
  0xf0, 0xce, 0xfa, 0x06, 0xd0, 0x41, 0x32, 0x26, 0x2d, 0x36, 0xea, 0x21,
  0xdf, 0xd9, 0xd7, 0x13, 0x2e, 0x36, 0xee, 0xb8, 0xc3, 0xe5, 0xde, 0x09,
  0xb2, 0xe3, 0xe0, 0x04, 0xcf, 0xef, 0xc8, 0x05, 0x22, 0x05, 0x0a, 0xd8,
  0xca, 0x25, 0x38, 0x29, 0xfc, 0xbc, 0x39, 0xe1, 0x0f, 0xed, 0xd6, 0xf0,
  0x24, 0x2e, 0xf7, 0x0c, 0xc9, 0x06, 0xc9, 0xbb, 0x24, 0xee, 0xe3, 0x23,
  0x30, 0x0d, 0xe4, 0xff, 0xc6, 0x03, 0xd4, 0xc3, 0x2d, 0xdd, 0xca, 0xda,
  0x3c, 0xcc, 0xf1, 0x15, 0xce, 0x1a, 0x15, 0x48, 0xcb, 0x10, 0xcc, 0xde,
  0xe4, 0x05, 0x11, 0xf9, 0xdc, 0xfb, 0x34, 0x43, 0xd8, 0x2a, 0x0d, 0x18,
  0xfb, 0x23, 0xeb, 0xeb, 0xeb, 0xcf, 0x38, 0x2c, 0x2f, 0xf5, 0x36, 0xf6,
  0x1d, 0x2b, 0xfe, 0x11, 0xfc, 0x45, 0xf9, 0xec, 0xc8, 0x10, 0x38, 0x05,
  0xf3, 0xfa, 0x18, 0x44, 0x30, 0x07, 0xfd, 0xdf, 0x2c, 0xfa, 0x02, 0x22,
  0xf4, 0xfd, 0x32, 0xdd, 0xcf, 0x34, 0x28, 0x0c, 0x01, 0x3c, 0x0b, 0x43,
  0xed, 0xef, 0xe7, 0x21, 0xe1, 0xfb, 0xe8, 0xec, 0x41, 0xc7, 0x3a, 0x14,
  0x1c, 0xf6, 0x2a, 0x35, 0x1f, 0x22, 0xf6, 0xe2, 0xe8, 0xdc, 0xca, 0x9d,
  0x26, 0x95, 0x02, 0xf1, 0xcf, 0xba, 0x05, 0x07, 0xc4, 0xd5, 0x07, 0x9b,
  0x26, 0xaf, 0x1f, 0xe2, 0x09, 0xc5, 0xe3, 0xc1, 0xdc, 0x08, 0x2d, 0x1b,
  0x0e, 0xc1, 0x2d, 0x15, 0xf4, 0x34, 0x1c, 0x13, 0xc8, 0x42, 0xf4, 0x04,
  0xc1, 0xf3, 0x2b, 0x4d, 0xd9, 0x55, 0x22, 0x4c, 0xfc, 0x08, 0x32, 0x5c,
  0x22, 0x3d, 0xdd, 0x3a, 0x0d, 0x14, 0xce, 0x12, 0x16, 0x44, 0x2a, 0x3d,
  0xdb, 0x22, 0x40, 0x5c, 0xee, 0xf2, 0x0f, 0x21, 0x3a, 0x12, 0x27, 0x39,
  0xe6, 0x33, 0xef, 0x33, 0x49, 0x3b, 0x03, 0x1d, 0x0a, 0x29, 0x1c, 0x33,
  0xed, 0xdb, 0xda, 0xe5, 0x3f, 0x20, 0x48, 0x03, 0xcb, 0xe0, 0xd8, 0xcb,
  0xd8, 0x03, 0xea, 0x32, 0x0a, 0xf6, 0x0d, 0x17, 0x07, 0xe7, 0x3b, 0x2c,
  0xf1, 0xef, 0x2a, 0x19, 0xe2, 0x1a, 0x2a, 0xc8, 0xba, 0x01, 0xe3, 0x33,
  0xfd, 0xe5, 0xc2, 0xd5, 0x06, 0x46, 0xf0, 0xcc, 0x09, 0xfa, 0x30, 0xfa,
  0x1c, 0x50, 0xfa, 0x28, 0xea, 0x0f, 0xde, 0x30, 0xe3, 0x30, 0x23, 0x3b,
  0xea, 0x4f, 0xe4, 0xf5, 0xba, 0x0f, 0xf1, 0xf2, 0x32, 0x1e, 0xc9, 0xfd,
  0x14, 0x19, 0x1f, 0xec, 0xe8, 0x33, 0xff, 0xfc, 0x3a, 0x4b, 0xc5, 0xf8,
  0x00, 0xe7, 0xef, 0xdb, 0x38, 0x2f, 0x35, 0x44, 0x27, 0xd4, 0xe4, 0xc9,
  0xdf, 0x20, 0xc7, 0xea, 0x29, 0xe4, 0xea, 0x1c, 0x16, 0x2c, 0xf1, 0xfd,
  0x2d, 0x27, 0xd6, 0x04, 0xce, 0xcd, 0x2a, 0xe9, 0xf9, 0xdb, 0xfe, 0x24,
  0x16, 0x13, 0x23, 0x3b, 0x14, 0x1a, 0xe7, 0x23, 0x38, 0xe6, 0xf1, 0x41,
  0xce, 0xe6, 0xf4, 0x22, 0x1e, 0x0c, 0xd4, 0x06, 0xbd, 0xce, 0xe2, 0xe6,
  0xe2, 0x28, 0xed, 0x0b, 0x0e, 0x39, 0x0d, 0x11, 0x23, 0xf9, 0x3e, 0x34,
  0x28, 0xed, 0xf2, 0x29, 0x1f, 0x33, 0xed, 0xeb, 0x16, 0xf6, 0x2d, 0x28,
  0xef, 0xc7, 0xed, 0xd2, 0xcc, 0xf2, 0xfc, 0x28, 0x1f, 0x0e, 0x27, 0x2f,
  0x23, 0xc2, 0x30, 0xe2, 0xe0, 0xdb, 0x39, 0x10, 0x36, 0xc7, 0x14, 0xf8,
  0xf6, 0xfb, 0xca, 0xd2, 0xfc, 0x03, 0xf0, 0x27, 0x1a, 0x35, 0xf9, 0x04,
  0xf1, 0xd1, 0xdb, 0xc7, 0xd2, 0x36, 0x37, 0xdf, 0xd6, 0xe3, 0x05, 0xf1,
  0xe6, 0x2b, 0x15, 0x31, 0x18, 0x08, 0xcb, 0xd5, 0xd5, 0xc7, 0x46, 0x05,
  0x06, 0xd6, 0x0c, 0x0c, 0xfd, 0xe8, 0x3d, 0xe6, 0xfb, 0xcd, 0xf1, 0xb6,
  0xf7, 0xda, 0xc5, 0xb1, 0xd5, 0xc8, 0xbe, 0xdf, 0x1f, 0xf6, 0x19, 0xe3,
  0xca, 0x06, 0x3a, 0xcc, 0x05, 0xad, 0xc8, 0xb2, 0x1a, 0xd2, 0xfb, 0xea,
  0x2f, 0xef, 0xe4, 0x00, 0xd7, 0xfa, 0x27, 0xd2, 0xb1, 0xeb, 0xba, 0xb3,
  0xfd, 0xc7, 0xb2, 0x20, 0xaf, 0xf8, 0xc5, 0x18, 0xca, 0xe9, 0xc8, 0x03,
  0x24, 0x27, 0xfb, 0x20, 0xbe, 0xe2, 0x2a, 0xf2, 0x0d, 0xfb, 0x29, 0x11,
  0xd2, 0xc8, 0xd4, 0xec, 0x02, 0xcd, 0x09, 0x4c, 0xdd, 0xdc, 0x28, 0x0e,
  0xe2, 0x4e, 0xd2, 0xce, 0xf4, 0xee, 0x21, 0x0a, 0xfe, 0x2e, 0x2c, 0xda,
  0x07, 0xcf, 0xd1, 0xd2, 0x2a, 0x49, 0x04, 0x2f, 0x1c, 0xea, 0x16, 0x2c,
  0xdb, 0xf8, 0xba, 0xfd, 0xde, 0x14, 0xc9, 0x34, 0xcd, 0x1b, 0xf6, 0x15,
  0xf4, 0x0a, 0x16, 0x29, 0x26, 0xe1, 0xf6, 0xf8, 0xdf, 0xc7, 0xcd, 0xc1,
  0x1b, 0x38, 0xca, 0x31, 0x05, 0x13, 0xc4, 0xd1, 0xbd, 0xf1, 0x09, 0x1e,
  0xbf, 0x2d, 0x00, 0xe2, 0xe0, 0xd2, 0x21, 0x1b, 0xe8, 0xde, 0xff, 0x36,
  0x20, 0xe8, 0xbd, 0xf4, 0xe3, 0xd2, 0xa8, 0x28, 0xd4, 0xec, 0xab, 0xf1,
  0xe0, 0xd7, 0xcf, 0x0f, 0xc8, 0xdc, 0x1a, 0xce, 0xbb, 0xfa, 0xb8, 0xc6,
  0xbb, 0xe7, 0x06, 0x39, 0xb1, 0x3a, 0x2c, 0xde, 0xb3, 0x2f, 0x31, 0xed,
  0xee, 0x13, 0x2c, 0xbf, 0x0f, 0x23, 0x0d, 0xbd, 0x40, 0x0d, 0x33, 0xbc,
  0x43, 0x01, 0x41, 0xcb, 0xfd, 0xd3, 0x01, 0xf0, 0x2d, 0xde, 0x4b, 0xef,
  0xdd, 0x43, 0x0a, 0xd9, 0xf9, 0xd9, 0x30, 0x26, 0xcd, 0x20, 0x39, 0xd7,
  0x4a, 0xff, 0xfe, 0x2e, 0x3b, 0x0d, 0xfb, 0x54, 0xce, 0xd5, 0x3f, 0x2e,
  0xdb, 0xf2, 0x3d, 0x0c, 0x38, 0x53, 0x2d, 0x05, 0x17, 0x52, 0xea, 0x37,
  0x07, 0x06, 0x14, 0x2e, 0x2d, 0xf8, 0xe0, 0x21, 0xe3, 0xfe, 0xd0, 0xe1,
  0x47, 0x0b, 0x46, 0xfc, 0x24, 0x55, 0xfd, 0x02, 0x45, 0x40, 0x04, 0x52,
  0xce, 0x29, 0x17, 0x56, 0xcf, 0xf2, 0x39, 0x38, 0xd0, 0x05, 0x26, 0x13,
  0x1b, 0x14, 0xef, 0xce, 0x35, 0xee, 0xdb, 0x17, 0x06, 0x22, 0x1f, 0xd2,
  0x1e, 0xf4, 0xdd, 0xd7, 0xf7, 0x14, 0xcc, 0xe2, 0xc7, 0xdb, 0x1d, 0xee,
  0xcc, 0xe4, 0xe8, 0xe3, 0xec, 0xce, 0xf3, 0xf0, 0xf9, 0x9e, 0xf6, 0xfc,
  0x0c, 0xc4, 0xf0, 0xe6, 0xbd, 0xe0, 0xdc, 0x0b, 0x3c, 0xbb, 0xe3, 0x16,
  0x29, 0x9c, 0xda, 0x00, 0xfa, 0xa9, 0x3c, 0xc2, 0x20, 0xbd, 0xbb, 0xda,
  0xe6, 0xc4, 0xf6, 0xe9, 0xd5, 0xcb, 0xdc, 0xca, 0x37, 0xbe, 0x00, 0x12,
  0x2b, 0xed, 0x15, 0xf7, 0xcc, 0x3c, 0x09, 0x20, 0x2f, 0x13, 0x44, 0x1c,
  0xfc, 0x14, 0xe7, 0x16, 0xec, 0x0d, 0xfe, 0xcb, 0x35, 0xf6, 0xec, 0x16,
  0x39, 0x24, 0xff, 0x0c, 0x34, 0x3c, 0x24, 0x3b, 0x33, 0x12, 0xfa, 0xcf,
  0x43, 0x4b, 0x4b, 0x04, 0xed, 0x0f, 0xfc, 0x78, 0x2b, 0x24, 0x3c, 0x1c,
  0x31, 0x64, 0x00, 0x57, 0x27, 0x1d, 0x4e, 0x5c, 0xd1, 0x27, 0xf3, 0x2f,
  0x35, 0x13, 0x17, 0x19, 0x3e, 0x1c, 0xe5, 0x23, 0xed, 0x12, 0xd5, 0xd9,
  0xc7, 0xe1, 0xb9, 0xf0, 0xd0, 0x4e, 0x07, 0xce, 0xd6, 0x38, 0xbd, 0xcb,
  0xb1, 0x3b, 0x03, 0x18, 0xdf, 0xf7, 0xaa, 0xc8, 0xc3, 0x1b, 0xa4, 0xcb,
  0x98, 0xf6, 0xe0, 0xf0, 0xa3, 0xf2, 0xd3, 0x18, 0xb8, 0x1c, 0x0e, 0x13,
  0x18, 0xca, 0x11, 0xdb, 0xef, 0xa9, 0x2f, 0xf1, 0xc2, 0xb3, 0xc2, 0xc1,
  0xb4, 0xba, 0xc5, 0xb8, 0xcb, 0xe1, 0xe9, 0xc5, 0x1d, 0xb9, 0xd1, 0xff,
  0x30, 0xc6, 0xf8, 0x0f, 0x0c, 0xfe, 0xe1, 0xbf, 0xf7, 0xac, 0x14, 0xc7,
  0x0d, 0xce, 0x10, 0x00, 0xd1, 0xfe, 0xc6, 0xe3, 0x03, 0xdf, 0x19, 0xe4,
  0x3e, 0xce, 0xd2, 0x23, 0xd6, 0x1b, 0xfb, 0xd4, 0xef, 0xf3, 0xe0, 0xcd,
  0xf0, 0xda, 0x0f, 0x3d, 0xd3, 0xe1, 0x11, 0xe0, 0xdb, 0x01, 0xc3, 0xe3,
  0xfd, 0xed, 0x0f, 0x07, 0xc7, 0x39, 0x40, 0xe1, 0x13, 0xef, 0xd2, 0xef,
  0xcb, 0x3e, 0x21, 0x14, 0x06, 0x04, 0x08, 0xd0, 0xe4, 0x37, 0x04, 0x09,
  0x02, 0x28, 0x35, 0x11, 0xcc, 0x09, 0xcc, 0xf9, 0xdb, 0x0e, 0x46, 0x2f,
  0xe2, 0x2a, 0x1d, 0x08, 0x3f, 0x3e, 0xcd, 0xff, 0x35, 0x48, 0xd2, 0x0d,
  0xe4, 0x26, 0x14, 0x47, 0xd7, 0xf0, 0xcc, 0x2d, 0x04, 0xf3, 0x0a, 0xd4,
  0xd2, 0x1f, 0xd0, 0xee, 0x41, 0xd9, 0x34, 0x33, 0x0e, 0x0a, 0x02, 0x2c,
  0xd3, 0xda, 0x34, 0xf4, 0xfe, 0x50, 0x4b, 0x3c, 0x3c, 0xee, 0xcd, 0x01,
  0x31, 0xf4, 0x38, 0x16, 0xda, 0x06, 0xdb, 0xe4, 0x12, 0x2f, 0xe3, 0x6d,
  0xbb, 0x20, 0xc9, 0x14, 0xef, 0x48, 0x16, 0x60, 0xc6, 0x06, 0x36, 0x22,
  0xc6, 0x22, 0xf5, 0x49, 0xec, 0xdc, 0xfd, 0x0b, 0xf7, 0x32, 0xd0, 0x56,
  0x27, 0x06, 0x24, 0x05, 0x2d, 0x48, 0x01, 0x21, 0x2c, 0xf9, 0xd8, 0xf3,
  0x3c, 0x0d, 0x13, 0x01, 0x24, 0xb0, 0xb8, 0xfe, 0x25, 0xd6, 0x07, 0xb4,
  0xea, 0xf6, 0x1d, 0xb8, 0x37, 0x08, 0x10, 0xe2, 0xd3, 0x1d, 0xf3, 0x08,
  0x0a, 0xe9, 0xfa, 0x1b, 0xb7, 0xde, 0xbc, 0xfe, 0xc0, 0xef, 0x20, 0xb9,
  0x27, 0x01, 0x32, 0x10, 0x1c, 0xfb, 0xde, 0x01, 0xfc, 0xe8, 0xd7, 0xfb,
  0x1b, 0xf9, 0x08, 0x0f, 0xcb, 0x13, 0x2b, 0xc5, 0xc9, 0x1a, 0x20, 0xc8,
  0x24, 0x32, 0x3d, 0x38, 0x21, 0x20, 0xfd, 0x10, 0xd7, 0xe5, 0x44, 0x36,
  0x3e, 0xe6, 0x37, 0x0c, 0xc6, 0x43, 0xf4, 0x37, 0xd6, 0xe7, 0x0b, 0xf5,
  0x33, 0xde, 0x20, 0xff, 0xf4, 0x06, 0xf2, 0xfe, 0xe5, 0xd7, 0x19, 0xfd,
  0x35, 0xde, 0xf0, 0x00, 0x1c, 0xf7, 0x04, 0x28, 0x10, 0xea, 0xc8, 0xc9,
  0x35, 0xe0, 0x26, 0xfb, 0x15, 0xec, 0x3b, 0x02, 0xc1, 0x0d, 0xf3, 0x23,
  0xe5, 0xd1, 0xf3, 0xb5, 0x00, 0x26, 0x01, 0xbc, 0xca, 0x2a, 0xdf, 0xe9,
  0xda, 0xee, 0xc0, 0x11, 0x3e, 0xf0, 0x27, 0xf0, 0x0a, 0x32, 0x29, 0xc3,
  0x1a, 0xef, 0x1b, 0xc9, 0x44, 0xe6, 0x3e, 0xb7, 0xc9, 0xf9, 0xfa, 0x12,
  0xe7, 0x3b, 0x00, 0xe6, 0xfe, 0xba, 0x35, 0xef, 0xdb, 0x0d, 0x19, 0xbb,
  0xf5, 0xf8, 0xf5, 0xf4, 0x27, 0xd3, 0x1b, 0xfe, 0x1a, 0xbb, 0x25, 0xec,
  0x2b, 0x09, 0x33, 0xea, 0xe7, 0xf6, 0xd0, 0x3a, 0xe0, 0x37, 0x3a, 0x01,
  0xd9, 0x37, 0x28, 0x19, 0xff, 0xe4, 0xeb, 0xd1, 0x41, 0xa1, 0xd3, 0xe3,
  0x12, 0xba, 0xd2, 0xd8, 0xbb, 0xf5, 0x0c, 0xc5, 0xf9, 0xd1, 0x05, 0x1c,
  0xde, 0xc3, 0xbc, 0xf1, 0x02, 0xf3, 0x20, 0xe0, 0xfb, 0xbc, 0x00, 0xf6,
  0xb7, 0xfa, 0xbe, 0xef, 0xdc, 0xe8, 0xd0, 0xbd, 0x06, 0x1d, 0xa8, 0x1a,
  0xb9, 0x2a, 0x1a, 0x37, 0xba, 0x1a, 0xe3, 0xda, 0xaa, 0x0e, 0xb6, 0x17,
  0xd2, 0x0e, 0xc1, 0xf2, 0xd7, 0xd8, 0x11, 0xef, 0x16, 0xda, 0xf3, 0x15,
  0x20, 0x0f, 0xdd, 0xe6, 0x41, 0xe0, 0x43, 0xf9, 0x11, 0xe0, 0xe9, 0xdd,
  0xeb, 0x27, 0x19, 0x1b, 0x33, 0xfb, 0xf2, 0xee, 0x4b, 0xc9, 0x2e, 0x04,
  0x10, 0xc9, 0xd8, 0x28, 0x4c, 0x1d, 0x3c, 0x30, 0x52, 0xbe, 0x1e, 0x22,
  0x36, 0x00, 0x4b, 0xc5, 0x56, 0x0f, 0xfc, 0xc8, 0xeb, 0xd2, 0xeb, 0x32,
  0x3c, 0xda, 0xfb, 0xd1, 0x4d, 0xd0, 0x04, 0x11, 0x34, 0xd0, 0x2b, 0x10,
  0x1e, 0x12, 0x12, 0xcb, 0xdb, 0x39, 0xf8, 0x35, 0xc9, 0xd5, 0x27, 0x2a,
  0x3c, 0x25, 0xeb, 0x41, 0xf9, 0x2f, 0x36, 0x3f, 0x40, 0x35, 0x04, 0x38,
  0xbc, 0x37, 0x25, 0x02, 0xc2, 0x14, 0x07, 0xfc, 0xff, 0x14, 0xf5, 0x31,
  0x23, 0xdb, 0x2e, 0x0f, 0x02, 0xe5, 0x30, 0x3f, 0x2b, 0x24, 0x16, 0xe2,
  0x0b, 0xfb, 0x3a, 0x01, 0x0a, 0x1c, 0xd7, 0x15, 0xd5, 0x0e, 0xcf, 0xfd,
  0xc8, 0x24, 0xf1, 0x2f, 0x05, 0xfc, 0x26, 0x43, 0x19, 0xdc, 0xef, 0x08,
  0x18, 0x0d, 0x1f, 0x3e, 0xd6, 0x19, 0x2a, 0xf7, 0x07, 0x25, 0x35, 0x4e,
  0x03, 0x30, 0xf3, 0xcf, 0x00, 0xf7, 0xbe, 0x10, 0xfc, 0xec, 0xbb, 0xf8,
  0xe7, 0xdc, 0xce, 0x1c, 0xfa, 0x32, 0xd7, 0xfd, 0x1e, 0x34, 0xb2, 0x31,
  0xcc, 0xf1, 0x04, 0xec, 0xdb, 0x5a, 0xea, 0xb0, 0xea, 0x98, 0x30, 0xdd,
  0x04, 0x93, 0xc5, 0xd7, 0x27, 0xdf, 0xc6, 0xfc, 0x1b, 0xb7, 0xf1, 0x0e,
  0xc9, 0xf9, 0x24, 0xb4, 0x12, 0xb8, 0x04, 0xfb, 0x42, 0x25, 0x2e, 0x30,
  0x00, 0xe2, 0x29, 0xcb, 0x37, 0x00, 0x33, 0xde, 0xd8, 0xff, 0xe1, 0x4d,
  0xf9, 0xef, 0xd2, 0x4e, 0x1d, 0xe6, 0x0f, 0x3f, 0xd1, 0x31, 0x27, 0x44,
  0xcc, 0xfd, 0x1b, 0xf8, 0x0a, 0x22, 0xe3, 0xfa, 0xd2, 0x30, 0x46, 0xf6,
  0x1e, 0x31, 0x25, 0xfd, 0x27, 0x46, 0x4c, 0x3e, 0x14, 0xf9, 0x3e, 0xeb,
  0x48, 0x37, 0xd5, 0x1a, 0xe5, 0x34, 0x0b, 0xe4, 0xe8, 0xee, 0x00, 0x29,
  0xde, 0xd8, 0x2f, 0x0a, 0xdc, 0xe8, 0x09, 0xe0, 0x2e, 0xe6, 0x3a, 0x40,
  0x15, 0xe3, 0x2d, 0x25, 0x3b, 0xe3, 0x1a, 0xc7, 0xd3, 0xdf, 0x3c, 0xc1,
  0xe7, 0xfc, 0x42, 0x40, 0x1f, 0x27, 0xdc, 0xf4, 0xd8, 0x32, 0x0c, 0x1f,
  0xc4, 0x25, 0x1e, 0xfd, 0xc1, 0xe1, 0x0d, 0xd0, 0x44, 0x05, 0xe0, 0xf2,
  0xda, 0xed, 0x20, 0x49, 0xc9, 0xd7, 0xdb, 0x0d, 0x05, 0xf0, 0xd3, 0xdd,
  0x46, 0x0f, 0x32, 0x51, 0xc6, 0xe5, 0x18, 0x04, 0x08, 0x05, 0xd3, 0x32,
  0xd9, 0x0d, 0xdf, 0x16, 0x20, 0x1f, 0xc5, 0x18, 0x3a, 0x0a, 0x2f, 0x17,
  0x1b, 0xec, 0x13, 0xfb, 0x36, 0x2b, 0x1b, 0x10, 0xcb, 0xfb, 0xe5, 0x3c,
  0x27, 0x37, 0xca, 0xc7, 0x18, 0xd5, 0x36, 0x28, 0xf4, 0xe4, 0x0a, 0x26,
  0xba, 0xf7, 0xe8, 0x20, 0xf2, 0x33, 0xd8, 0x1d, 0xde, 0xdc, 0x07, 0xc1,
  0x15, 0xc7, 0xbb, 0x43, 0x21, 0x1e, 0x0a, 0xf2, 0xc2, 0x44, 0x00, 0xca,
  0xf6, 0xf6, 0x02, 0x29, 0x36, 0x30, 0xcf, 0x4c, 0xce, 0x36, 0x19, 0xd7,
  0x19, 0x2c, 0xfa, 0xd9, 0x22, 0x30, 0xf8, 0xdd, 0x26, 0x2b, 0x21, 0xd0,
  0x37, 0x1e, 0x26, 0xe8, 0x39, 0x3c, 0xdb, 0x39, 0x15, 0xd9, 0xfe, 0xe8,
  0x17, 0xd0, 0xf9, 0x00, 0xd0, 0x04, 0xcd, 0xf9, 0x35, 0xe4, 0x0d, 0xff,
  0xeb, 0x22, 0x09, 0x36, 0x3c, 0xd2, 0x1a, 0xbc, 0x17, 0x1d, 0x4a, 0xed,
  0xd1, 0xd8, 0x34, 0x1d, 0x2a, 0xba, 0x20, 0x2a, 0x30, 0xdf, 0x35, 0xf6,
  0xe8, 0x24, 0xe6, 0xf0, 0xd3, 0x0e, 0x00, 0xd7, 0xf9, 0xc0, 0xeb, 0xf6,
  0x11, 0xb2, 0x06, 0xad, 0xf2, 0x01, 0x35, 0x23, 0xc0, 0xbe, 0xd4, 0xca,
  0x0f, 0xf2, 0x0a, 0xc6, 0xc9, 0xe4, 0xfa, 0x06, 0x18, 0xeb, 0x07, 0x21,
  0x18, 0x14, 0xc8, 0x14, 0x2c, 0xf6, 0xc0, 0x2f, 0xd9, 0x4b, 0x33, 0x1a,
  0x09, 0x2d, 0x1d, 0x1d, 0xc9, 0x58, 0x34, 0x49, 0xc9, 0x29, 0xec, 0xd8,
  0x0e, 0xf9, 0xfe, 0x5b, 0xe3, 0x4d, 0xf2, 0x2b, 0xef, 0x20, 0x0d, 0x2f,
  0x37, 0x24, 0x1a, 0x08, 0x47, 0x43, 0x44, 0x3a, 0xda, 0xe7, 0x52, 0x52,
  0x2b, 0x37, 0x36, 0x1d, 0x40, 0x40, 0xf8, 0xcb, 0xd8, 0x44, 0xdc, 0xe5,
  0x21, 0x2e, 0x46, 0xd7, 0xe1, 0xcf, 0xf2, 0x1d, 0x20, 0xf3, 0xcb, 0xe9,
  0x1f, 0x0e, 0xfb, 0x1b, 0x36, 0xdf, 0xd2, 0xf1, 0x0f, 0x1a, 0xdd, 0xba,
  0x0d, 0xc1, 0x03, 0xe8, 0x1f, 0xe3, 0xf5, 0xca, 0xd4, 0xf6, 0x3a, 0x15,
  0xf2, 0xc4, 0xe6, 0xad, 0x16, 0xac, 0xdf, 0x0a, 0x25, 0x2b, 0xe5, 0xbf,
  0xff, 0xf9, 0xf3, 0xff, 0x18, 0x2e, 0x02, 0xde, 0x1b, 0xd1, 0x2b, 0x2b,
  0xe4, 0xe5, 0xc8, 0xf7, 0xef, 0xce, 0xed, 0x1d, 0xda, 0xe0, 0xff, 0xb0,
  0xe8, 0x0b, 0xc9, 0x1a, 0xd9, 0xb3, 0xc8, 0x0c, 0x30, 0xf1, 0x28, 0xdb,
  0xeb, 0xf6, 0x16, 0xb8, 0x2f, 0xda, 0x1c, 0x19, 0x0d, 0xe9, 0x1e, 0x2d,
  0xeb, 0xb4, 0xfe, 0xe0, 0xee, 0x09, 0xbd, 0x2b, 0xc6, 0xe3, 0xe0, 0xfd,
  0xfd, 0x37, 0xd6, 0x28, 0xfe, 0x13, 0xf0, 0x1c, 0x05, 0x15, 0xa9, 0xec,
  0xa0, 0x05, 0x12, 0x04, 0xcb, 0xeb, 0xc4, 0xf0, 0xcc, 0x51, 0x0f, 0xf7,
  0xf8, 0x64, 0xb0, 0x04, 0xd2, 0x35, 0x06, 0xe2, 0x19, 0x2b, 0xc5, 0x0c,
  0x04, 0x04, 0x15, 0x19, 0xfa, 0x18, 0xd3, 0x1b, 0xe4, 0xe3, 0xc5, 0x1d,
  0x30, 0x28, 0xc0, 0xe7, 0xc5, 0x1b, 0x09, 0x1f, 0xf9, 0x1a, 0x1a, 0x0d,
  0x21, 0xed, 0x3a, 0xe4, 0x25, 0xb6, 0xbf, 0xb8, 0xf6, 0xae, 0xcc, 0xe5,
  0x3f, 0x16, 0xff, 0x0b, 0xdf, 0x15, 0x34, 0x1c, 0x0d, 0x07, 0xef, 0xb6,
  0xf5, 0xb7, 0x47, 0x01, 0x41, 0x19, 0x20, 0xdb, 0xe0, 0xb2, 0xde, 0xb3,
  0xcd, 0xb6, 0x46, 0xde, 0x1f, 0xce, 0xc6, 0x05, 0x36, 0xf9, 0x1b, 0xc7,
  0x0b, 0x2e, 0xcf, 0x38, 0xd1, 0x25, 0x24, 0xcb, 0x0f, 0xff, 0xce, 0x24,
  0xc8, 0xce, 0x2d, 0xd6, 0x06, 0xd5, 0x15, 0x14, 0x06, 0x4d, 0x19, 0x2b,
  0xe0, 0x12, 0x23, 0x19, 0x07, 0xe6, 0x0c, 0xfe, 0xf8, 0x41, 0x36, 0x42,
  0xd9, 0xfc, 0x33, 0x18, 0xdd, 0x2f, 0x0b, 0x0d, 0x36, 0xf8, 0x02, 0x37,
  0xdd, 0xdd, 0xd3, 0x35, 0x2a, 0xe6, 0x29, 0x13, 0x42, 0x3b, 0x0c, 0xe1,
  0xe1, 0xf4, 0xe1, 0x2b, 0x18, 0x3a, 0xe5, 0x27, 0x08, 0xe7, 0x40, 0x1a,
  0xc5, 0x2e, 0x18, 0x15, 0x08, 0x06, 0x3f, 0x52, 0xdb, 0xf1, 0xdf, 0x46,
  0xc0, 0xd4, 0x40, 0x45, 0xc5, 0x03, 0x34, 0x08, 0xda, 0x47, 0xe0, 0xdc,
  0x0e, 0xd7, 0xd6, 0x5c, 0x12, 0xec, 0xb9, 0xea, 0x32, 0xd8, 0xd9, 0x24,
  0xd6, 0xdd, 0xd9, 0x1a, 0xbe, 0x2d, 0xbf, 0xbd, 0x99, 0xd9, 0x00, 0x33,
  0xba, 0xd8, 0xdb, 0x1d, 0xc2, 0x31, 0xb4, 0x31, 0xb7, 0xca, 0xf1, 0xcc,
  0xe3, 0xce, 0xfa, 0x29, 0xb2, 0xf6, 0xb5, 0x13, 0xf8, 0x2b, 0xf2, 0x20,
  0x08, 0x38, 0xc8, 0xd8, 0xd1, 0xd8, 0x1e, 0xca, 0xa1, 0xdc, 0xaf, 0x0a,
  0xe4, 0xc3, 0x21, 0x23, 0xcf, 0x32, 0xfd, 0xce, 0x08, 0x3b, 0x12, 0x2c,
  0xa7, 0xde, 0xf9, 0xd6, 0xaf, 0xda, 0x1f, 0x0b, 0xea, 0xf3, 0xd4, 0xd7,
  0xe1, 0x29, 0xe8, 0x3f, 0x30, 0x41, 0xf7, 0xf2, 0x2c, 0xfa, 0x3a, 0x20,
  0xbd, 0xd3, 0x3b, 0xcc, 0xc0, 0x24, 0x2c, 0x19, 0x1c, 0x23, 0xe5, 0x36,
  0x17, 0x30, 0xcc, 0x46, 0xe3, 0xed, 0x00, 0x03, 0x4c, 0x1d, 0xd4, 0x2d,
  0x24, 0xd4, 0x24, 0x44, 0xe5, 0x2a, 0x18, 0x31, 0x3b, 0xdb, 0xe3, 0xfe,
  0xed, 0xd2, 0xe0, 0xd6, 0x20, 0xf9, 0x1e, 0xfb, 0x5e, 0x3e, 0x48, 0x08,
  0x60, 0x39, 0x3e, 0xbf, 0x08, 0x09, 0x57, 0x27, 0xfd, 0xed, 0x24, 0x09,
  0x53, 0x19, 0x10, 0xc5, 0x56, 0xf1, 0x16, 0xfd, 0x0f, 0xfc, 0xdd, 0x04,
  0x06, 0xcb, 0xde, 0xf2, 0xe9, 0x28, 0x0d, 0xe1, 0x43, 0x03, 0x26, 0xc2,
  0x3f, 0x16, 0xfd, 0xd6, 0x2e, 0xd9, 0x46, 0xd0, 0xf0, 0xc8, 0x30, 0x1e,
  0xea, 0xc6, 0xf0, 0x28, 0x21, 0x2d, 0xd0, 0x36, 0xf0, 0x19, 0x0b, 0x09,
  0x25, 0x1c, 0x31, 0xf2, 0xd0, 0xbb, 0xce, 0x07, 0x21, 0x33, 0x35, 0xe7,
  0x29, 0x18, 0x33, 0xdb, 0x45, 0xfb, 0xd7, 0xf1, 0x43, 0xdf, 0xf5, 0xe1,
  0x0a, 0xe5, 0xd3, 0xf5, 0xe5, 0x05, 0x12, 0x27, 0xdb, 0x48, 0xe2, 0xfc,
  0x33, 0xc4, 0xd0, 0xe9, 0x45, 0x1b, 0x40, 0xdc, 0x0a, 0xfa, 0xe0, 0x10,
  0x11, 0x1d, 0x3b, 0x3f, 0xf8, 0x15, 0x12, 0x52, 0x34, 0xf0, 0xd7, 0x42,
  0xea, 0x15, 0xfb, 0x18, 0xf3, 0x55, 0x2e, 0x27, 0xf7, 0x00, 0xce, 0xe0,
  0x2f, 0xf9, 0x06, 0x38, 0xfb, 0xfd, 0xf7, 0xdf, 0x08, 0x04, 0x3a, 0xe9,
  0xfc, 0xeb, 0x31, 0x3c, 0x0e, 0x1f, 0xda, 0xd9, 0xe8, 0xfa, 0x1c, 0x13,
  0xdd, 0xdd, 0xf5, 0xbd, 0x04, 0xd5, 0x0a, 0x2b, 0xde, 0xb7, 0xe2, 0xf8,
  0xbf, 0x0e, 0x29, 0x20, 0xca, 0xab, 0xe0, 0x19, 0xdc, 0x05, 0xfa, 0xfb,
  0xe3, 0xcf, 0xb6, 0xb3, 0x38, 0xbc, 0x04, 0x9d, 0x26, 0xc8, 0xc3, 0x9c,
  0xc6, 0xcb, 0x06, 0xcc, 0x06, 0x9e, 0xf3, 0xaa, 0x0c, 0xf4, 0x27, 0x0f,
  0x27, 0xc4, 0xcb, 0xf6, 0x2f, 0xf4, 0x3e, 0x2f, 0x2a, 0xee, 0x3e, 0xd7,
  0x2e, 0xb6, 0xee, 0xde, 0x55, 0xec, 0xee, 0x25, 0x52, 0xd3, 0x3d, 0xb7,
  0x3c, 0xc1, 0xf2, 0xce, 0x4d, 0x26, 0xe7, 0xcf, 0x30, 0x12, 0x07, 0xb5,
  0x43, 0x13, 0xd7, 0xe2, 0xe9, 0x2c, 0x28, 0xb3, 0xd1, 0x22, 0x43, 0xf7,
  0x0e, 0xb6, 0xd9, 0x35, 0xca, 0x0a, 0x16, 0x27, 0x0f, 0xff, 0xd0, 0x06,
  0x41, 0x0a, 0xe9, 0xbc, 0x0d, 0x11, 0xca, 0x1b, 0xdb, 0x05, 0xd8, 0xea,
  0xbf, 0x06, 0xd0, 0xd4, 0x00, 0x14, 0xc0, 0xc2, 0xc3, 0x19, 0xe2, 0xbe,
  0x20, 0xbc, 0xe4, 0xd2, 0xee, 0xe1, 0xd3, 0xf5, 0xbc, 0xff, 0xbd, 0xcf,
  0x37, 0xff, 0x0a, 0xdb, 0x1f, 0x18, 0xdf, 0x3a, 0x2c, 0xea, 0x0b, 0x09,
  0xe2, 0x44, 0xfc, 0xd3, 0xd0, 0x3f, 0xc9, 0x0a, 0x3c, 0x0f, 0x06, 0x41,
  0x3f, 0xf2, 0xde, 0x06, 0xfe, 0xf8, 0xf9, 0x37, 0xe7, 0xea, 0x48, 0x0e,
  0x51, 0xdc, 0x04, 0x0e, 0xe3, 0x3b, 0x0a, 0xe6, 0x18, 0xbe, 0xf5, 0xdb,
  0xa7, 0x2f, 0x13, 0xe7, 0xe6, 0xcc, 0x00, 0x15, 0x01, 0xd7, 0xc3, 0x1a,
  0xbb, 0x23, 0xac, 0x23, 0xd2, 0xec, 0x26, 0x20, 0x0f, 0xce, 0x21, 0x2a,
  0xaf, 0x1a, 0xe9, 0xef, 0xae, 0x16, 0xf2, 0x33, 0x23, 0x22, 0xcc, 0xf3,
  0xbd, 0x05, 0x0b, 0x1f, 0xc7, 0x0d, 0xae, 0xfa, 0x21, 0xf9, 0x2b, 0xeb,
  0xb0, 0xd3, 0x0a, 0xfc, 0xb5, 0x21, 0xc5, 0x08, 0xcf, 0xe7, 0xca, 0xea,
  0xc4, 0x08, 0x2e, 0x36, 0xdf, 0x38, 0x1e, 0x12, 0x33, 0xcd, 0xcb, 0x13,
  0xc0, 0x20, 0x00, 0x24, 0xca, 0x0a, 0x1f, 0xf9, 0x3c, 0x26, 0x48, 0x11,
  0x08, 0x4a, 0xf5, 0x4b, 0x09, 0x42, 0x18, 0x42, 0xe5, 0x1c, 0xe6, 0x0e,
  0x54, 0xea, 0x21, 0xfc, 0x2e, 0x21, 0xe6, 0xfa, 0xe4, 0x52, 0x12, 0x23,
  0x46, 0x04, 0x2f, 0x13, 0x36, 0x3f, 0x06, 0xfc, 0xea, 0xd8, 0x36, 0x18,
  0x1b, 0x38, 0x06, 0x33, 0x39, 0xeb, 0x2e, 0xd5, 0x2e, 0x16, 0x44, 0x1b,
  0xfe, 0xd0, 0x46, 0x0a, 0x48, 0xde, 0x47, 0xb8, 0xeb, 0x1b, 0xfb, 0xfe,
  0xf6, 0xc2, 0xf5, 0xfc, 0x35, 0xdb, 0xf7, 0x13, 0xd5, 0x20, 0xd9, 0xcf,
  0x1e, 0xf8, 0x32, 0xbd, 0x03, 0x12, 0x17, 0xd5, 0xd8, 0xea, 0xd8, 0xd3,
  0xd0, 0x14, 0xe1, 0xb8, 0x37, 0xf8, 0xd3, 0xf2, 0xf4, 0xc8, 0x1f, 0xee,
  0x2a, 0x21, 0xe0, 0x22, 0x1c, 0xc9, 0x43, 0xbe, 0x3f, 0xbd, 0xf3, 0xc1,
  0xe7, 0xd2, 0xed, 0x35, 0x2b, 0x08, 0xec, 0xe6, 0xe8, 0xd3, 0x1f, 0x10,
  0xde, 0x31, 0x26, 0xfd, 0xec, 0xff, 0xc5, 0x3c, 0x04, 0x3a, 0x0e, 0x38,
  0xf8, 0x3d, 0x45, 0xf9, 0xe5, 0xe7, 0xee, 0x38, 0x45, 0x1f, 0xe0, 0x2a,
  0x12, 0x18, 0xdb, 0xda, 0x36, 0x0d, 0x2a, 0x53, 0xd6, 0xde, 0x15, 0x0f,
  0xf1, 0xfd, 0x26, 0x56, 0x1e, 0x13, 0xbf, 0xfa, 0xfe, 0xe8, 0xc5, 0x2a,
  0x28, 0x32, 0x2f, 0x16, 0xf2, 0x50, 0xeb, 0x0b, 0xea, 0xe2, 0x32, 0xe5,
  0x06, 0x4a, 0x28, 0x26, 0xf8, 0xef, 0x1a, 0xd6, 0xeb, 0x2b, 0x10, 0x03,
  0xcb, 0xe3, 0xe9, 0xe4, 0x1b, 0xee, 0x3c, 0x36, 0xea, 0xc2, 0xd2, 0x24,
  0xf1, 0xc0, 0xd9, 0xe7, 0xc2, 0x02, 0x19, 0xae, 0xfe, 0xb9, 0xdc, 0xe1,
  0xf0, 0x0b, 0xf4, 0xb7, 0xd4, 0x1c, 0x29, 0xd4, 0xdf, 0xe3, 0xdd, 0xcd,
  0xbe, 0x20, 0x09, 0x01, 0x2a, 0x08, 0x1d, 0xf5, 0xf9, 0x17, 0xca, 0xea,
  0xff, 0xd7, 0xe3, 0xe5, 0xcf, 0xf0, 0x24, 0x18, 0x42, 0x38, 0x1f, 0x2e,
  0xeb, 0x3d, 0x3e, 0x53, 0xf0, 0x47, 0x36, 0x3a, 0x27, 0x3b, 0xe2, 0xea,
  0x16, 0x51, 0x36, 0x31, 0xf9, 0x44, 0xfb, 0xeb, 0x3a, 0xf3, 0x3e, 0x2b,
  0xe0, 0xed, 0x1e, 0x38, 0x0f, 0x27, 0x12, 0x0d, 0x3b, 0x33, 0xfe, 0x24,
  0xe0, 0x07, 0x5b, 0xc2, 0x31, 0xdf, 0x44, 0xf3, 0x46, 0xe3, 0x26, 0xcf,
  0xd5, 0xb4, 0xe7, 0x03, 0x2f, 0xc0, 0x36, 0xa9, 0x30, 0x15, 0x40, 0x1f,
  0x3b, 0xc7, 0xfd, 0xd9, 0x34, 0xfb, 0xd9, 0xab, 0xd9, 0xc7, 0xde, 0x1d,
  0xf4, 0xe5, 0x11, 0x10, 0xf8, 0xbc, 0x38, 0xbb, 0xfa, 0x06, 0xe6, 0x1a,
  0xf4, 0x0a, 0xe1, 0xe0, 0xde, 0x1e, 0x36, 0x0d, 0xc4, 0x08, 0xbe, 0xf8,
  0x1a, 0x26, 0xbc, 0xdd, 0x10, 0x0d, 0xc1, 0x02, 0xcb, 0x17, 0xe7, 0xfd,
  0xe3, 0xbe, 0x12, 0xc8, 0x23, 0xf7, 0xfe, 0xff, 0x29, 0xde, 0x19, 0x03,
  0xce, 0xb3, 0xc9, 0x26, 0x16, 0xfc, 0xcd, 0x26, 0xdf, 0xe0, 0x29, 0xbf,
  0xd8, 0xd6, 0xc3, 0x17, 0xdb, 0x3d, 0x2d, 0x2f, 0x00, 0x67, 0xdd, 0x5e,
  0x32, 0x00, 0x0e, 0xe1, 0x22, 0xe7, 0x01, 0xed, 0x15, 0x4f, 0x06, 0x11,
  0xf6, 0xe1, 0xb6, 0x17, 0xef, 0x20, 0xe7, 0x3b, 0x18, 0xd3, 0xc3, 0x33,
  0xbb, 0x09, 0x9d, 0x19, 0xa7, 0xd1, 0xc3, 0x1e, 0xbc, 0x0e, 0xff, 0xb5,
  0xfd, 0x0b, 0xa7, 0xd9, 0xa9, 0xff, 0xcd, 0x29, 0xad, 0xf1, 0xec, 0xbd,
  0xc3, 0x0a, 0xec, 0x0e, 0xdc, 0xca, 0x0c, 0xbd, 0xb3, 0xef, 0x23, 0x9c,
  0xcb, 0xed, 0xfe, 0xaf, 0xb9, 0xc7, 0x38, 0x0c, 0x01, 0xbc, 0xe4, 0xe7,
  0xff, 0xfa, 0x30, 0xec, 0xf2, 0xc6, 0xbf, 0xa2, 0x30, 0xe1, 0x3a, 0xa5,
  0xc6, 0xcd, 0x44, 0xc5, 0x00, 0xef, 0x2b, 0xce, 0x42, 0xe2, 0x10, 0x23,
  0xe5, 0xf1, 0x26, 0x0c, 0x01, 0xe1, 0x0a, 0xcd, 0x34, 0xc8, 0x39, 0xca,
  0xf0, 0xf6, 0xdd, 0x05, 0x3d, 0xcd, 0xc1, 0x13, 0xf5, 0xc2, 0xf8, 0x3b,
  0x3f, 0x14, 0x10, 0x30, 0x2b, 0x43, 0x2f, 0xc2, 0xe1, 0x2f, 0x1d, 0xe1,
  0x21, 0x0a, 0x1d, 0xc3, 0xc8, 0x12, 0x2d, 0xc3, 0xef, 0xdf, 0x39, 0xf0,
  0xc8, 0x0d, 0xd1, 0xd2, 0xf8, 0xc0, 0xcd, 0x39, 0x40, 0xf3, 0xdb, 0xf9,
  0x05, 0x45, 0xe0, 0xcb, 0x02, 0x2c, 0x02, 0x3f, 0xfd, 0xf0, 0x1a, 0x2c,
  0x25, 0x36, 0xdc, 0x16, 0xf8, 0xf3, 0xc9, 0xe7, 0xf9, 0xce, 0xfd, 0x0a,
  0x33, 0x08, 0xca, 0x36, 0x14, 0x34, 0x03, 0x37, 0xe7, 0xff, 0x0b, 0xd7,
  0x0a, 0x18, 0xd8, 0x2d, 0xcf, 0xe1, 0xec, 0xe3, 0x2b, 0xed, 0xe9, 0xe4,
  0x2f, 0x49, 0xf8, 0x0b, 0x20, 0xee, 0x27, 0xe6, 0x36, 0x15, 0x05, 0xf2,
  0xe6, 0x35, 0x04, 0x3f, 0xf2, 0x0c, 0xee, 0xed, 0x30, 0xe2, 0x17, 0xff,
  0xf7, 0x09, 0x27, 0x36, 0x41, 0x20, 0x16, 0x18, 0x4a, 0xeb, 0xd3, 0x02,
  0xd8, 0xfc, 0x20, 0x2b, 0x20, 0x04, 0x06, 0x2e, 0xff, 0xf9, 0xe8, 0x2b,
  0x21, 0x01, 0x5b, 0x50, 0x46, 0x4c, 0x09, 0x34, 0x1f, 0x47, 0x50, 0xec,
  0xe4, 0x58, 0x2c, 0x3d, 0x27, 0x26, 0x2e, 0x4e, 0x17, 0x00, 0x2f, 0x3b,
  0xec, 0x12, 0xf6, 0xd3, 0x0f, 0x10, 0x40, 0x2b, 0xcc, 0xf3, 0x2f, 0xcd,
  0xe2, 0xf6, 0xc2, 0x0d, 0x12, 0xec, 0x34, 0xdd, 0xbd, 0x39, 0xea, 0xe8,
  0xd2, 0xea, 0x2a, 0xbe, 0x27, 0x01, 0x0f, 0xe9, 0xd6, 0x2d, 0x02, 0xc7,
  0xd6, 0xc9, 0x20, 0x0a, 0x0e, 0x0e, 0xb7, 0x06, 0xff, 0xcc, 0xbd, 0xe1,
  0x1b, 0x3b, 0x2c, 0x10, 0xce, 0xc8, 0xc3, 0x39, 0x02, 0xc3, 0x13, 0x11,
  0xbb, 0x31, 0xd7, 0xc5, 0x02, 0x35, 0xfe, 0xbe, 0x09, 0x01, 0xcf, 0xe2,
  0xda, 0xd1, 0x01, 0xc8, 0x03, 0x21, 0x3d, 0xe5, 0xe1, 0x23, 0x21, 0x14,
  0x15, 0xfd, 0xdb, 0x1c, 0xcc, 0x00, 0x0b, 0x25, 0x24, 0xcf, 0xd0, 0x19,
  0xd3, 0x09, 0xe2, 0xed, 0xdd, 0xc3, 0x33, 0xff, 0xf6, 0x24, 0xbd, 0x01,
  0xd8, 0xdc, 0xe8, 0xf3, 0x07, 0xb3, 0x1e, 0x2c, 0x1f, 0xb4, 0x2b, 0x16,
  0xc2, 0x08, 0xe4, 0xff, 0xb9, 0xca, 0x27, 0x21, 0xf5, 0xc0, 0xc9, 0x0a,
  0x32, 0x03, 0xce, 0xba, 0xf4, 0x04, 0xe0, 0xbc, 0x0f, 0xde, 0xd7, 0xbd,
  0xea, 0xc2, 0xb1, 0xdb, 0x34, 0x07, 0xeb, 0x2b, 0x26, 0x2b, 0xbe, 0x3a,
  0xf5, 0xef, 0xe8, 0x1d, 0xc2, 0xe1, 0xd2, 0xcb, 0xf6, 0x3d, 0xfb, 0x0e,
  0xef, 0xf1, 0xd2, 0xfe, 0xe2, 0xba, 0x3a, 0x1d, 0xeb, 0x16, 0x20, 0x24,
  0x13, 0x34, 0xeb, 0xf0, 0x45, 0x02, 0x09, 0x16, 0x3e, 0x0a, 0x23, 0x22,
  0x9d, 0xf0, 0xe0, 0x3f, 0xd6, 0x36, 0xdc, 0x12, 0x81, 0x1d, 0xb1, 0x2f,
  0x99, 0x35, 0xc7, 0x13, 0x97, 0xed, 0x95, 0x3c, 0xa9, 0xf2, 0xca, 0xd0,
  0xc8, 0xca, 0xdf, 0xd4, 0x07, 0x10, 0xd6, 0x38, 0x29, 0x22, 0x35, 0xe2,
  0x1f, 0x34, 0xc5, 0x14, 0x35, 0xdd, 0x22, 0xdc, 0xdb, 0xfa, 0x23, 0xed,
  0x3e, 0xae, 0xf5, 0xf6, 0x22, 0xa8, 0x0e, 0x03, 0x04, 0xe9, 0xf3, 0x16,
  0xd6, 0xd2, 0xc6, 0xe1, 0xfd, 0xce, 0xb6, 0xef, 0x24, 0x0f, 0xe1, 0xe5,
  0xf6, 0xcd, 0xdf, 0x14, 0xec, 0xce, 0xd5, 0xed, 0xe0, 0x1c, 0x13, 0x4d,
  0x0d, 0x20, 0xf9, 0xeb, 0xd6, 0x41, 0x12, 0x4c, 0xb1, 0x16, 0x07, 0xe6,
  0xfa, 0x09, 0xe8, 0x28, 0xfe, 0x08, 0xf6, 0x0d, 0xf0, 0x3e, 0x14, 0x06,
  0xd0, 0x32, 0xca, 0xdb, 0x22, 0xea, 0xe5, 0xe3, 0x21, 0x51, 0xf0, 0xeb,
  0x1e, 0xe2, 0xd1, 0x09, 0x0c, 0x2e, 0x05, 0x28, 0x04, 0xde, 0x1f, 0x16,
  0xe2, 0xd7, 0x34, 0xd5, 0xd6, 0xff, 0x4b, 0xdf, 0xf7, 0x27, 0x1a, 0xfe,
  0xea, 0xfd, 0x1a, 0xd5, 0xce, 0xf7, 0xef, 0x33, 0x16, 0x1d, 0x44, 0xe4,
  0xe3, 0xe1, 0x17, 0x31, 0xc6, 0xc6, 0xf9, 0x1a, 0x1f, 0xe7, 0x38, 0x33,
  0xc6, 0xd1, 0xde, 0xf2, 0xe4, 0xf7, 0xfd, 0xd7, 0x12, 0x20, 0xfa, 0x11,
  0x0e, 0xda, 0x3d, 0xe4, 0xf7, 0xc3, 0xcb, 0xd9, 0xec, 0x31, 0x3c, 0x15,
  0xf8, 0xea, 0x30, 0xb8, 0x42, 0xf2, 0x3f, 0x1b, 0x2e, 0x2d, 0xf8, 0xf8,
  0x0a, 0xfb, 0x3d, 0xfb, 0x43, 0xf6, 0x36, 0x24, 0x04, 0xdb, 0x07, 0xff,
  0x4b, 0x12, 0xfd, 0xf9, 0xe7, 0xc9, 0x3e, 0xb0, 0x29, 0xd5, 0x4a, 0x21,
  0x41, 0xa7, 0x43, 0xcd, 0x1c, 0xfa, 0x25, 0xe4, 0x05, 0xaf, 0x0e, 0x2a,
  0xee, 0xf2, 0x00, 0x1a, 0x20, 0x19, 0xcb, 0xf9, 0xbe, 0x3c, 0xe0, 0x1d,
  0xd6, 0x38, 0x2f, 0x46, 0x0d, 0x02, 0x2b, 0x1c, 0x0c, 0x40, 0xb2, 0x21,
  0xd0, 0xf6, 0xaa, 0xbd, 0xb6, 0xe6, 0xfb, 0x33, 0xbc, 0xdf, 0xc2, 0xcc,
  0xf0, 0xda, 0xc8, 0xe4, 0x03, 0x0d, 0x24, 0x17, 0x21, 0x2c, 0x27, 0xc7,
  0xbc, 0xf5, 0xf4, 0x2d, 0x01, 0xc9, 0xfb, 0x1a, 0x06, 0xbc, 0x19, 0x14,
  0x36, 0xb9, 0x11, 0xf3, 0xe7, 0xd4, 0x29, 0xaf, 0xf0, 0x17, 0xfc, 0xa2,
  0xe3, 0xe9, 0x1a, 0xa9, 0x08, 0xd5, 0x23, 0x18, 0x19, 0xe3, 0x41, 0xec,
  0x04, 0xcc, 0xea, 0xe8, 0x12, 0xd3, 0x28, 0xe3, 0x2e, 0xd0, 0xf4, 0xcf,
  0x09, 0xdb, 0x22, 0xde, 0xd1, 0x28, 0xf7, 0x27, 0xd4, 0xbd, 0xf1, 0xea,
  0xfd, 0x28, 0xf2, 0xd0, 0xe4, 0x07, 0x36, 0xfd, 0xe3, 0xed, 0xe1, 0x11,
  0xec, 0x32, 0x3d, 0xec, 0xe0, 0x28, 0xf7, 0xf8, 0xfe, 0x09, 0x0f, 0xf5,
  0xd2, 0xf5, 0xda, 0xe1, 0x2c, 0x0a, 0x20, 0x25, 0x1e, 0x3c, 0x27, 0x21,
  0x01, 0x23, 0xdf, 0x0d, 0xd1, 0x0c, 0x15, 0xea, 0xe1, 0xd2, 0x17, 0xc4,
  0x1e, 0x03, 0x00, 0xfb, 0x3b, 0x2a, 0x0f, 0xf3, 0xf7, 0x1b, 0x07, 0xc0,
  0x38, 0xe4, 0xd7, 0x0d, 0xe0, 0x25, 0x2b, 0xdf, 0xfa, 0xe9, 0xfe, 0xc3,
  0x20, 0xc4, 0x2c, 0x26, 0xe2, 0xbb, 0xf9, 0xf7, 0x42, 0xff, 0x1b, 0x32,
  0xda, 0x05, 0x0e, 0x0e, 0x0d, 0xd4, 0xc6, 0xd8, 0xdf, 0xc3, 0x41, 0x14,
  0xe5, 0xff, 0x1d, 0x19, 0x30, 0xec, 0x1e, 0xe0, 0x0a, 0xff, 0x0e, 0x21,
  0x39, 0xd4, 0xc9, 0x46, 0x3b, 0x00, 0x27, 0x1f, 0x29, 0x3b, 0x15, 0xd1,
  0x35, 0xfe, 0x3f, 0xf1, 0x10, 0xd2, 0x0d, 0xfa, 0x49, 0xa8, 0xe4, 0x85,
  0xce, 0x02, 0x06, 0x96, 0x36, 0xae, 0xf0, 0x01, 0xfa, 0xd0, 0x3b, 0xb3,
  0xfb, 0xec, 0x0e, 0xc4, 0x0d, 0xd8, 0x30, 0xe0, 0x05, 0xd0, 0x31, 0xed,
  0xdc, 0xe0, 0xf0, 0xc4, 0x17, 0x02, 0xc9, 0x35, 0xb2, 0xd6, 0xe9, 0x0a,
  0x0e, 0xf9, 0x2b, 0xda, 0xf1, 0xbe, 0xcc, 0xea, 0xca, 0xe4, 0x05, 0x28,
  0xc7, 0x1d, 0xb5, 0xd0, 0x22, 0x15, 0x1d, 0xdf, 0xd8, 0xf2, 0x27, 0xf2,
  0xe6, 0x50, 0xba, 0xdf, 0x16, 0x2c, 0xbf, 0x4b, 0x0b, 0x44, 0x1c, 0x53,
  0xe5, 0xdf, 0x2b, 0x06, 0xfd, 0x04, 0x22, 0x48, 0x40, 0xde, 0x42, 0xed,
  0xe9, 0xf4, 0xfc, 0xdc, 0x24, 0x07, 0xff, 0x07, 0xfb, 0x33, 0xfc, 0x2f,
  0x06, 0x34, 0x1d, 0xd0, 0xe1, 0xe2, 0x4d, 0xfb, 0x0b, 0x3a, 0x16, 0xe6,
  0x2e, 0xe9, 0x0b, 0xe8, 0x09, 0xf9, 0x26, 0xe6, 0x59, 0xd4, 0xde, 0xd4,
  0xe5, 0x18, 0xf3, 0xb8, 0x26, 0xf0, 0xdc, 0xbd, 0x45, 0x0a, 0x48, 0x37,
  0x22, 0x36, 0x4d, 0x17, 0x0e, 0xf0, 0xf9, 0x1b, 0xe6, 0xc0, 0x2a, 0x08,
  0x46, 0x14, 0x01, 0x08, 0x10, 0x38, 0x47, 0x40, 0xf8, 0xd0, 0x41, 0x0f,
  0x0b, 0x27, 0x32, 0x2d, 0xd9, 0xc4, 0xdb, 0xe9, 0x2c, 0xc9, 0xd3, 0x2a,
  0xe7, 0xf1, 0xf8, 0x1c, 0x24, 0x0e, 0x1b, 0xd6, 0x2e, 0xc2, 0x40, 0x35,
  0x17, 0xc3, 0x15, 0xfb, 0xf5, 0xc6, 0xce, 0xfb, 0x24, 0xe8, 0xe9, 0xdd,
  0x16, 0x45, 0x22, 0x27, 0x11, 0x1f, 0xcf, 0xd6, 0x2e, 0x22, 0x2b, 0x00,
  0xbc, 0x26, 0xec, 0x28, 0xf4, 0xf5, 0x1f, 0x19, 0x0a, 0xcb, 0xf5, 0xcc,
  0xf4, 0x39, 0x2e, 0xe9, 0x1b, 0x11, 0xeb, 0xe5, 0xff, 0x1a, 0xf9, 0x27,
  0xdb, 0x26, 0xf9, 0xf5, 0x15, 0x3a, 0xc2, 0xa0, 0xba, 0xac, 0x20, 0xe3,
  0xfa, 0xda, 0xdf, 0xe2, 0xdb, 0xad, 0x32, 0xe7, 0x21, 0xd0, 0xd1, 0xdd,
  0x06, 0xce, 0xd5, 0xac, 0xfd, 0xb1, 0x22, 0xb9, 0xee, 0xb7, 0x45, 0x21,
  0x27, 0xb1, 0x2d, 0x08, 0x30, 0xef, 0x3d, 0xef, 0xd9, 0xe4, 0x05, 0x37,
  0x0d, 0xf1, 0x37, 0xe7, 0xe8, 0xd4, 0xec, 0xfe, 0x10, 0xe8, 0xee, 0x3a,
  0x44, 0xfc, 0xf3, 0x4e, 0x1f, 0x28, 0x3e, 0x22, 0x00, 0xe1, 0x33, 0x5e,
  0x38, 0x2d, 0x02, 0xe3, 0x0e, 0x1a, 0x53, 0x3c, 0xe2, 0x26, 0x5a, 0x4d,
  0xda, 0xdd, 0x46, 0x4b, 0xe7, 0x4b, 0xd5, 0x25, 0xfb, 0x2a, 0x4b, 0xda,
  0x2f, 0x36, 0x4e, 0x27, 0xd7, 0xdc, 0x08, 0xe9, 0xcb, 0x1f, 0xf5, 0x13,
  0xf5, 0xde, 0x3b, 0x00, 0xeb, 0xec, 0xd9, 0x2d, 0xf9, 0x12, 0x39, 0x39,
  0x02, 0x43, 0x19, 0xe5, 0x24, 0x3b, 0xd7, 0xdc, 0x32, 0x16, 0x02, 0x47,
  0xc4, 0x1b, 0xe1, 0x22, 0x34, 0x44, 0xdc, 0xed, 0xe7, 0xd1, 0xd9, 0x1e,
  0xd6, 0x48, 0xdd, 0xd6, 0xe7, 0x16, 0xed, 0xf7, 0xb6, 0x3f, 0xe3, 0x41,
  0x30, 0x41, 0xca, 0xf2, 0xc4, 0xd1, 0x2e, 0x22, 0x35, 0x32, 0xef, 0xd5,
  0xe9, 0xdf, 0x0a, 0xe1, 0xf7, 0x07, 0x16, 0x27, 0xf2, 0xf3, 0xea, 0xfa,
  0xe6, 0xcc, 0x00, 0xcd, 0xd8, 0xfb, 0xe6, 0x15, 0xe4, 0xdd, 0xd4, 0xce,
  0xeb, 0x05, 0x41, 0x22, 0x39, 0xf7, 0x4c, 0xc9, 0xe4, 0x44, 0xfc, 0xc4,
  0xe7, 0x26, 0xef, 0x2f, 0xe9, 0xdc, 0xf2, 0x2a, 0xcc, 0xf4, 0x1d, 0x07,
  0x15, 0xda, 0x2b, 0xcb, 0xda, 0x34, 0xcc, 0xde, 0x30, 0x03, 0xcc, 0x24,
  0x0a, 0xd8, 0xde, 0x26, 0x1c, 0x3b, 0x36, 0x0a, 0x3f, 0x39, 0xfa, 0x02,
  0x0b, 0x3c, 0x02, 0xcc, 0x1c, 0x03, 0x09, 0xf7, 0x00, 0x2c, 0x0c, 0x54,
  0xc3, 0x3b, 0xf9, 0x68, 0xd3, 0x36, 0x01, 0x05, 0xc7, 0x60, 0xfc, 0xfe,
  0x02, 0x32, 0xe6, 0x16, 0x22, 0x43, 0x08, 0x25, 0x07, 0x36, 0x37, 0xdc,
  0xde, 0xd2, 0x1d, 0x01, 0x4c, 0xdf, 0x5d, 0x2a, 0x57, 0x04, 0x29, 0xd7,
  0xdc, 0xc9, 0x15, 0x1c, 0x32, 0x32, 0x32, 0xb9, 0xdd, 0xdd, 0xe1, 0xc4,
  0x1e, 0x0f, 0xf5, 0xee, 0xf8, 0x05, 0xe8, 0x16, 0x01, 0x18, 0xf5, 0xc3,
  0x5a, 0xe4, 0xdb, 0xe2, 0x3d, 0xf1, 0x21, 0x17, 0xfd, 0x13, 0xd6, 0x2f,
  0xee, 0x51, 0xde, 0x09, 0x1b, 0x10, 0x0f, 0x58, 0x2e, 0x58, 0x23, 0x30,
  0x0f, 0xf7, 0x29, 0xf0, 0xf9, 0x13, 0xc4, 0x52, 0xd8, 0x1e, 0x12, 0x30,
  0xfb, 0x30, 0x0d, 0x27, 0xd1, 0x26, 0x2b, 0x13, 0x0e, 0xf9, 0xfe, 0xf8,
  0xe0, 0x25, 0x3c, 0x36, 0xd4, 0x0f, 0x07, 0x0a, 0x15, 0x19, 0x3a, 0xf3,
  0x13, 0x19, 0x1d, 0xfb, 0xb4, 0xec, 0xe1, 0xf9, 0xb8, 0x0f, 0xf7, 0x1a,
  0x0b, 0xbd, 0x2f, 0x18, 0xee, 0xde, 0x16, 0xd5, 0xf4, 0xfc, 0xb4, 0xc7,
  0xf5, 0xd9, 0xee, 0xad, 0xda, 0xd9, 0xf2, 0x0c, 0xe5, 0xb3, 0xc7, 0xf5,
  0x15, 0xf2, 0x16, 0xce, 0x00, 0xd9, 0xdc, 0xbf, 0xb2, 0x2f, 0xb4, 0x27,
  0xe6, 0xe4, 0x1e, 0xeb, 0x2e, 0x33, 0xc4, 0xe5, 0xf0, 0x34, 0x0c, 0xdf,
  0x1c, 0xbe, 0xd8, 0xc3, 0xf7, 0x29, 0x28, 0x2f, 0xe4, 0xc4, 0xef, 0x3e,
  0x00, 0xd7, 0xe3, 0xdb, 0x04, 0xf1, 0x1f, 0xbf, 0x53, 0x32, 0xeb, 0xd5,
  0x18, 0xc0, 0xe6, 0xd5, 0x13, 0xfc, 0x0c, 0x00, 0x5d, 0x13, 0xe8, 0xcf,
  0xe8, 0xd5, 0x00, 0x06, 0x29, 0xf8, 0xf0, 0xc7, 0x11, 0xe4, 0x11, 0xbf,
  0xfe, 0xb1, 0x12, 0x1a, 0x04, 0xe8, 0xdc, 0x0f, 0xd5, 0x15, 0xca, 0x29,
  0x24, 0xca, 0xfb, 0x01, 0x31, 0x12, 0x22, 0xf1, 0xf2, 0x30, 0x1f, 0xbf,
  0x0c, 0xf0, 0x0d, 0x33, 0xc3, 0xc5, 0x01, 0xbf, 0xba, 0xd1, 0x1f, 0xd9,
  0xb1, 0x05, 0xc3, 0x2b, 0xae, 0x35, 0xc3, 0xe3, 0xe9, 0x24, 0xce, 0x1b,
  0xc4, 0x3d, 0xb3, 0x2c, 0xb0, 0x03, 0xd0, 0x49, 0xc2, 0x40, 0x13, 0x55,
  0xd9, 0x14, 0xd0, 0x2d, 0xeb, 0x4a, 0xd3, 0x2c, 0xc5, 0x47, 0x0a, 0x0a,
  0xfb, 0x07, 0x39, 0x3b, 0xf8, 0x21, 0x0c, 0xe6, 0xf0, 0x33, 0x1c, 0x45,
  0x2b, 0x1f, 0xe9, 0x31, 0x3e, 0xe2, 0xcd, 0xe1, 0x24, 0xd5, 0x11, 0x04,
  0x19, 0x32, 0x3d, 0x0d, 0xd0, 0x20, 0xce, 0x21, 0xf4, 0x23, 0xcf, 0x28,
  0xef, 0x18, 0x33, 0x07, 0x4e, 0x04, 0x13, 0x2f, 0x10, 0x30, 0x3e, 0x07,
  0x4b, 0xbc, 0x25, 0x0b, 0xcc, 0xc5, 0x18, 0xc3, 0x3f, 0x36, 0x23, 0xcb,
  0x25, 0x2d, 0x25, 0xf9, 0x1f, 0x3d, 0x28, 0xc5, 0x0f, 0xc5, 0xd4, 0xe9,
  0xc6, 0xce, 0x38, 0xfc, 0xcb, 0xc2, 0xc4, 0x15, 0xcc, 0xd7, 0xd7, 0x14,
  0x3e, 0x20, 0x2a, 0xd8, 0x3c, 0x32, 0xc5, 0x1b, 0x04, 0x41, 0x23, 0xe2,
  0xcc, 0xc8, 0x02, 0x13, 0x28, 0x00, 0x15, 0x07, 0x1a, 0x24, 0xc8, 0xef,
  0xcd, 0xe9, 0xe9, 0xdb, 0xd1, 0xca, 0x40, 0x42, 0xdc, 0x38, 0x14, 0xca,
  0xf5, 0xd0, 0x0a, 0xc7, 0xd0, 0x15, 0x35, 0x31, 0x3a, 0x13, 0x10, 0x2c,
  0x10, 0x3f, 0x29, 0xd5, 0x01, 0xf3, 0xf6, 0xff, 0xd2, 0xf7, 0x21, 0x35,
  0x0d, 0xd1, 0x34, 0x47, 0x1c, 0xe4, 0xd5, 0xf6, 0xe4, 0xde, 0x11, 0x35,
  0x2c, 0xfd, 0x16, 0x0f, 0xbd, 0x29, 0x0c, 0x17, 0x34, 0x04, 0xd6, 0x3f,
  0xfc, 0x49, 0xd2, 0xd5, 0xef, 0x1b, 0xe3, 0x2d, 0xcd, 0xf3, 0x0c, 0x36,
  0x1d, 0x16, 0x1c, 0x3b, 0xbb, 0x25, 0xe3, 0xd9, 0x1c, 0x0c, 0x22, 0x18,
  0x1f, 0xce, 0xf0, 0xda, 0xfa, 0xe9, 0x20, 0xe6, 0xac, 0x39, 0xf4, 0x05,
  0xd7, 0x2a, 0xf1, 0xe6, 0xdc, 0x38, 0x21, 0xc1, 0xe8, 0x1c, 0xe5, 0xbc,
  0x0e, 0x28, 0x1b, 0xcb, 0x2f, 0xef, 0x2b, 0xc3, 0x2e, 0x07, 0xed, 0xf5,
  0xfb, 0xc9, 0xfb, 0xb0, 0x3e, 0xd4, 0xe0, 0xf0, 0xde, 0xe3, 0xf3, 0xf6,
  0xd7, 0x9b, 0xf0, 0xe6, 0x39, 0x9c, 0x35, 0xc1, 0xd7, 0xcb, 0xfa, 0xb6,
  0x35, 0x08, 0x39, 0x16, 0xf0, 0xda, 0x46, 0xc9, 0x40, 0xfb, 0x31, 0x02,
  0xe8, 0xf8, 0x18, 0xbb, 0x54, 0x00, 0x3e, 0xc9, 0xe4, 0xe6, 0xea, 0xbc,
  0x39, 0xd2, 0x0d, 0x20, 0x25, 0xba, 0x49, 0xbe, 0x2c, 0xfc, 0x47, 0xc4,
  0x27, 0xf5, 0xc4, 0x2d, 0x3e, 0xb6, 0x09, 0xf6, 0x15, 0xc2, 0x23, 0xc0,
  0xc2, 0x39, 0xca, 0xdb, 0xe2, 0x32, 0x05, 0xc0, 0xd0, 0x28, 0xd9, 0x1c,
  0xf3, 0x29, 0xf5, 0xc8, 0xc2, 0x27, 0xdb, 0x26, 0xd1, 0xef, 0xeb, 0x3a,
  0xfb, 0x09, 0xee, 0x27, 0xcc, 0x02, 0xbc, 0x09, 0xb9, 0x3d, 0xf2, 0xc8,
  0xc9, 0xdb, 0xbc, 0x32, 0xc1, 0xce, 0x2c, 0xce, 0xed, 0x3e, 0x36, 0xd2,
  0xd4, 0x3a, 0xe7, 0xce, 0x1b, 0xcc, 0xba, 0x18, 0xbb, 0x4b, 0x21, 0xf7,
  0x13, 0xda, 0x3a, 0x32, 0x1a, 0x17, 0x03, 0x15, 0x3d, 0x26, 0x22, 0x52,
  0xc4, 0x26, 0x17, 0xfc, 0x35, 0xf8, 0xfe, 0x01, 0x17, 0x27, 0x18, 0x08,
  0x1f, 0x31, 0x21, 0xe1, 0x0c, 0xf6, 0xd2, 0x1f, 0x08, 0xed, 0x12, 0x0f,
  0x19, 0xf8, 0xc6, 0x04, 0x39, 0x11, 0x0e, 0xe0, 0xda, 0xf2, 0xd2, 0xc5,
  0x2f, 0x1a, 0x26, 0xe1, 0xbc, 0x05, 0x27, 0xe4, 0x31, 0x00, 0xe6, 0x29,
  0xf3, 0xd1, 0xdf, 0xd6, 0xe4, 0xfb, 0xe5, 0xe2, 0x15, 0x19, 0x19, 0xbb,
  0xf8, 0x0b, 0xf1, 0x30, 0x19, 0xe4, 0xe6, 0xf3, 0xc6, 0x22, 0xf0, 0x16,
  0x33, 0xef, 0xe7, 0xbc, 0x1e, 0x24, 0xf2, 0x36, 0x00, 0x36, 0xf8, 0xf7,
  0x08, 0xd0, 0xe4, 0xd0, 0xf1, 0xec, 0xe2, 0x01, 0xe2, 0xc2, 0x13, 0x20,
  0xff, 0x0d, 0x2e, 0xbe, 0x2a, 0xf3, 0x01, 0xe2, 0x29, 0x11, 0xd8, 0x15,
  0x34, 0xbf, 0x32, 0x04, 0xcd, 0xf7, 0xeb, 0x06, 0x0d, 0xfb, 0x3f, 0xcc,
  0xc7, 0xc0, 0xc9, 0xbd, 0xfb, 0x29, 0xde, 0xf3, 0x39, 0x2b, 0xd2, 0x06,
  0x1e, 0xde, 0x2e, 0xbe, 0xf3, 0xc7, 0x06, 0x38, 0x0a, 0x30, 0x37, 0xc4,
  0xf5, 0x2e, 0x3a, 0xf1, 0x1a, 0x35, 0xf7, 0xec, 0xd7, 0xce, 0x17, 0xc4,
  0x35, 0xc9, 0x55, 0x29, 0x20, 0x2b, 0xea, 0x0f, 0x12, 0xfa, 0x4f, 0xc2,
  0x46, 0xf3, 0x37, 0x45, 0xef, 0x26, 0x53, 0x00, 0xf7, 0x09, 0x0e, 0x2a,
  0x29, 0xd2, 0x3a, 0x09, 0xda, 0xff, 0x1f, 0x37, 0x0a, 0xde, 0x27, 0x26,
  0x0c, 0x39, 0x14, 0x03, 0x11, 0x0d, 0x1b, 0xf5, 0xf4, 0xd8, 0x44, 0x02,
  0x1d, 0x0d, 0x2e, 0xf8, 0x0f, 0x19, 0xf4, 0xf0, 0xd6, 0x05, 0x14, 0xe7,
  0xde, 0x28, 0x28, 0xca, 0xcd, 0x23, 0xd7, 0x1f, 0xcb, 0x25, 0xe0, 0xca,
  0xe8, 0x26, 0xcb, 0x2a, 0xf6, 0xee, 0xec, 0xe1, 0x1a, 0x40, 0xc3, 0xf0,
  0xc2, 0xee, 0xfc, 0xd9, 0x29, 0x00, 0xcf, 0xe2, 0x03, 0xd7, 0x1c, 0x49,
  0x21, 0x3b, 0x14, 0x4c, 0x02, 0xeb, 0xf8, 0x52, 0xe5, 0xd4, 0x1c, 0x55,
  0xd5, 0xd7, 0x27, 0x1a, 0xf2, 0xee, 0xe8, 0xfd, 0x24, 0xa7, 0x3d, 0xf1,
  0x3c, 0x04, 0x28, 0x1e, 0x34, 0xcd, 0x15, 0xcc, 0xfd, 0xd3, 0xcf, 0xe2,
  0xf5, 0x29, 0x0e, 0xa8, 0xd5, 0x14, 0x01, 0xb5, 0x3c, 0xf3, 0x0e, 0xc1,
  0xf1, 0xc4, 0xfb, 0x00, 0xf1, 0x27, 0xd6, 0xf6, 0x26, 0x14, 0xc1, 0x0b,
  0x1e, 0x4b, 0x11, 0xce, 0xd5, 0x02, 0xdc, 0x31, 0x05, 0x07, 0xf6, 0xda,
  0x21, 0x2f, 0x36, 0x2d, 0xdd, 0x56, 0x30, 0x2e, 0xfd, 0x22, 0x14, 0x20,
  0x02, 0x61, 0x20, 0x23, 0x2d, 0x00, 0x40, 0xf0, 0x15, 0x52, 0x42, 0x12,
  0x2f, 0xf0, 0xcc, 0xe2, 0x07, 0xd4, 0xd3, 0x1a, 0x2f, 0x48, 0x02, 0xcc,
  0xc8, 0xd1, 0x3c, 0xdb, 0x1a, 0xcd, 0x29, 0x17, 0x28, 0xdb, 0xf9, 0x09,
  0xea, 0xcb, 0xd3, 0x3b, 0xf6, 0x1c, 0xdf, 0x2e, 0xfa, 0xf5, 0x10, 0x27,
  0xe1, 0xcc, 0x30, 0xcd, 0xb9, 0xbb, 0x0c, 0xb7, 0x00, 0x15, 0xe8, 0x09,
  0x24, 0x25, 0x1e, 0x35, 0x22, 0xd2, 0xac, 0x15, 0x1e, 0xdb, 0x06, 0xfe,
  0x15, 0xdf, 0x06, 0x0a, 0xf7, 0x00, 0x1a, 0xdf, 0xed, 0x2a, 0xf8, 0x3f,
  0xef, 0x35, 0xe8, 0xe8, 0x1f, 0x0a, 0x1b, 0x39, 0xd6, 0xe1, 0xd1, 0xeb,
  0x25, 0x24, 0x26, 0x26, 0xf4, 0x2c, 0x23, 0xef, 0xf3, 0xd4, 0xf2, 0x47,
  0x43, 0x52, 0xc8, 0xe1, 0x2e, 0xd2, 0xd2, 0xd4, 0xf8, 0x4f, 0x2f, 0x24,
  0xe6, 0x23, 0xd0, 0x3d, 0xea, 0xe0, 0x48, 0x17, 0xcf, 0xd3, 0xc8, 0x0e,
  0xfd, 0x46, 0x15, 0xcb, 0x39, 0xf9, 0x17, 0x1c, 0x3c, 0xfd, 0xc7, 0x31,
  0x31, 0x3c, 0xc8, 0x39, 0xf7, 0x32, 0xcf, 0x3b, 0xf2, 0xe4, 0x18, 0x3a,
  0xce, 0x1f, 0xdc, 0xec, 0xda, 0x2a, 0x1b, 0x4a, 0x2d, 0xd0, 0xf6, 0xdb,
  0x39, 0x49, 0x36, 0x06, 0x21, 0x00, 0xd3, 0x1e, 0x24, 0x09, 0xc0, 0xcd,
  0xd3, 0x45, 0x09, 0x26, 0xf2, 0xe3, 0x20, 0x47, 0xf1, 0xfb, 0x04, 0xc4,
  0xf8, 0xd2, 0xef, 0x1f, 0xe5, 0x3e, 0xdc, 0xe3, 0x1b, 0xd4, 0xcc, 0xf9,
  0x15, 0xc7, 0xfe, 0x3b, 0x05, 0xcf, 0x06, 0xf7, 0xdb, 0xbf, 0xaa, 0x22,
  0xc4, 0xcd, 0xc1, 0xc3, 0xe4, 0x21, 0x0c, 0xd6, 0xbc, 0x12, 0xf5, 0xfa,
  0xc9, 0xee, 0xf6, 0x2c, 0xd4, 0x24, 0xfb, 0xf1, 0x04, 0xb9, 0x00, 0xba,
  0xed, 0xfd, 0xf9, 0xfa, 0xe3, 0xd9, 0x2c, 0x2f, 0xcc, 0x3d, 0x17, 0xe8,
  0x02, 0xc3, 0xc6, 0x26, 0x2d, 0xce, 0x16, 0x07, 0x1e, 0x22, 0xcd, 0x0d,
  0x21, 0x28, 0xd8, 0xd5, 0x0c, 0xed, 0x12, 0xd3, 0xd5, 0xe3, 0x3d, 0x0f,
  0xe9, 0xea, 0x27, 0xe6, 0x47, 0x2b, 0x13, 0x33, 0x3d, 0xe2, 0x28, 0x4d,
  0xe7, 0x37, 0x3a, 0xec, 0x30, 0x33, 0x3f, 0x2d, 0x23, 0x48, 0xd7, 0xc8,
  0xeb, 0x03, 0xda, 0x08, 0x1b, 0xf2, 0x3c, 0xc4, 0x18, 0xf1, 0x29, 0xfb,
  0x34, 0xfb, 0xd7, 0x1b, 0x3f, 0x03, 0xe3, 0xcd, 0x25, 0xe8, 0x16, 0xbc,
  0x24, 0xee, 0xd1, 0xda, 0xe1, 0xb9, 0x24, 0xcf, 0x0f, 0x19, 0x2e, 0x0e,
  0x46, 0xe0, 0xec, 0x19, 0x1f, 0x3b, 0xf9, 0xde, 0x25, 0xdb, 0x0f, 0xf2,
  0xf3, 0xf7, 0xf1, 0xf1, 0x07, 0x23, 0x2d, 0xbe, 0x53, 0x00, 0x48, 0xbd,
  0xd2, 0x2b, 0xe6, 0xce, 0xf0, 0xba, 0xd1, 0x21, 0xe9, 0x3f, 0x06, 0x2b,
  0xde, 0x32, 0x39, 0x0b, 0x0e, 0x2b, 0xf7, 0xce, 0xe1, 0x1d, 0x12, 0x1b,
  0x36, 0xcd, 0x25, 0x2a, 0x0d, 0xe7, 0x2a, 0xd1, 0xc6, 0xf5, 0xd1, 0x01,
  0xf0, 0x3f, 0x08, 0x21, 0x00, 0x32, 0x45, 0x35, 0x3e, 0xc9, 0xc5, 0x09,
  0x05, 0x43, 0x00, 0x1c, 0x60, 0xfe, 0xff, 0xff, 0x64, 0xfe, 0xff, 0xff,
  0x0f, 0x00, 0x00, 0x00, 0x4d, 0x4c, 0x49, 0x52, 0x20, 0x43, 0x6f, 0x6e,
  0x76, 0x65, 0x72, 0x74, 0x65, 0x64, 0x2e, 0x00, 0x01, 0x00, 0x00, 0x00,
  0x14, 0x00, 0x00, 0x00, 0x00, 0x00, 0x0e, 0x00, 0x18, 0x00, 0x14, 0x00,
  0x10, 0x00, 0x0c, 0x00, 0x08, 0x00, 0x04, 0x00, 0x0e, 0x00, 0x00, 0x00,
  0x14, 0x00, 0x00, 0x00, 0x1c, 0x00, 0x00, 0x00, 0x80, 0x01, 0x00, 0x00,
  0x84, 0x01, 0x00, 0x00, 0x88, 0x01, 0x00, 0x00, 0x04, 0x00, 0x00, 0x00,
  0x6d, 0x61, 0x69, 0x6e, 0x00, 0x00, 0x00, 0x00, 0x06, 0x00, 0x00, 0x00,
  0x30, 0x01, 0x00, 0x00, 0xe4, 0x00, 0x00, 0x00, 0xa0, 0x00, 0x00, 0x00,
  0x6c, 0x00, 0x00, 0x00, 0x38, 0x00, 0x00, 0x00, 0x04, 0x00, 0x00, 0x00,
  0x3e, 0xff, 0xff, 0xff, 0x14, 0x00, 0x00, 0x00, 0x00, 0x00, 0x00, 0x09,
  0x14, 0x00, 0x00, 0x00, 0x18, 0x00, 0x00, 0x00, 0x02, 0x00, 0x00, 0x00,
  0x2e, 0xff, 0xff, 0xff, 0x00, 0x00, 0x80, 0x3f, 0x01, 0x00, 0x00, 0x00,
  0x0c, 0x00, 0x00, 0x00, 0x01, 0x00, 0x00, 0x00, 0x0b, 0x00, 0x00, 0x00,
  0x26, 0xff, 0xff, 0xff, 0x10, 0x00, 0x00, 0x00, 0x00, 0x00, 0x00, 0x08,
  0x0c, 0x00, 0x00, 0x00, 0x10, 0x00, 0x00, 0x00, 0x18, 0xff, 0xff, 0xff,
  0x01, 0x00, 0x00, 0x00, 0x0b, 0x00, 0x00, 0x00, 0x03, 0x00, 0x00, 0x00,
  0x0a, 0x00, 0x00, 0x00, 0x05, 0x00, 0x00, 0x00, 0x06, 0x00, 0x00, 0x00,
  0x9e, 0xff, 0xff, 0xff, 0x14, 0x00, 0x00, 0x00, 0x00, 0x00, 0x00, 0x4b,
  0x14, 0x00, 0x00, 0x00, 0x18, 0x00, 0x00, 0x00, 0x01, 0x00, 0x00, 0x00,
  0x8e, 0xff, 0xff, 0xff, 0xcd, 0xcc, 0xcc, 0x3d, 0x01, 0x00, 0x00, 0x00,
  0x0a, 0x00, 0x00, 0x00, 0x01, 0x00, 0x00, 0x00, 0x09, 0x00, 0x00, 0x00,
  0x86, 0xff, 0xff, 0xff, 0x10, 0x00, 0x00, 0x00, 0x00, 0x00, 0x00, 0x08,
  0x0c, 0x00, 0x00, 0x00, 0x10, 0x00, 0x00, 0x00, 0x78, 0xff, 0xff, 0xff,
  0x01, 0x00, 0x00, 0x00, 0x09, 0x00, 0x00, 0x00, 0x03, 0x00, 0x00, 0x00,
  0x08, 0x00, 0x00, 0x00, 0x03, 0x00, 0x00, 0x00, 0x04, 0x00, 0x00, 0x00,
  0x00, 0x00, 0x0e, 0x00, 0x1a, 0x00, 0x14, 0x00, 0x10, 0x00, 0x0c, 0x00,
  0x0b, 0x00, 0x04, 0x00, 0x0e, 0x00, 0x00, 0x00, 0x1c, 0x00, 0x00, 0x00,
  0x00, 0x00, 0x00, 0x4b, 0x1c, 0x00, 0x00, 0x00, 0x20, 0x00, 0x00, 0x00,
  0x01, 0x00, 0x00, 0x00, 0x00, 0x00, 0x06, 0x00, 0x08, 0x00, 0x04, 0x00,
  0x06, 0x00, 0x00, 0x00, 0xcd, 0xcc, 0xcc, 0x3d, 0x01, 0x00, 0x00, 0x00,
  0x08, 0x00, 0x00, 0x00, 0x01, 0x00, 0x00, 0x00, 0x07, 0x00, 0x00, 0x00,
  0x00, 0x00, 0x0e, 0x00, 0x14, 0x00, 0x00, 0x00, 0x10, 0x00, 0x0c, 0x00,
  0x0b, 0x00, 0x04, 0x00, 0x0e, 0x00, 0x00, 0x00, 0x14, 0x00, 0x00, 0x00,
  0x00, 0x00, 0x00, 0x08, 0x10, 0x00, 0x00, 0x00, 0x14, 0x00, 0x00, 0x00,
  0x04, 0x00, 0x04, 0x00, 0x04, 0x00, 0x00, 0x00, 0x01, 0x00, 0x00, 0x00,
  0x07, 0x00, 0x00, 0x00, 0x03, 0x00, 0x00, 0x00, 0x00, 0x00, 0x00, 0x00,
  0x01, 0x00, 0x00, 0x00, 0x02, 0x00, 0x00, 0x00, 0x01, 0x00, 0x00, 0x00,
  0x0c, 0x00, 0x00, 0x00, 0x01, 0x00, 0x00, 0x00, 0x00, 0x00, 0x00, 0x00,
  0x0d, 0x00, 0x00, 0x00, 0x40, 0x06, 0x00, 0x00, 0xc0, 0x05, 0x00, 0x00,
  0x3c, 0x05, 0x00, 0x00, 0xd0, 0x04, 0x00, 0x00, 0x54, 0x04, 0x00, 0x00,
  0xe8, 0x03, 0x00, 0x00, 0x6c, 0x03, 0x00, 0x00, 0xd0, 0x02, 0x00, 0x00,
  0x44, 0x02, 0x00, 0x00, 0xa8, 0x01, 0x00, 0x00, 0x1c, 0x01, 0x00, 0x00,
  0x80, 0x00, 0x00, 0x00, 0x04, 0x00, 0x00, 0x00, 0x08, 0xfa, 0xff, 0xff,
  0x18, 0x00, 0x00, 0x00, 0x20, 0x00, 0x00, 0x00, 0x40, 0x00, 0x00, 0x00,
  0x0d, 0x00, 0x00, 0x00, 0x00, 0x00, 0x00, 0x09, 0x54, 0x00, 0x00, 0x00,
  0x02, 0x00, 0x00, 0x00, 0xff, 0xff, 0xff, 0xff, 0x05, 0x00, 0x00, 0x00,
  0xf4, 0xf9, 0xff, 0xff, 0x08, 0x00, 0x00, 0x00, 0x14, 0x00, 0x00, 0x00,
  0x01, 0x00, 0x00, 0x00, 0x80, 0xff, 0xff, 0xff, 0xff, 0xff, 0xff, 0xff,
  0x00, 0x00, 0x00, 0x00, 0x01, 0x00, 0x00, 0x00, 0x00, 0x00, 0x80, 0x3b,
  0x19, 0x00, 0x00, 0x00, 0x53, 0x74, 0x61, 0x74, 0x65, 0x66, 0x75, 0x6c,
  0x50, 0x61, 0x72, 0x74, 0x69, 0x74, 0x69, 0x6f, 0x6e, 0x65, 0x64, 0x43,
  0x61, 0x6c, 0x6c, 0x3a, 0x30, 0x00, 0x00, 0x00, 0x02, 0x00, 0x00, 0x00,
  0x01, 0x00, 0x00, 0x00, 0x05, 0x00, 0x00, 0x00, 0x80, 0xfa, 0xff, 0xff,
  0x18, 0x00, 0x00, 0x00, 0x20, 0x00, 0x00, 0x00, 0x40, 0x00, 0x00, 0x00,
  0x0c, 0x00, 0x00, 0x00, 0x00, 0x00, 0x00, 0x09, 0x74, 0x00, 0x00, 0x00,
  0x02, 0x00, 0x00, 0x00, 0xff, 0xff, 0xff, 0xff, 0x05, 0x00, 0x00, 0x00,
  0x6c, 0xfa, 0xff, 0xff, 0x08, 0x00, 0x00, 0x00, 0x14, 0x00, 0x00, 0x00,
  0x01, 0x00, 0x00, 0x00, 0xd9, 0xff, 0xff, 0xff, 0xff, 0xff, 0xff, 0xff,
  0x00, 0x00, 0x00, 0x00, 0x01, 0x00, 0x00, 0x00, 0x1b, 0x40, 0x95, 0x3d,
  0x3a, 0x00, 0x00, 0x00, 0x73, 0x65, 0x71, 0x75, 0x65, 0x6e, 0x74, 0x69,
  0x61, 0x6c, 0x5f, 0x33, 0x2f, 0x64, 0x65, 0x6e, 0x73, 0x65, 0x5f, 0x31,
  0x31, 0x2f, 0x4d, 0x61, 0x74, 0x4d, 0x75, 0x6c, 0x3b, 0x73, 0x65, 0x71,
  0x75, 0x65, 0x6e, 0x74, 0x69, 0x61, 0x6c, 0x5f, 0x33, 0x2f, 0x64, 0x65,
  0x6e, 0x73, 0x65, 0x5f, 0x31, 0x31, 0x2f, 0x42, 0x69, 0x61, 0x73, 0x41,
  0x64, 0x64, 0x00, 0x00, 0x02, 0x00, 0x00, 0x00, 0x01, 0x00, 0x00, 0x00,
  0x05, 0x00, 0x00, 0x00, 0x18, 0xfb, 0xff, 0xff, 0x18, 0x00, 0x00, 0x00,
  0x20, 0x00, 0x00, 0x00, 0x3c, 0x00, 0x00, 0x00, 0x0b, 0x00, 0x00, 0x00,
  0x00, 0x00, 0x00, 0x09, 0x64, 0x00, 0x00, 0x00, 0x02, 0x00, 0x00, 0x00,
  0xff, 0xff, 0xff, 0xff, 0x19, 0x00, 0x00, 0x00, 0x04, 0xfb, 0xff, 0xff,
  0x08, 0x00, 0x00, 0x00, 0x10, 0x00, 0x00, 0x00, 0x01, 0x00, 0x00, 0x00,
  0x93, 0xff, 0xff, 0xff, 0xff, 0xff, 0xff, 0xff, 0x01, 0x00, 0x00, 0x00,
  0x0b, 0x38, 0xdb, 0x3c, 0x2d, 0x00, 0x00, 0x00, 0x73, 0x65, 0x71, 0x75,
  0x65, 0x6e, 0x74, 0x69, 0x61, 0x6c, 0x5f, 0x33, 0x2f, 0x64, 0x65, 0x6e,
  0x73, 0x65, 0x5f, 0x31, 0x30, 0x2f, 0x6c, 0x65, 0x61, 0x6b, 0x79, 0x5f,
  0x72, 0x65, 0x5f, 0x6c, 0x75, 0x5f, 0x33, 0x2f, 0x4c, 0x65, 0x61, 0x6b,
  0x79, 0x52, 0x65, 0x6c, 0x75, 0x00, 0x00, 0x00, 0x02, 0x00, 0x00, 0x00,
  0x01, 0x00, 0x00, 0x00, 0x19, 0x00, 0x00, 0x00, 0xa0, 0xfb, 0xff, 0xff,
  0x18, 0x00, 0x00, 0x00, 0x20, 0x00, 0x00, 0x00, 0x40, 0x00, 0x00, 0x00,
  0x0a, 0x00, 0x00, 0x00, 0x00, 0x00, 0x00, 0x09, 0x74, 0x00, 0x00, 0x00,
  0x02, 0x00, 0x00, 0x00, 0xff, 0xff, 0xff, 0xff, 0x19, 0x00, 0x00, 0x00,
  0x8c, 0xfb, 0xff, 0xff, 0x08, 0x00, 0x00, 0x00, 0x14, 0x00, 0x00, 0x00,
  0x01, 0x00, 0x00, 0x00, 0xf3, 0xff, 0xff, 0xff, 0xff, 0xff, 0xff, 0xff,
  0x00, 0x00, 0x00, 0x00, 0x01, 0x00, 0x00, 0x00, 0xe6, 0xb7, 0x38, 0x3d,
  0x3a, 0x00, 0x00, 0x00, 0x73, 0x65, 0x71, 0x75, 0x65, 0x6e, 0x74, 0x69,
  0x61, 0x6c, 0x5f, 0x33, 0x2f, 0x64, 0x65, 0x6e, 0x73, 0x65, 0x5f, 0x31,
  0x30, 0x2f, 0x4d, 0x61, 0x74, 0x4d, 0x75, 0x6c, 0x3b, 0x73, 0x65, 0x71,
  0x75, 0x65, 0x6e, 0x74, 0x69, 0x61, 0x6c, 0x5f, 0x33, 0x2f, 0x64, 0x65,
  0x6e, 0x73, 0x65, 0x5f, 0x31, 0x30, 0x2f, 0x42, 0x69, 0x61, 0x73, 0x41,
  0x64, 0x64, 0x00, 0x00, 0x02, 0x00, 0x00, 0x00, 0x01, 0x00, 0x00, 0x00,
  0x19, 0x00, 0x00, 0x00, 0x38, 0xfc, 0xff, 0xff, 0x18, 0x00, 0x00, 0x00,
  0x20, 0x00, 0x00, 0x00, 0x3c, 0x00, 0x00, 0x00, 0x09, 0x00, 0x00, 0x00,
  0x00, 0x00, 0x00, 0x09, 0x64, 0x00, 0x00, 0x00, 0x02, 0x00, 0x00, 0x00,
  0xff, 0xff, 0xff, 0xff, 0x32, 0x00, 0x00, 0x00, 0x24, 0xfc, 0xff, 0xff,
  0x08, 0x00, 0x00, 0x00, 0x10, 0x00, 0x00, 0x00, 0x01, 0x00, 0x00, 0x00,
  0xa3, 0xff, 0xff, 0xff, 0xff, 0xff, 0xff, 0xff, 0x01, 0x00, 0x00, 0x00,
  0x01, 0x82, 0x6f, 0x3c, 0x2c, 0x00, 0x00, 0x00, 0x73, 0x65, 0x71, 0x75,
  0x65, 0x6e, 0x74, 0x69, 0x61, 0x6c, 0x5f, 0x33, 0x2f, 0x64, 0x65, 0x6e,
  0x73, 0x65, 0x5f, 0x39, 0x2f, 0x6c, 0x65, 0x61, 0x6b, 0x79, 0x5f, 0x72,
  0x65, 0x5f, 0x6c, 0x75, 0x5f, 0x33, 0x2f, 0x4c, 0x65, 0x61, 0x6b, 0x79,
  0x52, 0x65, 0x6c, 0x75, 0x00, 0x00, 0x00, 0x00, 0x02, 0x00, 0x00, 0x00,
  0x01, 0x00, 0x00, 0x00, 0x32, 0x00, 0x00, 0x00, 0xc0, 0xfc, 0xff, 0xff,
  0x18, 0x00, 0x00, 0x00, 0x20, 0x00, 0x00, 0x00, 0x40, 0x00, 0x00, 0x00,
  0x08, 0x00, 0x00, 0x00, 0x00, 0x00, 0x00, 0x09, 0x74, 0x00, 0x00, 0x00,
  0x02, 0x00, 0x00, 0x00, 0xff, 0xff, 0xff, 0xff, 0x32, 0x00, 0x00, 0x00,
  0xac, 0xfc, 0xff, 0xff, 0x08, 0x00, 0x00, 0x00, 0x14, 0x00, 0x00, 0x00,
  0x01, 0x00, 0x00, 0x00, 0x1c, 0x00, 0x00, 0x00, 0x00, 0x00, 0x00, 0x00,
  0x00, 0x00, 0x00, 0x00, 0x01, 0x00, 0x00, 0x00, 0x83, 0xba, 0x05, 0x3d,
  0x38, 0x00, 0x00, 0x00, 0x73, 0x65, 0x71, 0x75, 0x65, 0x6e, 0x74, 0x69,
  0x61, 0x6c, 0x5f, 0x33, 0x2f, 0x64, 0x65, 0x6e, 0x73, 0x65, 0x5f, 0x39,
  0x2f, 0x4d, 0x61, 0x74, 0x4d, 0x75, 0x6c, 0x3b, 0x73, 0x65, 0x71, 0x75,
  0x65, 0x6e, 0x74, 0x69, 0x61, 0x6c, 0x5f, 0x33, 0x2f, 0x64, 0x65, 0x6e,
  0x73, 0x65, 0x5f, 0x39, 0x2f, 0x42, 0x69, 0x61, 0x73, 0x41, 0x64, 0x64,
  0x00, 0x00, 0x00, 0x00, 0x02, 0x00, 0x00, 0x00, 0x01, 0x00, 0x00, 0x00,
  0x32, 0x00, 0x00, 0x00, 0xce, 0xfd, 0xff, 0xff, 0x14, 0x00, 0x00, 0x00,
  0x34, 0x00, 0x00, 0x00, 0x07, 0x00, 0x00, 0x00, 0x00, 0x00, 0x00, 0x02,
  0x5c, 0x00, 0x00, 0x00, 0x34, 0xfd, 0xff, 0xff, 0x08, 0x00, 0x00, 0x00,
  0x14, 0x00, 0x00, 0x00, 0x01, 0x00, 0x00, 0x00, 0x00, 0x00, 0x00, 0x00,
  0x00, 0x00, 0x00, 0x00, 0x00, 0x00, 0x00, 0x00, 0x01, 0x00, 0x00, 0x00,
  0x0f, 0xea, 0xe8, 0x38, 0x2c, 0x00, 0x00, 0x00, 0x73, 0x65, 0x71, 0x75,
  0x65, 0x6e, 0x74, 0x69, 0x61, 0x6c, 0x5f, 0x33, 0x2f, 0x64, 0x65, 0x6e,
  0x73, 0x65, 0x5f, 0x31, 0x31, 0x2f, 0x42, 0x69, 0x61, 0x73, 0x41, 0x64,
  0x64, 0x2f, 0x52, 0x65, 0x61, 0x64, 0x56, 0x61, 0x72, 0x69, 0x61, 0x62,
  0x6c, 0x65, 0x4f, 0x70, 0x00, 0x00, 0x00, 0x00, 0x01, 0x00, 0x00, 0x00,
  0x05, 0x00, 0x00, 0x00, 0x46, 0xfe, 0xff, 0xff, 0x14, 0x00, 0x00, 0x00,
  0x30, 0x00, 0x00, 0x00, 0x06, 0x00, 0x00, 0x00, 0x00, 0x00, 0x00, 0x09,
  0x48, 0x00, 0x00, 0x00, 0xac, 0xfd, 0xff, 0xff, 0x08, 0x00, 0x00, 0x00,
  0x10, 0x00, 0x00, 0x00, 0x01, 0x00, 0x00, 0x00, 0x00, 0x00, 0x00, 0x00,
  0x00, 0x00, 0x00, 0x00, 0x01, 0x00, 0x00, 0x00, 0x22, 0xff, 0x87, 0x3b,
  0x1c, 0x00, 0x00, 0x00, 0x73, 0x65, 0x71, 0x75, 0x65, 0x6e, 0x74, 0x69,
  0x61, 0x6c, 0x5f, 0x33, 0x2f, 0x64, 0x65, 0x6e, 0x73, 0x65, 0x5f, 0x31,
  0x31, 0x2f, 0x4d, 0x61, 0x74, 0x4d, 0x75, 0x6c, 0x00, 0x00, 0x00, 0x00,
  0x02, 0x00, 0x00, 0x00, 0x05, 0x00, 0x00, 0x00, 0x19, 0x00, 0x00, 0x00,
  0xae, 0xfe, 0xff, 0xff, 0x14, 0x00, 0x00, 0x00, 0x34, 0x00, 0x00, 0x00,
  0x05, 0x00, 0x00, 0x00, 0x00, 0x00, 0x00, 0x02, 0x5c, 0x00, 0x00, 0x00,
  0x14, 0xfe, 0xff, 0xff, 0x08, 0x00, 0x00, 0x00, 0x14, 0x00, 0x00, 0x00,
  0x01, 0x00, 0x00, 0x00, 0x00, 0x00, 0x00, 0x00, 0x00, 0x00, 0x00, 0x00,
  0x00, 0x00, 0x00, 0x00, 0x01, 0x00, 0x00, 0x00, 0x52, 0x19, 0x44, 0x38,
  0x2c, 0x00, 0x00, 0x00, 0x73, 0x65, 0x71, 0x75, 0x65, 0x6e, 0x74, 0x69,
  0x61, 0x6c, 0x5f, 0x33, 0x2f, 0x64, 0x65, 0x6e, 0x73, 0x65, 0x5f, 0x31,
  0x30, 0x2f, 0x42, 0x69, 0x61, 0x73, 0x41, 0x64, 0x64, 0x2f, 0x52, 0x65,
  0x61, 0x64, 0x56, 0x61, 0x72, 0x69, 0x61, 0x62, 0x6c, 0x65, 0x4f, 0x70,
  0x00, 0x00, 0x00, 0x00, 0x01, 0x00, 0x00, 0x00, 0x19, 0x00, 0x00, 0x00,
  0x26, 0xff, 0xff, 0xff, 0x14, 0x00, 0x00, 0x00, 0x30, 0x00, 0x00, 0x00,
  0x04, 0x00, 0x00, 0x00, 0x00, 0x00, 0x00, 0x09, 0x48, 0x00, 0x00, 0x00,
  0x8c, 0xfe, 0xff, 0xff, 0x08, 0x00, 0x00, 0x00, 0x10, 0x00, 0x00, 0x00,
  0x01, 0x00, 0x00, 0x00, 0x00, 0x00, 0x00, 0x00, 0x00, 0x00, 0x00, 0x00,
  0x01, 0x00, 0x00, 0x00, 0x1d, 0x9a, 0x51, 0x3b, 0x1c, 0x00, 0x00, 0x00,
  0x73, 0x65, 0x71, 0x75, 0x65, 0x6e, 0x74, 0x69, 0x61, 0x6c, 0x5f, 0x33,
  0x2f, 0x64, 0x65, 0x6e, 0x73, 0x65, 0x5f, 0x31, 0x30, 0x2f, 0x4d, 0x61,
  0x74, 0x4d, 0x75, 0x6c, 0x00, 0x00, 0x00, 0x00, 0x02, 0x00, 0x00, 0x00,
  0x19, 0x00, 0x00, 0x00, 0x32, 0x00, 0x00, 0x00, 0x8e, 0xff, 0xff, 0xff,
  0x14, 0x00, 0x00, 0x00, 0x30, 0x00, 0x00, 0x00, 0x03, 0x00, 0x00, 0x00,
  0x00, 0x00, 0x00, 0x02, 0x54, 0x00, 0x00, 0x00, 0xf4, 0xfe, 0xff, 0xff,
  0x08, 0x00, 0x00, 0x00, 0x10, 0x00, 0x00, 0x00, 0x01, 0x00, 0x00, 0x00,
  0x00, 0x00, 0x00, 0x00, 0x00, 0x00, 0x00, 0x00, 0x01, 0x00, 0x00, 0x00,
  0x22, 0x39, 0x0e, 0x37, 0x2b, 0x00, 0x00, 0x00, 0x73, 0x65, 0x71, 0x75,
  0x65, 0x6e, 0x74, 0x69, 0x61, 0x6c, 0x5f, 0x33, 0x2f, 0x64, 0x65, 0x6e,
  0x73, 0x65, 0x5f, 0x39, 0x2f, 0x42, 0x69, 0x61, 0x73, 0x41, 0x64, 0x64,
  0x2f, 0x52, 0x65, 0x61, 0x64, 0x56, 0x61, 0x72, 0x69, 0x61, 0x62, 0x6c,
  0x65, 0x4f, 0x70, 0x00, 0x01, 0x00, 0x00, 0x00, 0x32, 0x00, 0x00, 0x00,
  0x00, 0x00, 0x0e, 0x00, 0x18, 0x00, 0x14, 0x00, 0x13, 0x00, 0x0c, 0x00,
  0x08, 0x00, 0x04, 0x00, 0x0e, 0x00, 0x00, 0x00, 0x14, 0x00, 0x00, 0x00,
  0x34, 0x00, 0x00, 0x00, 0x02, 0x00, 0x00, 0x00, 0x00, 0x00, 0x00, 0x09,
  0x48, 0x00, 0x00, 0x00, 0x74, 0xff, 0xff, 0xff, 0x08, 0x00, 0x00, 0x00,
  0x14, 0x00, 0x00, 0x00, 0x01, 0x00, 0x00, 0x00, 0x00, 0x00, 0x00, 0x00,
  0x00, 0x00, 0x00, 0x00, 0x00, 0x00, 0x00, 0x00, 0x01, 0x00, 0x00, 0x00,
  0xe8, 0xaa, 0x0d, 0x3b, 0x1b, 0x00, 0x00, 0x00, 0x73, 0x65, 0x71, 0x75,
  0x65, 0x6e, 0x74, 0x69, 0x61, 0x6c, 0x5f, 0x33, 0x2f, 0x64, 0x65, 0x6e,
