const unsigned char model[] = {
  0x20, 0x00, 0x00, 0x00, 0x54, 0x46, 0x4c, 0x33, 0x00, 0x00, 0x00, 0x00,
  0x14, 0x00, 0x20, 0x00, 0x1c, 0x00, 0x18, 0x00, 0x14, 0x00, 0x10, 0x00,
  0x0c, 0x00, 0x00, 0x00, 0x08, 0x00, 0x04, 0x00, 0x14, 0x00, 0x00, 0x00,
  0x1c, 0x00, 0x00, 0x00, 0x98, 0x00, 0x00, 0x00, 0xf0, 0x00, 0x00, 0x00,
  0x74, 0x06, 0x00, 0x00, 0x84, 0x06, 0x00, 0x00, 0x40, 0x0a, 0x00, 0x00,
  0x03, 0x00, 0x00, 0x00, 0x01, 0x00, 0x00, 0x00, 0x10, 0x00, 0x00, 0x00,
  0x00, 0x00, 0x0a, 0x00, 0x10, 0x00, 0x0c, 0x00, 0x08, 0x00, 0x04, 0x00,
  0x0a, 0x00, 0x00, 0x00, 0x0c, 0x00, 0x00, 0x00, 0x1c, 0x00, 0x00, 0x00,
  0x3c, 0x00, 0x00, 0x00, 0x0f, 0x00, 0x00, 0x00, 0x73, 0x65, 0x72, 0x76,
  0x69, 0x6e, 0x67, 0x5f, 0x64, 0x65, 0x66, 0x61, 0x75, 0x6c, 0x74, 0x00,
  0x01, 0x00, 0x00, 0x00, 0x04, 0x00, 0x00, 0x00, 0x90, 0xff, 0xff, 0xff,
  0x04, 0x00, 0x00, 0x00, 0x04, 0x00, 0x00, 0x00, 0x08, 0x00, 0x00, 0x00,
  0x64, 0x65, 0x6e, 0x73, 0x65, 0x5f, 0x35, 0x38, 0x00, 0x00, 0x00, 0x00,
  0x01, 0x00, 0x00, 0x00, 0x04, 0x00, 0x00, 0x00, 0x7a, 0xf9, 0xff, 0xff,
  0x04, 0x00, 0x00, 0x00, 0x0e, 0x00, 0x00, 0x00, 0x64, 0x65, 0x6e, 0x73,
  0x65, 0x5f, 0x35, 0x38, 0x5f, 0x69, 0x6e, 0x70, 0x75, 0x74, 0x00, 0x00,
  0x02, 0x00, 0x00, 0x00, 0x34, 0x00, 0x00, 0x00, 0x04, 0x00, 0x00, 0x00,
  0xdc, 0xff, 0xff, 0xff, 0x07, 0x00, 0x00, 0x00, 0x04, 0x00, 0x00, 0x00,
  0x13, 0x00, 0x00, 0x00, 0x43, 0x4f, 0x4e, 0x56, 0x45, 0x52, 0x53, 0x49,
  0x4f, 0x4e, 0x5f, 0x4d, 0x45, 0x54, 0x41, 0x44, 0x41, 0x54, 0x41, 0x00,
  0x08, 0x00, 0x0c, 0x00, 0x08, 0x00, 0x04, 0x00, 0x08, 0x00, 0x00, 0x00,
  0x06, 0x00, 0x00, 0x00, 0x04, 0x00, 0x00, 0x00, 0x13, 0x00, 0x00, 0x00,
  0x6d, 0x69, 0x6e, 0x5f, 0x72, 0x75, 0x6e, 0x74, 0x69, 0x6d, 0x65, 0x5f,
  0x76, 0x65, 0x72, 0x73, 0x69, 0x6f, 0x6e, 0x00, 0x08, 0x00, 0x00, 0x00,
  0x80, 0x05, 0x00, 0x00, 0x78, 0x05, 0x00, 0x00, 0x54, 0x05, 0x00, 0x00,
  0x9c, 0x00, 0x00, 0x00, 0x94, 0x00, 0x00, 0x00, 0x8c, 0x00, 0x00, 0x00,
  0x6c, 0x00, 0x00, 0x00, 0x04, 0x00, 0x00, 0x00, 0x16, 0xfa, 0xff, 0xff,
  0x04, 0x00, 0x00, 0x00, 0x58, 0x00, 0x00, 0x00, 0x0c, 0x00, 0x00, 0x00,
  0x08, 0x00, 0x0e, 0x00, 0x08, 0x00, 0x04, 0x00, 0x08, 0x00, 0x00, 0x00,
  0x10, 0x00, 0x00, 0x00, 0x28, 0x00, 0x00, 0x00, 0x00, 0x00, 0x06, 0x00,
  0x08, 0x00, 0x04, 0x00, 0x06, 0x00, 0x00, 0x00, 0x04, 0x00, 0x00, 0x00,
  0x01, 0x00, 0x00, 0x00, 0xeb, 0x03, 0x00, 0x00, 0x00, 0x00, 0x0a, 0x00,
  0x10, 0x00, 0x0c, 0x00, 0x08, 0x00, 0x04, 0x00, 0x0a, 0x00, 0x00, 0x00,
  0x02, 0x00, 0x00, 0x00, 0x02, 0x00, 0x00, 0x00, 0x04, 0x00, 0x00, 0x00,
  0x06, 0x00, 0x00, 0x00, 0x32, 0x2e, 0x31, 0x30, 0x2e, 0x30, 0x00, 0x00,
  0x7a, 0xfa, 0xff, 0xff, 0x04, 0x00, 0x00, 0x00, 0x10, 0x00, 0x00, 0x00,
  0x31, 0x2e, 0x31, 0x34, 0x2e, 0x30, 0x00, 0x00, 0x00, 0x00, 0x00, 0x00,
  0x00, 0x00, 0x00, 0x00, 0x54, 0xfa, 0xff, 0xff, 0x58, 0xfa, 0xff, 0xff,
  0x9e, 0xfa, 0xff, 0xff, 0x04, 0x00, 0x00, 0x00, 0xa6, 0x04, 0x00, 0x00,
  0x61, 0x13, 0xd1, 0x2a, 0xc8, 0xb3, 0xe8, 0xb3, 0xc9, 0xea, 0x34, 0x41,
  0x4f, 0x31, 0x42, 0xb1, 0xe6, 0xbf, 0x27, 0xe8, 0x74, 0x31, 0xe5, 0xe3,
  0x22, 0xdf, 0x53, 0xb9, 0xd2, 0x1c, 0x30, 0xb7, 0x2c, 0xbb, 0xf1, 0x64,
  0x0b, 0x04, 0x27, 0x5c, 0xe3, 0xe1, 0x1f, 0xd9, 0x10, 0x02, 0xee, 0xe9,
  0x3c, 0x50, 0x08, 0x7a, 0xe9, 0x25, 0xc9, 0x74, 0x22, 0x3b, 0x54, 0x0a,
  0x29, 0xd8, 0x20, 0x76, 0xe3, 0xfa, 0x5b, 0x51, 0x3b, 0x38, 0x02, 0xd4,
  0xec, 0x67, 0xe3, 0x10, 0xab, 0x2b, 0xc9, 0x48, 0xa5, 0x0e, 0x2a, 0x53,
  0xea, 0x0d, 0x9c, 0xcf, 0x2c, 0x5b, 0xcf, 0xe4, 0x32, 0x25, 0x2e, 0x4f,
  0x8c, 0x47, 0xdb, 0xdd, 0x9c, 0x57, 0xb9, 0x48, 0xe5, 0x36, 0x2a, 0xc2,
  0x88, 0xed, 0xa7, 0x11, 0xc9, 0xe6, 0xb9, 0xb2, 0x19, 0xb6, 0x37, 0x35,
  0xac, 0x1c, 0xab, 0xb9, 0x28, 0xe8, 0xc2, 0xc0, 0x3a, 0x3b, 0xd3, 0x96,
  0x24, 0xa5, 0xcd, 0x1a, 0xfc, 0xc4, 0xb9, 0x0c, 0xb5, 0xdc, 0xea, 0x16,
  0x41, 0xfe, 0xe3, 0x08, 0xfe, 0xde, 0x02, 0x17, 0xcf, 0xff, 0x0c, 0xa5,
  0xaa, 0x52, 0x23, 0x42, 0x30, 0xf4, 0xd8, 0x1d, 0xbc, 0xc3, 0xd9, 0x28,
  0xdf, 0x1d, 0x21, 0x51, 0x02, 0x06, 0x11, 0xed, 0xb7, 0xd1, 0x30, 0xfb,
  0xcd, 0xdf, 0xcd, 0xb5, 0xf8, 0x1f, 0x12, 0x4d, 0x44, 0x12, 0x09, 0xec,
  0x46, 0xd5, 0xf7, 0x45, 0x1d, 0xb2, 0xaa, 0xf7, 0xd9, 0xc0, 0x1f, 0x0d,
  0xfe, 0x4f, 0x9b, 0xf8, 0x1d, 0xfa, 0x94, 0xd9, 0xec, 0xdc, 0x25, 0xed,
  0x41, 0x04, 0x39, 0x57, 0xdc, 0xde, 0x9f, 0xe3, 0xc8, 0x52, 0x46, 0x2f,
  0x21, 0x57, 0xa3, 0xf1, 0x01, 0xfb, 0xf6, 0x3a, 0x2a, 0xb4, 0x04, 0x5e,
  0xdc, 0xac, 0x27, 0xfe, 0x42, 0x30, 0xf2, 0x0a, 0xe8, 0xf6, 0x24, 0xe0,
  0x32, 0x56, 0x40, 0x44, 0x10, 0x38, 0x27, 0xa9, 0x0a, 0x4c, 0x9c, 0x3f,
  0xc1, 0xfc, 0xb4, 0xfd, 0x46, 0x30, 0xfd, 0x36, 0xfa, 0xf0, 0x4d, 0xf1,
  0xa1, 0xca, 0xf5, 0x92, 0xa5, 0xf9, 0xbb, 0x04, 0xff, 0xb8, 0xde, 0xc0,
  0x04, 0xf9, 0xed, 0xcb, 0x2c, 0xa2, 0x13, 0xff, 0xed, 0x33, 0xff, 0x39,
  0x55, 0x19, 0x29, 0xa8, 0xee, 0xa1, 0xd0, 0xdb, 0xd8, 0x95, 0x2e, 0x94,
  0xf0, 0xed, 0x26, 0xd5, 0xe6, 0x22, 0xfb, 0xc9, 0x43, 0xff, 0xf5, 0x4e,
  0xb0, 0x33, 0xc5, 0x09, 0x07, 0xc9, 0xb0, 0x3f, 0xda, 0x1d, 0x47, 0x28,
  0xdc, 0x52, 0x43, 0x51, 0x26, 0xcb, 0xdb, 0x12, 0xf5, 0x1c, 0x2a, 0x46,
  0xc5, 0x6c, 0xb5, 0x13, 0x56, 0xff, 0xcd, 0xe2, 0xbd, 0x49, 0x38, 0x1a,
  0xa3, 0x48, 0xda, 0x67, 0xc4, 0x2c, 0x20, 0x44, 0xd0, 0xcd, 0x08, 0xf3,
  0xd1, 0xeb, 0xd6, 0x42, 0xe1, 0x26, 0x2b, 0x1c, 0x2c, 0x3f, 0xf4, 0xcb,
  0x48, 0xd7, 0xbe, 0xf1, 0x30, 0xa2, 0x58, 0xcf, 0x39, 0xde, 0x35, 0xb6,
  0xdc, 0x1c, 0xe6, 0xac, 0x37, 0xba, 0x24, 0x23, 0x14, 0xb0, 0xc8, 0x14,
  0x53, 0x1b, 0x12, 0xc4, 0xb0, 0xdb, 0x19, 0xa1, 0x3c, 0x32, 0xb5, 0xa2,
  0x47, 0xff, 0xcf, 0xb6, 0x49, 0xb9, 0x2c, 0xd4, 0xc0, 0xf8, 0x60, 0xaa,
  0x51, 0x36, 0xbb, 0xb4, 0x31, 0x36, 0x4c, 0x06, 0xbc, 0xfc, 0x2e, 0xe1,
  0x2e, 0xfd, 0xe2, 0x0d, 0x30, 0x08, 0x1c, 0x46, 0xf6, 0x97, 0x3a, 0xa4,
  0x04, 0xf3, 0xb6, 0xc1, 0x14, 0x40, 0x08, 0xbf, 0xce, 0x3f, 0x4e, 0xcb,
  0xb0, 0xd4, 0x17, 0xd2, 0x49, 0xc0, 0x0f, 0x02, 0xeb, 0x96, 0x5b, 0x9b,
  0x50, 0xe2, 0xb7, 0x9e, 0xde, 0xae, 0xa2, 0xbb, 0xe0, 0xd1, 0x36, 0x0b,
  0x9d, 0x23, 0xea, 0x29, 0xf5, 0xcf, 0xe2, 0xa1, 0x92, 0xa8, 0xf9, 0x06,
  0xea, 0x52, 0x98, 0xc7, 0x92, 0xf1, 0xd0, 0xcb, 0x8d, 0xbd, 0xd6, 0x04,
  0xeb, 0xef, 0x91, 0xd1, 0x10, 0x29, 0x04, 0x2d, 0xea, 0x45, 0xda, 0xc7,
  0x2d, 0x39, 0xd9, 0x55, 0x26, 0x21, 0xfa, 0x45, 0x09, 0x65, 0x2e, 0x1b,
  0xc3, 0x72, 0xe8, 0xf2, 0xcf, 0x6e, 0x53, 0x26, 0x2d, 0x60, 0x4c, 0xe9,
  0xe4, 0xd9, 0x41, 0x21, 0xcd, 0xd2, 0xd8, 0xc6, 0xf5, 0xba, 0x05, 0x2f,
  0x65, 0xc9, 0x72, 0xc2, 0xd3, 0x25, 0x18, 0xeb, 0xc6, 0x46, 0x55, 0xd4,
  0x05, 0x9f, 0x40, 0xad, 0x5c, 0x29, 0xd9, 0xe0, 0xfc, 0x2b, 0x01, 0x3d,
  0xc9, 0x97, 0x43, 0xcd, 0x30, 0xdb, 0xcd, 0xff, 0x28, 0xc3, 0xe8, 0x14,
  0x49, 0xd9, 0x39, 0x02, 0xd5, 0xf9, 0xf2, 0xa3, 0xfa, 0xc1, 0xfd, 0xdf,
  0x26, 0xe1, 0xf8, 0xe0, 0x35, 0x52, 0xcc, 0xfb, 0x0b, 0x0b, 0xc6, 0x20,
  0x5f, 0xed, 0xf7, 0xf7, 0x30, 0xd7, 0x54, 0x33, 0xe9, 0x26, 0xcc, 0xf7,
  0xde, 0x3a, 0xed, 0x00, 0x0e, 0x0f, 0xf3, 0x12, 0x44, 0xcb, 0x0f, 0x4b,
  0xf7, 0xed, 0x69, 0x12, 0xbb, 0xc3, 0xb4, 0xd8, 0xbc, 0x24, 0xd5, 0xbc,
  0x1a, 0xf0, 0xd7, 0xe7, 0xf8, 0xd5, 0x17, 0x0e, 0xc2, 0x65, 0x34, 0xd7,
  0x35, 0xfa, 0x9d, 0x50, 0x17, 0x36, 0xee, 0xd1, 0xca, 0x4b, 0xeb, 0x56,
  0x15, 0xcf, 0xac, 0x1f, 0x03, 0xe8, 0x33, 0x17, 0xc2, 0x39, 0x43, 0xff,
  0xcb, 0x49, 0x12, 0xf6, 0x91, 0x45, 0xa6, 0xef, 0x36, 0x60, 0x16, 0x17,
  0x08, 0xeb, 0x41, 0x55, 0x24, 0x0a, 0x66, 0x17, 0x0d, 0x15, 0xe7, 0x1e,
  0x0a, 0x33, 0x00, 0xca, 0xcf, 0xb9, 0x40, 0x52, 0xe5, 0x1a, 0xf7, 0x25,
  0xd5, 0xf6, 0xe1, 0x54, 0x62, 0xca, 0x6c, 0x1e, 0x2d, 0x55, 0x62, 0xe0,
  0x09, 0x3d, 0x63, 0x33, 0x0e, 0x28, 0xd2, 0xce, 0x46, 0x21, 0x45, 0xdd,
  0x4c, 0xff, 0xc6, 0xd2, 0xfc, 0xa0, 0x65, 0x1e, 0xcc, 0x07, 0x20, 0x2b,
  0x78, 0xfe, 0x35, 0x03, 0xea, 0x81, 0x04, 0x0c, 0x1f, 0xba, 0x12, 0x37,
  0x1d, 0x94, 0x33, 0x99, 0x0c, 0x8a, 0xe7, 0x9b, 0x2d, 0xc2, 0x3c, 0x13,
  0x04, 0x23, 0xf0, 0xdf, 0xb4, 0x25, 0x31, 0xaf, 0x36, 0xe3, 0xa6, 0x37,
  0x13, 0x0f, 0xa3, 0xbd, 0xb0, 0x22, 0x27, 0x93, 0x30, 0xfa, 0x00, 0x1d,
  0x07, 0xfc, 0x03, 0x08, 0xae, 0xf7, 0x8c, 0x22, 0x98, 0x20, 0x35, 0xc4,
  0xc8, 0xd0, 0xdf, 0x30, 0x11, 0x06, 0xde, 0xdf, 0x29, 0x1b, 0x87, 0xb6,
  0x09, 0x33, 0x1c, 0x2d, 0x0c, 0xcf, 0xa1, 0xbc, 0xa7, 0xc8, 0x83, 0x4e,
  0xaa, 0xce, 0x96, 0x4e, 0x82, 0x3b, 0xbe, 0x37, 0xce, 0x69, 0x32, 0xb4,
  0xfa, 0x38, 0x0b, 0x4a, 0xbd, 0xd1, 0xbd, 0xf7, 0xdf, 0xb7, 0xcf, 0x31,
  0x8d, 0x01, 0x99, 0xc7, 0xfc, 0xf3, 0xe8, 0xda, 0xec, 0x0a, 0x3d, 0x2c,
  0xac, 0x0a, 0xe0, 0x45, 0x2d, 0x19, 0xa6, 0x2b, 0xa8, 0xaa, 0x56, 0xf8,
  0xa5, 0xc2, 0xae, 0x59, 0x11, 0x32, 0x4b, 0xa5, 0xe2, 0xad, 0x54, 0x3a,
  0xac, 0xed, 0x42, 0xe0, 0x0f, 0x4b, 0x06, 0x49, 0x37, 0x45, 0x15, 0xd0,
  0xe5, 0x2a, 0xc0, 0xb9, 0xd4, 0x53, 0x1d, 0xd8, 0x5c, 0xb4, 0x62, 0x41,
  0xd5, 0xb5, 0xf5, 0xc4, 0x12, 0xe8, 0x16, 0xb6, 0xe5, 0xd7, 0x4c, 0xed,
  0x5f, 0xdd, 0xd7, 0xe1, 0x94, 0x34, 0xe3, 0xca, 0x26, 0xe3, 0xb6, 0x36,
  0x36, 0x41, 0x17, 0xc2, 0xbe, 0x55, 0xf9, 0xdc, 0xae, 0x1c, 0x2a, 0xc2,
  0xa7, 0x0b, 0xd9, 0xed, 0x26, 0xd4, 0xb6, 0xda, 0x15, 0xf4, 0xae, 0x4b,
  0x37, 0xd1, 0xb1, 0xb1, 0xb4, 0xe1, 0x2d, 0x1d, 0xa1, 0x3e, 0xa5, 0xe5,
  0xbe, 0xb9, 0xfa, 0x18, 0x1d, 0xbf, 0x21, 0x09, 0x85, 0xbf, 0x0c, 0xf1,
  0xb9, 0xdd, 0x01, 0x1f, 0x94, 0xdb, 0x17, 0xe8, 0x91, 0xa1, 0xdc, 0x20,
  0x9e, 0xfc, 0xe8, 0xa9, 0xae, 0xc3, 0xf2, 0x10, 0xfd, 0xf7, 0xcc, 0x9e,
  0x44, 0xf8, 0x00, 0x8c, 0xad, 0x8e, 0xe5, 0x9a, 0x21, 0xc0, 0xb6, 0x24,
  0xb4, 0x8c, 0xbf, 0xc5, 0x13, 0x1e, 0x00, 0x0c, 0xd7, 0x36, 0x05, 0xe8,
  0x0a, 0xb6, 0x4c, 0xd3, 0xc3, 0xc5, 0xd2, 0xe8, 0x0e, 0x9d, 0x4d, 0x9c,
  0xc9, 0xcf, 0xc1, 0x10, 0xfa, 0xb3, 0x22, 0x18, 0x39, 0x30, 0xbc, 0x12,
  0x69, 0xd3, 0x47, 0xb0, 0xb7, 0x08, 0x4b, 0x9b, 0xc7, 0x19, 0x60, 0xf0,
  0xf3, 0x51, 0x32, 0x29, 0x36, 0xec, 0xec, 0x2f, 0x52, 0x27, 0x2b, 0x4e,
  0x1f, 0x3c, 0xed, 0x3d, 0xab, 0x1c, 0xcd, 0xf8, 0xb0, 0xf4, 0xd3, 0xe6,
  0x43, 0x47, 0x27, 0x42, 0x1a, 0xc5, 0xae, 0xa0, 0xe4, 0x30, 0xcc, 0x23,
  0xbd, 0x2e, 0xe9, 0x3f, 0x19, 0xb5, 0x4c, 0x2c, 0x11, 0xe9, 0x2f, 0x31,
  0x10, 0x4a, 0x2b, 0x3c, 0xf6, 0x3d, 0x5d, 0x20, 0xee, 0x5b, 0x53, 0xb6,
  0xe0, 0xeb, 0x15, 0xe3, 0xf5, 0x16, 0x30, 0xd5, 0x55, 0x12, 0x2f, 0xfe,
  0x28, 0x34, 0x23, 0xf0, 0x10, 0xc7, 0x48, 0xff, 0xe1, 0xf3, 0xd1, 0x53,
  0x01, 0xf4, 0xd6, 0xc2, 0x05, 0x23, 0x3f, 0x5a, 0x4a, 0xf2, 0x4b, 0x26,
  0xf2, 0xcd, 0x00, 0x00, 0x52, 0xff, 0xff, 0xff, 0x04, 0x00, 0x00, 0x00,
  0x14, 0x00, 0x00, 0x00, 0x29, 0x07, 0x00, 0x00, 0x7f, 0xfc, 0xff, 0xff,
  0xd3, 0x02, 0x00, 0x00, 0xbc, 0xfa, 0xff, 0xff, 0xc4, 0xff, 0xff, 0xff,
  0x30, 0xff, 0xff, 0xff, 0x34, 0xff, 0xff, 0xff, 0x0f, 0x00, 0x00, 0x00,
  0x4d, 0x4c, 0x49, 0x52, 0x20, 0x43, 0x6f, 0x6e, 0x76, 0x65, 0x72, 0x74,
  0x65, 0x64, 0x2e, 0x00, 0x01, 0x00, 0x00, 0x00, 0x14, 0x00, 0x00, 0x00,
  0x00, 0x00, 0x0e, 0x00, 0x18, 0x00, 0x14, 0x00, 0x10, 0x00, 0x0c, 0x00,
  0x08, 0x00, 0x04, 0x00, 0x0e, 0x00, 0x00, 0x00, 0x14, 0x00, 0x00, 0x00,
  0x1c, 0x00, 0x00, 0x00, 0xb0, 0x00, 0x00, 0x00, 0xb4, 0x00, 0x00, 0x00,
  0xb8, 0x00, 0x00, 0x00, 0x04, 0x00, 0x00, 0x00, 0x6d, 0x61, 0x69, 0x6e,
  0x00, 0x00, 0x00, 0x00, 0x02, 0x00, 0x00, 0x00, 0x60, 0x00, 0x00, 0x00,
  0x14, 0x00, 0x00, 0x00, 0x00, 0x00, 0x0e, 0x00, 0x1a, 0x00, 0x14, 0x00,
  0x10, 0x00, 0x0c, 0x00, 0x0b, 0x00, 0x04, 0x00, 0x0e, 0x00, 0x00, 0x00,
  0x1c, 0x00, 0x00, 0x00, 0x00, 0x00, 0x00, 0x09, 0x1c, 0x00, 0x00, 0x00,
  0x20, 0x00, 0x00, 0x00, 0x01, 0x00, 0x00, 0x00, 0x00, 0x00, 0x06, 0x00,
  0x08, 0x00, 0x04, 0x00, 0x06, 0x00, 0x00, 0x00, 0x00, 0x00, 0x80, 0x3f,
  0x01, 0x00, 0x00, 0x00, 0x04, 0x00, 0x00, 0x00, 0x01, 0x00, 0x00, 0x00,
  0x03, 0x00, 0x00, 0x00, 0x00, 0x00, 0x0e, 0x00, 0x14, 0x00, 0x00, 0x00,
  0x10, 0x00, 0x0c, 0x00, 0x0b, 0x00, 0x04, 0x00, 0x0e, 0x00, 0x00, 0x00,
  0x14, 0x00, 0x00, 0x00, 0x00, 0x00, 0x00, 0x08, 0x10, 0x00, 0x00, 0x00,
  0x14, 0x00, 0x00, 0x00, 0x04, 0x00, 0x04, 0x00, 0x04, 0x00, 0x00, 0x00,
  0x01, 0x00, 0x00, 0x00, 0x03, 0x00, 0x00, 0x00, 0x03, 0x00, 0x00, 0x00,
  0x00, 0x00, 0x00, 0x00, 0x02, 0x00, 0x00, 0x00, 0x01, 0x00, 0x00, 0x00,
  0x01, 0x00, 0x00, 0x00, 0x04, 0x00, 0x00, 0x00, 0x01, 0x00, 0x00, 0x00,
  0x00, 0x00, 0x00, 0x00, 0x05, 0x00, 0x00, 0x00, 0x48, 0x02, 0x00, 0x00,
  0xb0, 0x01, 0x00, 0x00, 0x24, 0x01, 0x00, 0x00, 0x80, 0x00, 0x00, 0x00,
  0x04, 0x00, 0x00, 0x00, 0xe2, 0xfd, 0xff, 0xff, 0x00, 0x00, 0x00, 0x01,
  0x18, 0x00, 0x00, 0x00, 0x20, 0x00, 0x00, 0x00, 0x3c, 0x00, 0x00, 0x00,
  0x05, 0x00, 0x00, 0x00, 0x00, 0x00, 0x00, 0x09, 0x50, 0x00, 0x00, 0x00,
  0x02, 0x00, 0x00, 0x00, 0xff, 0xff, 0xff, 0xff, 0x05, 0x00, 0x00, 0x00,
  0xcc, 0xfd, 0xff, 0xff, 0x08, 0x00, 0x00, 0x00, 0x10, 0x00, 0x00, 0x00,
  0x01, 0x00, 0x00, 0x00, 0x80, 0xff, 0xff, 0xff, 0xff, 0xff, 0xff, 0xff,
  0x01, 0x00, 0x00, 0x00, 0x00, 0x00, 0x80, 0x3b, 0x19, 0x00, 0x00, 0x00,
  0x53, 0x74, 0x61, 0x74, 0x65, 0x66, 0x75, 0x6c, 0x50, 0x61, 0x72, 0x74,
  0x69, 0x74, 0x69, 0x6f, 0x6e, 0x65, 0x64, 0x43, 0x61, 0x6c, 0x6c, 0x3a,
  0x30, 0x00, 0x00, 0x00, 0x02, 0x00, 0x00, 0x00, 0x01, 0x00, 0x00, 0x00,
  0x05, 0x00, 0x00, 0x00, 0x5a, 0xfe, 0xff, 0xff, 0x00, 0x00, 0x00, 0x01,
  0x18, 0x00, 0x00, 0x00, 0x20, 0x00, 0x00, 0x00, 0x40, 0x00, 0x00, 0x00,
  0x04, 0x00, 0x00, 0x00, 0x00, 0x00, 0x00, 0x09, 0x78, 0x00, 0x00, 0x00,
  0x02, 0x00, 0x00, 0x00, 0xff, 0xff, 0xff, 0xff, 0x05, 0x00, 0x00, 0x00,
  0x44, 0xfe, 0xff, 0xff, 0x08, 0x00, 0x00, 0x00, 0x14, 0x00, 0x00, 0x00,
  0x01, 0x00, 0x00, 0x00, 0x2a, 0x00, 0x00, 0x00, 0x00, 0x00, 0x00, 0x00,
  0x00, 0x00, 0x00, 0x00, 0x01, 0x00, 0x00, 0x00, 0xe6, 0x40, 0xb5, 0x3c,
  0x3c, 0x00, 0x00, 0x00, 0x73, 0x65, 0x71, 0x75, 0x65, 0x6e, 0x74, 0x69,
  0x61, 0x6c, 0x5f, 0x33, 0x34, 0x2f, 0x64, 0x65, 0x6e, 0x73, 0x65, 0x5f,
  0x35, 0x38, 0x2f, 0x4d, 0x61, 0x74, 0x4d, 0x75, 0x6c, 0x3b, 0x73, 0x65,
  0x71, 0x75, 0x65, 0x6e, 0x74, 0x69, 0x61, 0x6c, 0x5f, 0x33, 0x34, 0x2f,
  0x64, 0x65, 0x6e, 0x73, 0x65, 0x5f, 0x35, 0x38, 0x2f, 0x42, 0x69, 0x61,
  0x73, 0x41, 0x64, 0x64, 0x00, 0x00, 0x00, 0x00, 0x02, 0x00, 0x00, 0x00,
  0x01, 0x00, 0x00, 0x00, 0x05, 0x00, 0x00, 0x00, 0x8e, 0xff, 0xff, 0xff,
  0x00, 0x00, 0x00, 0x01, 0x14, 0x00, 0x00, 0x00, 0x34, 0x00, 0x00, 0x00,
  0x03, 0x00, 0x00, 0x00, 0x00, 0x00, 0x00, 0x09, 0x4c, 0x00, 0x00, 0x00,
  0xd4, 0xfe, 0xff, 0xff, 0x08, 0x00, 0x00, 0x00, 0x14, 0x00, 0x00, 0x00,
  0x01, 0x00, 0x00, 0x00, 0x00, 0x00, 0x00, 0x00, 0x00, 0x00, 0x00, 0x00,
  0x00, 0x00, 0x00, 0x00, 0x01, 0x00, 0x00, 0x00, 0x55, 0x3f, 0xdc, 0x3a,
  0x1d, 0x00, 0x00, 0x00, 0x73, 0x65, 0x71, 0x75, 0x65, 0x6e, 0x74, 0x69,
  0x61, 0x6c, 0x5f, 0x33, 0x34, 0x2f, 0x64, 0x65, 0x6e, 0x73, 0x65, 0x5f,
  0x35, 0x38, 0x2f, 0x4d, 0x61, 0x74, 0x4d, 0x75, 0x6c, 0x00, 0x00, 0x00,
  0x02, 0x00, 0x00, 0x00, 0x05, 0x00, 0x00, 0x00, 0xee, 0x00, 0x00, 0x00,
  0x00, 0x00, 0x16, 0x00, 0x1c, 0x00, 0x18, 0x00, 0x17, 0x00, 0x10, 0x00,
  0x0c, 0x00, 0x08, 0x00, 0x00, 0x00, 0x00, 0x00, 0x00, 0x00, 0x07, 0x00,
  0x16, 0x00, 0x00, 0x00, 0x00, 0x00, 0x00, 0x01, 0x14, 0x00, 0x00, 0x00,
  0x34, 0x00, 0x00, 0x00, 0x02, 0x00, 0x00, 0x00, 0x00, 0x00, 0x00, 0x02,
  0x5c, 0x00, 0x00, 0x00, 0x5c, 0xff, 0xff, 0xff, 0x08, 0x00, 0x00, 0x00,
  0x14, 0x00, 0x00, 0x00, 0x01, 0x00, 0x00, 0x00, 0x00, 0x00, 0x00, 0x00,
  0x00, 0x00, 0x00, 0x00, 0x00, 0x00, 0x00, 0x00, 0x01, 0x00, 0x00, 0x00,
  0x72, 0x1c, 0xdd, 0x36, 0x2d, 0x00, 0x00, 0x00, 0x73, 0x65, 0x71, 0x75,
  0x65, 0x6e, 0x74, 0x69, 0x61, 0x6c, 0x5f, 0x33, 0x34, 0x2f, 0x64, 0x65,
  0x6e, 0x73, 0x65, 0x5f, 0x35, 0x38, 0x2f, 0x42, 0x69, 0x61, 0x73, 0x41,
  0x64, 0x64, 0x2f, 0x52, 0x65, 0x61, 0x64, 0x56, 0x61, 0x72, 0x69, 0x61,
  0x62, 0x6c, 0x65, 0x4f, 0x70, 0x00, 0x00, 0x00, 0x01, 0x00, 0x00, 0x00,
  0x05, 0x00, 0x00, 0x00, 0x00, 0x00, 0x16, 0x00, 0x20, 0x00, 0x1c, 0x00,
  0x1b, 0x00, 0x14, 0x00, 0x10, 0x00, 0x0c, 0x00, 0x00, 0x00, 0x00, 0x00,
  0x08, 0x00, 0x07, 0x00, 0x16, 0x00, 0x00, 0x00, 0x00, 0x00, 0x00, 0x01,
  0x18, 0x00, 0x00, 0x00, 0x2c, 0x00, 0x00, 0x00, 0x4c, 0x00, 0x00, 0x00,
  0x01, 0x00, 0x00, 0x00, 0x00, 0x00, 0x00, 0x09, 0x68, 0x00, 0x00, 0x00,
  0x02, 0x00, 0x00, 0x00, 0xff, 0xff, 0xff, 0xff, 0xee, 0x00, 0x00, 0x00,
  0x0c, 0x00, 0x0c, 0x00, 0x00, 0x00, 0x00, 0x00, 0x08, 0x00, 0x04, 0x00,
  0x0c, 0x00, 0x00, 0x00, 0x08, 0x00, 0x00, 0x00, 0x14, 0x00, 0x00, 0x00,
  0x01, 0x00, 0x00, 0x00, 0x80, 0xff, 0xff, 0xff, 0xff, 0xff, 0xff, 0xff,
  0x00, 0x00, 0x00, 0x00, 0x01, 0x00, 0x00, 0x00, 0x81, 0x80, 0x80, 0x3b,
  0x20, 0x00, 0x00, 0x00, 0x73, 0x65, 0x72, 0x76, 0x69, 0x6e, 0x67, 0x5f,
  0x64, 0x65, 0x66, 0x61, 0x75, 0x6c, 0x74, 0x5f, 0x64, 0x65, 0x6e, 0x73,
  0x65, 0x5f, 0x35, 0x38, 0x5f, 0x69, 0x6e, 0x70, 0x75, 0x74, 0x3a, 0x30,
  0x00, 0x00, 0x00, 0x00, 0x02, 0x00, 0x00, 0x00, 0x01, 0x00, 0x00, 0x00,
  0xee, 0x00, 0x00, 0x00, 0x02, 0x00, 0x00, 0x00, 0x24, 0x00, 0x00, 0x00,
  0x04, 0x00, 0x00, 0x00, 0xf0, 0xff, 0xff, 0xff, 0x19, 0x00, 0x00, 0x00,
  0x02, 0x00, 0x00, 0x00, 0x00, 0x00, 0x00, 0x19, 0x0c, 0x00, 0x10, 0x00,
  0x0f, 0x00, 0x00, 0x00, 0x08, 0x00, 0x04, 0x00, 0x0c, 0x00, 0x00, 0x00,
  0x09, 0x00, 0x00, 0x00, 0x04, 0x00, 0x00, 0x00, 0x00, 0x00, 0x00, 0x09
};
